{"!":0,"\"":1,"#":2,"$":3,"%":4,"&":5,"'":6,"(":7,")":8,"*":9,"+":10,",":11,"-":12,".":13,"/":14,"0":15,"1":16,"2":17,"3":18,"4":19,"5":20,"6":21,"7":22,"8":23,"9":24,":":25,";":26,"<":27,"=":28,">":29,"?":30,"@":31,"[":32,"\\":33,"]":34,"^":35,"_":36,"`":37,"a":38,"b":39,"c":40,"d":41,"e":42,"f":43,"g":44,"h":45,"i":46,"j":47,"k":48,"l":49,"m":50,"n":51,"o":52,"p":53,"q":54,"r":55,"s":56,"t":57,"u":58,"v":59,"w":60,"x":61,"y":62,"z":63,"{":64,"|":65,"}":66,"~":67,"¡":68,"¢":69,"£":70,"¤":71,"¥":72,"¦":73,"§":74,"¨":75,"©":76,"ª":77,"«":78,"¬":79,"®":80,"¯":81,"°":82,"±":83,"²":84,"³":85,"´":86,"µ":87,"¶":88,"·":89,"¸":90,"¹":91,"º":92,"»":93,"¼":94,"½":95,"¾":96,"¿":97,"Â":98,"Ã":99,"Ä":100,"Å":101,"Æ":102,"Ç":103,"È":104,"É":105,"Ê":106,"Ë":107,"Ì":108,"Í":109,"Î":110,"Ï":111,"Ð":112,"Ñ":113,"Ò":114,"Ó":115,"Ô":116,"Õ":117,"Ö":118,"×":119,"Ø":120,"Ù":121,"Ú":122,"Û":123,"Ü":124,"Ý":125,"Þ":126,"ß":127,"à":128,"á":129,"â":130,"ã":131,"ä":132,"å":133,"æ":134,"ç":135,"è":136,"é":137,"ê":138,"ë":139,"ì":140,"í":141,"î":142,"ï":143,"ð":144,"ñ":145,"ò":146,"ó":147,"ô":148,"ā":149,"Ă":150,"ă":151,"Ć":152,"ć":153,"Ĉ":154,"Ď":155,"ď":156,"Đ":157,"đ":158,"Ē":159,"ē":160,"Ĕ":161,"ĕ":162,"Ė":163,"ė":164,"Ę":165,"ę":166,"Ě":167,"ě":168,"Ĝ":169,"ĝ":170,"Ğ":171,"ğ":172,"ġ":173,"Ģ":174,"ģ":175,"Ĥ":176,"ĥ":177,"Ħ":178,"ħ":179,"Ĩ":180,"ĩ":181,"Ī":182,"ī":183,"Ĭ":184,"ĭ":185,"Į":186,"į":187,"İ":188,"ı":189,"Ĳ":190,"ĳ":191,"Ĵ":192,"ĵ":193,"Ķ":194,"ķ":195,"ĸ":196,"Ĺ":197,"ĺ":198,"Ļ":199,"ļ":200,"Ľ":201,"ľ":202,"Ŀ":203,"ŀ":204,"Ł":205,"ł":206,"Ń":207,"¼</w>":208,"´</w>":209,"Ģ</w>":210,"Ħ</w>":211,"y</w>":212,"ĳ</w>":213,"¹</w>":214,"ł</w>":215,"g</w>":216,"Ĳ</w>":217,"°</w>":218,"Ī</w>":219,"ĺ</w>":220,"ľ</w>":221,"¤</w>":222,"¸</w>":223,"Ķ</w>":224,"n</w>":225,"¨</w>":226,"s</w>":227,"±</w>":228,"m</w>":229,"ĭ</w>":230,"Į</w>":231,"µ</w>":232,"¬</w>":233,"d</w>":234,"Ń</w>":235,"e</w>":236,"²</w>":237,"¥</w>":238,"i</w>":239,"£</w>":240,"Ĵ</w>":241,"ı</w>":242,"t</w>":243,"Ĩ</w>":244,"a</w>":245,"¯</w>":246,"Ŀ</w>":247,"Ļ</w>":248,"·</w>":249,"ħ</w>":250,"ī</w>":251,"*</w>":252,"Ĭ</w>":253,"ª</w>":254,"ķ</w>":255,"z</w>":256,"c</w>":257,"ģ</w>":258,"®</w>":259,"½</w>":260,"k</w>":261,"o</w>":262,"w</w>":263,"r</w>":264,"İ</w>":265,"į</w>":266,"l</w>":267,"x</w>":268,"f</w>":269,"b</w>":270,"«</w>":271,"¿</w>":272,"©</w>":273,")</w>":274,"ĥ</w>":275,"»</w>":276,"ĵ</w>":277,"¡</w>":278,"Ł</w>":279,"ŀ</w>":280,"Ĺ</w>":281,"$</w>":282,"ĸ</w>":283,"j</w>":284,"v</w>":285,",</w>":286,"§</w>":287,"ļ</w>":288,"º</w>":289,"\"</w>":290,"ĩ</w>":291,"p</w>":292,"h</w>":293,"¦</w>":294,".</w>":295,"Ľ</w>":296,"<</w>":297,"u</w>":298,"¶</w>":299,"³</w>":300,"]</w>":301,"¢</w>":302,"¾</w>":303,"q</w>":304,"#</w>":305,"'</w>":306,"+</w>":307,"!</w>":308,"~</w>":309,"\\</w>":310,"Ĥ</w>":311,"-</w>":312,";</w>":313,"_</w>":314,"%</w>":315,"(</w>":316,"?</w>":317,"/</w>":318,"=</w>":319,"}</w>":320,"{</w>":321,"|</w>":322,"^</w>":323,"[</w>":324,"@</w>":325,":</w>":326,"></w>":327,"&</w>":328,"`</w>":329,"Ĝ</w>":330,"ā</w>":331,"ď</w>":332,"8</w>":333,"Ĉ</w>":334,"ē</w>":335,"Ě</w>":336,"Ć</w>":337,"Đ</w>":338,"ă</w>":339,"ġ</w>":340,"ć</w>":341,"Ă</w>":342,"Ę</w>":343,"1</w>":344,"9</w>":345,"5</w>":346,"7</w>":347,"Ğ</w>":348,"Ē</w>":349,"ě</w>":350,"6</w>":351,"ĝ</w>":352,"đ</w>":353,"3</w>":354,"Ď</w>":355,"ę</w>":356,"2</w>":357,"Ĕ</w>":358,"ė</w>":359,"ğ</w>":360,"0</w>":361,"4</w>":362,"Ė</w>":363,"ĕ</w>":364,"ìĿ":365,"íķ":366,"ëĭ":367,"ìĹ":368,"ìŀ":369,"ê³":370,"ìł":371,"ê°":372,"ëĬ":373,"ìĦ":374,"ì§":375,"ëĭ¤</w>":376,"ëĬĶ</w>":377,"ìķ":378,"ìĿ´":379,"ìĭ":380,"ê²":381,"ìĿĦ</w>":382,"ë¡":383,"ê¸":384,"ë§":385,"ìľ":386,"ëı":387,"ëĤ":388,"íķĺ":389,"ë°":390,"ìĤ":391,"th":392,"ìĿ´</w>":393,"ìĿĺ</w>":394,"ë¥":395,"ëĵ":396,"ìļ":397,"êµ":398,"ê³ł</w>":399,"ìĸ":400,"ìĹĲ</w>":401,"ë¡ľ</w>":402,"ë¦":403,"ì§Ģ":404,"ë¶":405,"ë³":406,"ìĿĢ</w>":407,"ìĺ":408,"ë¥¼</w>":409,"ìĥ":410,"ìĪ":411,"ëĮ":412,"Īëĭ¤</w>":413,"âĢ":414,"ìĽ":415,"ê¸°":416,"ìĤ¬":417,"ê·":418,"in":419,"ìĬ":420,"ë¬":421,"íĸ":422,"ìĹĲ":423,"ê°Ģ</w>":424,"ë©":425,"ëĮĢ":426,"íķľ</w>":427,"ëª":428,"ëł":429,"íĻ":430,"ìľ¼":431,"ìĭľ":432,"the</w>":433,"ìĦľ</w>":434,"an":435,"íĺ":436,"ëĿ":437,"ê°Ģ":438,"ì²":439,"ìŀĲ":440,"ìĨ":441,"ëĭ¤":442,"ë¦¬":443,"ëĲ":444,"ìłķ":445,"ëıĦ</w>":446,"ìķĦ":447,"ëį":448,"ì£":449,"er":450,"ìĻ":451,"ë²":452,"ìĸ´":453,"ìłĦ":454,"ëĵ¤":455,"ìĿ¸":456,"ìľ¼ë¡ľ</w>":457,"ë³´":458,"re":459,"ì¹":460,"ë¶Ģ":461,"ëħ":462,"ê±":463,"ì°":464,"ì¤":465,"ì¡":466,"ì§Ģ</w>":467,"ìĥģ":468,"ìĪĺ":469,"íķľ":470,"ê·¸":471,"ëĿ¼":472,"ëŀ":473,"ë¯":474,"ë¹":475,"ìĬ¤":476,"ìŀĪ":477,"ëŁ":478,"ì£¼":479,"ti":480,"en":481,"íĥ":482,"ar":483,"ê´":484,"ì¶":485,"ìŀ¥":486,"ëĤĺ":487,"íķ´</w>":488,"ìłľ":489,"ê²Į</w>":490,"on":491,"íļ":492,"ed</w>":493,"íķ´":494,"ìĽĲ":495,"íĬ":496,"ëıĦ":497,"ing</w>":498,"ìĹĲìĦľ</w>":499,"ou":500,"íĮ":501,"ê³µ":502,"or":503,"íĸĪëĭ¤</w>":504,"ìĦľ":505,"to</w>":506,"on</w>":507,"er</w>":508,"ê³¼</w>":509,"ìĿ¼":510,"ê²ĥ":511,"ìĦ±":512,"íĨ":513,"íı":514,"ìľĦ":515,"ìłģ":516,"ê²½":517,"êµŃ":518,"and</w>":519,"ë¡ľ":520,"êµ¬":521,"íĶ":522,"ê¸°</w>":523,"ê³ł":524,"of</w>":525,"al":526,"ìĨĮ":527,"ê¹":528,"st":529,"ëıĻ":530,"ìĿ¸</w>":531,"ë¹Ħ":532,"íķĺëĬĶ</w>":533,"ìĭł":534,"ìĿĺ":535,"in</w>":536,"ì¡°":537,"it":538,"ë§Į</w>":539,"ê´Ģ":540,"ë¬¸":541,"ë§Ī":542,"ìĪĺ</w>":543,"ë©´</w>":544,"ìľł":545,"ë¬´":546,"es</w>":547,"ìĺ¤":548,"ãħ":549,"ëĲĺ":550,"ëª¨":551,"ìĿ´ëĭ¤</w>":552,"ëĦ":553,"at</w>":554,"at":555,"íĻĶ":556,"ëĤĺ</w>":557,"íĦ":558,"ì¤ĳ":559,"ìĻĢ</w>":560,"is</w>":561,"ìĹ¬":562,"ê³Ħ":563,"ìĦł":564,"ë©°</w>":565,"ë§Į":566,"âĢĻ</w>":567,"ê°ľ":568,"ro":569,"ìļ°":570,"ê±°":571,"ëĶ":572,"ìĹ°":573,"ìĹħ":574,"ëĤ´":575,"íļĮ":576,"ë¯¸":577,"íķĺê³ł</w>":578,"ìŀĪëĭ¤</w>":579,"ìĥĿ":580,"ì§Ħ":581,"ìĿ¼</w>":582,"ìĦ¸":583,"íķł</w>":584,"íĨµ":585,"íĽ":586,"ë°©":587,"íŀ":588,"ì¢":589,"ìļ©":590,"íģ":591,"ì¹ĺ":592,"ì¦":593,"as</w>":594,"ac":595,"ic":596,"ìĺģ":597,"ëªħ":598,"ìŀ¬":599,"or</w>":600,"ìĸ´</w>":601,"ë°ľ":602,"ëĭ¨":603,"ìĭ¤":604,"ìķĪ":605,"ë£":606,"ì´":607,"íĸī":608,"il":609,"an</w>":610,"ë¶Ħ":611,"el":612,"ëķ":613,"íĬ¸":614,"âĢľ</w>":615,"ìĤ°":616,"ìĹĨ":617,"ëĬĶ":618,"ëĳ":619,"ãħĭ":620,"êµĲ":621,"ìŀĲ</w>":622,"ëĵ±":623,"ëŁ¬":624,"ëĭ¹":625,"íķĻ":626,"íİ":627,"as":628,"âĢĿ</w>":629,"om":630,"ê³¼":631,"ëĵľ":632,"ë§Ĳ":633,"íķľëĭ¤</w>":634,"ìĭľ</w>":635,"al</w>":636,"ëħĦ</w>":637,"is":638,"ec":639,"ê¸Ī":640,"es":641,"ë©´":642,"wh":643,"ëĭĪ":644,"ì²´":645,"ìķĬ":646,"ìŀĳ":647,"ì½":648,"ëį°</w>":649,"ë°Ķ":650,"en</w>":651,"ìŀħ":652,"ê°Ĳ":653,"ìĹŃ":654,"ê¶":655,"íĳ":656,"íĸĪ":657,"ë¦¬</w>":658,"that</w>":659,"ì°¨":660,"ë°ĺ":661,"ìļĶ":662,"ê²°":663,"ë¬¼":664,"íĹ":665,"ëł¤":666,"ìĹĪëĭ¤</w>":667,"it</w>":668,"íĺĦ":669,"ìµ":670,"ãħĭãħĭ":671,"ëĨ":672,"ë¯¼":673,"ì¶ľ":674,"ê°Ħ":675,"ëĿ¼</w>":676,"ê°ķ":677,"íĴ":678,"ìŀ¥</w>":679,"ly</w>":680,"am":681,"ve</w>":682,"ì±":683,"ì§Ģë§Į</w>":684,"ë¥´":685,"ol":686,"ìĽĲ</w>":687,"âĢĺ</w>":688,"ìµľ":689,"ìĺĪ":690,"íĥĢ":691,"ìŀĪëĬĶ</w>":692,"ìłľ</w>":693,"ê¹Į":694,"ìĬ¤</w>":695,"ë§¤":696,"us":697,"ìķ¼</w>":698,"ur":699,"tion</w>":700,"pl":701,"ëĭ¤ëĬĶ</w>":702,"íĤ":703,"ëł¥":704,"ìĭ¬":705,"ìĭĿ":706,"íı¬":707,"ha":708,"ìķĦ</w>":709,"ìļĶ</w>":710,"ìĦ¤":711,"ëĲľ</w>":712,"íĦ°</w>":713,"ìĸĳ":714,"ìĿ´ëĿ¼":715,"si":716,"Â·</w>":717,"ëĵ±</w>":718,"íŀĪ</w>":719,"ê±´":720,"ëĮĢ</w>":721,"ë°°":722,"li":723,"ìļ´":724,"ri":725,"ìłĢ":726,"un":727,"ëħ¸":728,"íĶĦ":729,"ch":730,"ë¨":731,"ê°ģ":732,"ìłĲ":733,"íħ":734,"ìĿĮ":735,"ë¶Ī":736,"ëķĮ":737,"..</w>":738,"for</w>":739,"íĳľ":740,"ìĹĪ":741,"ë°Ľ":742,"ëĤ¨":743,"ëįĺ</w>":744,"ì§ģ":745,"ìĤ¬</w>":746,"ëłĪ":747,"ent</w>":748,"ad":749,"ì¶Ķ":750,"íĮĮ":751,"no":752,"ì²Ń":753,"ìłģ</w>":754,"ìĽĶ</w>":755,"le":756,"íĿ":757,"íĺ¸":758,"ìłĦ</w>":759,"lo":760,"ìŀĦ":761,"ëĭ¤ê³ł</w>":762,"ìĨį":763,"ëĭ¬":764,"the":765,"ìķĺ":766,"íĻķ":767,"ì²ĺ":768,"êµŃ</w>":769,"de":770,"ê·¸</w>":771,"ëĭĪëĭ¤</w>":772,"ê°Ļ":773,"ëĶ°":774,"íķ¨":775,"ëħĦ":776,"ab":777,"ë¸":778,"íķ©":779,"ë²ķ":780,"íĶ¼":781,"ìĤ¬ëŀ":782,"ag":783,"íĦ°":784,"ì¸":785,"ì½Ķ":786,"íĪ":787,"di":788,"íĭ":789,"íĬ¹":790,"ê¶Į":791,"ëĵ¤ìĿ´</w>":792,"ê°Ħ</w>":793,"ê¹Įì§Ģ</w>":794,"ts</w>":795,"ìĹĲê²Į</w>":796,"ìĥģ</w>":797,"ëĪ":798,"ne":799,"ëģ":800,"ëĺ":801,"ìķ¼":802,"ë³¸":803,"íģ¬":804,"ì¦Ŀ":805,"ë²Ħ":806,"ë©´ìĦľ</w>":807,"ìłģìĿ¸</w>":808,"con":809,"se":810,"ì§ĢëĤ":811,"ëŀĺ":812,"íĽĦ</w>":813,"ê²©":814,"ëĬ¥":815,"wit":816,"be":817,"ľëĭ¤</w>":818,"íĮĲ":819,"pro":820,"sh":821,"ì»":822,"íĪ¬":823,"ìĹĲìĦľ":824,"ì¹´":825,"íĽĦ":826,"ìĻ¸":827,"ìĹ¬</w>":828,"ìĺĢ":829,"íĬ¸</w>":830,"ìĶ":831,"ìħ":832,"ì¢ħ":833,"ìĹĲëĬĶ</w>":834,"íķĺê²Į</w>":835,"ì¤Ģ":836,"ìĬµ":837,"íĻľ":838,"ay</w>":839,"su":840,"ìĺ¬":841,"ver":842,"íıī":843,"ëĸ":844,"ë¶ĢíĦ°</w>":845,"ë§İ":846,"with</w>":847,"ì§ĳ":848,"tr":849,"le</w>":850,"com":851,"bu":852,"ëĶĶ":853,"ëª©":854,"po":855,"ì§Ħ</w>":856,"íĥľ":857,"em":858,"ers</w>":859,"ìłģìľ¼ë¡ľ</w>":860,"íĻĺ":861,"ere</w>":862,"ë¶Ģ</w>":863,"ëįĶ":864,"ai":865,"ê¸ī":866,"Ķëĭ¤</w>":867,"ëĲľëĭ¤</w>":868,"ë³µ":869,"ê²Į":870,"ce</w>":871,"ëĵľ</w>":872,"ê²ł":873,"ì¼":874,"íĨł":875,"ëĮĢíķľ</w>":876,"ëĳĲ":877,"gh":878,"ëĥ":879,"ëĬĶëį°</w>":880,"ìķĮ":881,"ì´Ī":882,"ìĬ¹":883,"ëį°":884,"ì²ľ":885,"íĺķ":886,"ë¥¸</w>":887,"was</w>":888,"ìĹ´":889,"are</w>":890,"ìķ½":891,"ìķĪ</w>":892,"ìĸ¸":893,"íĴĪ":894,"íļĮ</w>":895,"ìļ´</w>":896,"ë°ı</w>":897,"ex":898,"ëĲĲ":899,"ìĤ¬ëŀĮ":900,"ëĵ¤ìĿĢ</w>":901,"íĤ¤":902,"ë³Ģ":903,"ap":904,"ìĦ±</w>":905,"êµ¬</w>":906,"ê·¼":907,"ë©Ķ":908,"ê´ĳ":909,"ation</w>":910,"ëĤ´</w>":911,"be</w>":912,"ìĦł</w>":913,"mo":914,"ê»":915,"ìłķ</w>":916,"ìļ¸":917,"ë´":918,"ê¹Ģ":919,"ar</w>":920,"yo":921,"vi":922,"íĸ¥":923,"ë°ķ":924,"ëĭĪ</w>":925,"st</w>":926,"êµ°":927,"ëĵ¤ìĿĺ</w>":928,"ìĦĿ":929,"ì¤ĳ</w>":930,"íĻĶ</w>":931,"tion":932,"ìļ°</w>":933,"sp":934,"ëķĮë¬¸":935,"ëĭ´":936,"ëĦĪ":937,"íķŃ":938,"oun":939,"ìĿĢ":940,"ê²ĥ</w>":941,"ì°¸":942,"you</w>":943,"ê²ĥìľ¼ë¡ľ</w>":944,"ì£¼</w>":945,"this</w>":946,"for":947,"fi":948,"out</w>":949,"ëĭ¹</w>":950,"ëª»":951,"ì¢ĭ":952,"ë£¨":953,"íİ¸":954,"he</w>":955,"ë¡Ŀ</w>":956,"ìľ¡":957,"ìĤ´":958,"ìĪł":959,"ëįĶ</w>":960,"ìŀ¬</w>":961,"ëĳĲ</w>":962,"ìĹħ</w>":963,"ëıħ":964,"íĺĳ":965,"ê²Ģ":966,"ì±ħ":967,"ld</w>":968,"ak":969,"ìľĦíķ´</w>":970,"íķĦ":971,"ë²Ī":972,"ìķĦëĭĪ":973,"íķĺì§Ģ</w>":974,"by</w>":975,"ìķĺëĭ¤</w>":976,"ul":977,"oo":978,"ë£Į":979,"ì§Ī":980,"ìĽĶ":981,"ìłĪ":982,"ê·ľ":983,"one</w>":984,"ate</w>":985,"ìĸµ":986,"ë°Ŀ":987,"ëĤł</w>":988,"ìĿ´ëĿ¼ê³ł</w>":989,"ff":990,"ìĺĢëĭ¤</w>":991,"ëĲĺëĬĶ</w>":992,"ãĢ":993,"ìĪľ":994,"ìķŀ":995,"íĻ©":996,"per":997,"íķĺëĭ¤</w>":998,"ëªħ</w>":999,"ëıĮ":1000,"ë²Ī</w>":1001,"ë§Ŀ":1002,"ay":1003,"ëĵł</w>":1004,"ter</w>":1005,"pre":1006,"have</w>":1007,"ê²ĥìĿ´ëĭ¤</w>":1008,"fro":1009,"ity</w>":1010,"ë§ĲíĸĪëĭ¤</w>":1011,"ë¶ģ":1012,"se</w>":1013,"íķľêµŃ":1014,"ê·¸ëŁ¬":1015,"ê³Ħ</w>":1016,"ìĥĪ":1017,"ãħĭãħĭãħĭãħĭ":1018,"from</w>":1019,"ë³ĳ":1020,"ë³Ħ":1021,"'s</w>":1022,"ì°¨</w>":1023,"ë§ŀ":1024,"íĨµíķ´</w>":1025,"co":1026,"ëķĮ</w>":1027,"qu":1028,"all</w>":1029,"ì·":1030,"ì°½":1031,"ì¶ķ":1032,"ter":1033,"ìĤ°</w>":1034,"ìĻĢ":1035,"wor":1036,"ëĨĴ":1037,"but</w>":1038,"we</w>":1039,"do":1040,"ì¡Į":1041,"ëĦ¤":1042,"íĭ°":1043,"ìĹĲìĦľëĬĶ</w>":1044,"íķĺë©´</w>":1045,"ëĲĲëĭ¤</w>":1046,"not</w>":1047,"to":1048,"íĹĺ":1049,"ë¸Į":1050,"ì¹ĺ</w>":1051,"ëĿ¼ê³ł</w>":1052,"ë³´ëĭ¤</w>":1053,"ê¸Ī</w>":1054,"ther</w>":1055,"ëĴ":1056,"ê¸°ë¥¼</w>":1057,"im":1058,"we":1059,"pe":1060,"ìŀĲëĬĶ</w>":1061,"ëĵ¤</w>":1062,"ted</w>":1063,"ë¨¸":1064,"ëĲł</w>":1065,"ci":1066,"íķĺê¸°</w>":1067,"ê°ľ</w>":1068,"íķĺìĹ¬</w>":1069,"ould</w>":1070,"ë¦¬ê³ł</w>":1071,"ë¦¬ëĬĶ</w>":1072,"th</w>":1073,"íķł":1074,"ê»ĺ</w>":1075,"ìľ¼ë¡ľ":1076,"so</w>":1077,"our</w>":1078,"ê²ĥìĿĢ</w>":1079,"ê°ĻìĿĢ</w>":1080,"ìļ©</w>":1081,"íħĮ":1082,"ëĪĦ":1083,"ê°ĢëĬ¥":1084,"ëł¹":1085,"ìĤ¬ìĹħ":1086,"ìĥĿê°ģ":1087,".\"</w>":1088,"ì³":1089,"ëł¨":1090,"ì§ĢëĤľ</w>":1091,"ìĹĲëıĦ</w>":1092,"ìĨĲ":1093,"ìķł":1094,"ìľ¼ë©°</w>":1095,"ra":1096,"ëĵ¤ìĸ´":1097,"ch</w>":1098,"ì·¨":1099,"ho":1100,"ìĵ":1101,"ë°Ŀíĺ":1102,"ds</w>":1103,"íĶĮ":1104,"ëŁ°</w>":1105,"ëĵ¤ìĿĦ</w>":1106,"ëıĻ</w>":1107,"ìĶ¨":1108,"ìĨ¡":1109,"ìŀĲìĭł":1110,"ãģ":1111,"ëŁ¬</w>":1112,"ì§ĢëĬĶ</w>":1113,"ì´Ŀ":1114,"ëī":1115,"ìĽĮ":1116,"they</w>":1117,"ë¹Ħ</w>":1118,"ver</w>":1119,"me</w>":1120,"íķĺë©°</w>":1121,"ê²ĥìĿ´</w>":1122,"ëĭ¨</w>":1123,"ì²´</w>":1124,"hi":1125,"ìĤ¼":1126,"íķĺì§Ģë§Į</w>":1127,"ìĹŃ</w>":1128,"ght</w>":1129,"íĮ¨":1130,"ëĺĲ":1131,"ill</w>":1132,"ìĨĮ</w>":1133,"et</w>":1134,"cl":1135,"ì¶©":1136,"ëĮĢë¡ľ</w>":1137,"ëĿ¼ëĬĶ</w>":1138,"ë¦°</w>":1139,"his</w>":1140,"ìķħ":1141,"ê´Ģê³Ħ":1142,"ìĿ´ëĤĺ</w>":1143,"par":1144,"íķ¨ê»ĺ</w>":1145,"ëĺĲ</w>":1146,"ê±´</w>":1147,"ìº":1148,"ìķĦìĿ´":1149,"um":1150,"ìŀ¥ìĿĢ</w>":1151,"go":1152,"íĥĿ":1153,"ally</w>":1154,"ëĭ¤ë¥¸</w>":1155,"ìĭł</w>":1156,"ìľĦ</w>":1157,"íİĺ":1158,"ì±Ħ":1159,"ëł¤</w>":1160,"íļį":1161,"me":1162,"ore</w>":1163,"ë°±":1164,"ëıĦë¡Ŀ</w>":1165,"ì§ĢëĤľ":1166,"ë¡Ŀ":1167,"ì¡±":1168,"ê¸°ìĹħ":1169,"âĸ":1170,"has</w>":1171,"ì¡°</w>":1172,"íĺķ</w>":1173,"ëī´":1174,"ëĬĺ":1175,"ë°ĿíĺĶëĭ¤</w>":1176,"ëĬĲ":1177,"ê²ĥìĿĦ</w>":1178,"ëłĩ":1179,"ë¡ł":1180,"ë¦°":1181,"ì§ĢìĹŃ":1182,"ë¦¬ë¥¼</w>":1183,"ê·¹":1184,"ê¹Į</w>":1185,"ë¬¸ìłľ":1186,"),</w>":1187,"ìĬµëĭĪëĭ¤</w>":1188,"ëķĮë¬¸ìĹĲ</w>":1189,"ë¨¹":1190,"ë¦Ħ":1191,"ìłĳ":1192,"ëŁ¼</w>":1193,"ìĻĦ":1194,"ìŁ":1195,"bo":1196,"aid</w>":1197,"ë¦½":1198,"íŀĪ":1199,"ìĺ¨":1200,"ìĭĿ</w>":1201,"ì°°":1202,"por":1203,"ë¬´</w>":1204,"ìĿ´ëĬĶ</w>":1205,"ëŁī":1206,"íļ¨":1207,"ê¸Ģ":1208,"íľ":1209,"ê²¬":1210,"tions</w>":1211,"ëł¥</w>":1212,"ìĽĢ":1213,"ê¸°ëıĦ</w>":1214,"ê±°</w>":1215,"ë¯¸</w>":1216,"ìĨį</w>":1217,"ë§ī":1218,"ìĿĳ":1219,"ìľĦíķľ</w>":1220,"ì¡´":1221,"ìĤ¬ë¥¼</w>":1222,"ê³³":1223,"ing":1224,"ìĿĮ</w>":1225,"ìĸ´ëĸ":1226,"ê±¸":1227,"du":1228,"íķ´ìĦľ</w>":1229,"ìŀ¡":1230,"ë²ł":1231,"íķ´ìķ¼</w>":1232,"âĢ¦</w>":1233,"ìĿĦ":1234,"ìľĦìĽĲ":1235,"ë²Ķ":1236,"gr":1237,"íĶĦë¡ľ":1238,"ìĤ¬ìļ©":1239,"str":1240,"op":1241,"ì§ĢìĽĲ":1242,"ìŀ¥ìĿĦ</w>":1243,"ìĭľìŀĳ":1244,"ding</w>":1245,"ëĤł":1246,"de</w>":1247,"ë¥ĺ":1248,"ëĤľ</w>":1249,"ìłķë¶Ģ":1250,"ìłĲ</w>":1251,"ëĨį":1252,"ì»¤":1253,"ëŀĢ":1254,"ì²ł":1255,"ëľ":1256,"ir</w>":1257,"ìĤ¬íļĮ":1258,"ëĵ±ìĿĦ</w>":1259,"said</w>":1260,"ê´Ģ</w>":1261,"ë¬¸</w>":1262,"will</w>":1263,"¸ëĭ¤</w>":1264,"af":1265,"ë²Į":1266,"ë¡ł</w>":1267,"ìī":1268,"êµĲìľ¡":1269,"ì¹ľ":1270,"ì°¾":1271,"ê¶Į</w>":1272,"ëĮĢíĳľ":1273,"man":1274,"ëĮĢíķ´</w>":1275,"íķĦìļĶ":1276,"íĸī</w>":1277,"ëĤĺëĬĶ</w>":1278,"ê°Ģìŀ¥</w>":1279,"ìĸ¼":1280,"ain":1281,"som":1282,"ple</w>":1283,"ì¡Įëĭ¤</w>":1284,"ê¸°ìĹĲ</w>":1285,"ëĪĪ":1286,"ting</w>":1287,"ëĶ°ëĿ¼</w>":1288,"ë¿":1289,"te":1290,"ì¹¨":1291,"ëĦĺ":1292,"ìĹĨëĬĶ</w>":1293,"ê°ģ</w>":1294,"he":1295,"more</w>":1296,"ìŀĲê°Ģ</w>":1297,"íĹĪ":1298,"ìĿµ":1299,"ê·¸ëĬĶ</w>":1300,"ë¶Ħ</w>":1301,"ìĿ´íĽĦ</w>":1302,"ë²ķ</w>":1303,"ëłĪìĿ´":1304,"ment</w>":1305,"íıŃ":1306,"ì¸¡":1307,"ëĲĺê³ł</w>":1308,"ìĦ¸</w>":1309,"ë§Ī</w>":1310,"ë³¸</w>":1311,"ye":1312,"pu":1313,"ad</w>":1314,"ì¼Ģ":1315,"ìĭľê°Ħ":1316,"ev":1317,"ëŀĺ</w>":1318,"ìĺ¨</w>":1319,"can</w>":1320,"fe":1321,"ì§Ģë¥¼</w>":1322,"ìķ½</w>":1323,"their</w>":1324,"ê²½ìļ°</w>":1325,"ëĭ¤ë©´</w>":1326,"gi":1327,"ì¿":1328,"ì²ĺëŁ¼</w>":1329,"ê¸¸":1330,"ë¦¬ê°Ģ</w>":1331,"ëł¥ìĿĦ</w>":1332,"ìį":1333,"ëĤľ":1334,"ess</w>":1335,"ìĿ´ëĿ¼ëĬĶ</w>":1336,"est</w>":1337,"ke</w>":1338,"ìĿ´ìĹĪëĭ¤</w>":1339,"ìĿ´ë²Ī</w>":1340,"ìĵ°":1341,"gh</w>":1342,"ìĿ´ê³ł</w>":1343,"ë¦¼":1344,"ame</w>":1345,"ê·¼</w>":1346,"ure</w>":1347,"ìĦ±ìĿĦ</w>":1348,"êµĲ</w>":1349,"ìĹĨëĭ¤</w>":1350,"íŀĺ":1351,"au":1352,"mar":1353,"íį":1354,"age</w>":1355,"ëĿ½":1356,"ì¦Ī":1357,"ì§Ħíĸī":1358,"ìŁģ":1359,"ëĨĵ":1360,"our":1361,"ìĦ¼":1362,"ãĨ":1363,"ëĮĢíĨµ":1364,"who</w>":1365,"ìĹ°êµ¬":1366,"rec":1367,"ìľ¨":1368,"ìĦľëĬĶ</w>":1369,"ìĿ´ë¥¼</w>":1370,"ëħĢ":1371,"ge</w>":1372,"ë§İìĿĢ</w>":1373,"ì¤Ħ":1374,"ìłĢ</w>":1375,"ich</w>":1376,"ëħ¼":1377,"íĥĦ":1378,"wn</w>":1379,"ìĥģíĻ©":1380,"up</w>":1381,"ê°Ŀ":1382,"ê²¨":1383,"ê±°ëĤĺ</w>":1384,"ê¸°ê°Ģ</w>":1385,"ent":1386,"ë¹ł":1387,"ê°ĢëĬĶ</w>":1388,"ìª":1389,"ìĥģê¸°</w>":1390,"ëĦ¤</w>":1391,"íģ¬</w>":1392,"íķĺëĤĺ":1393,"ê¼":1394,"ì§Ģê³ł</w>":1395,"ê·¸ë¦¬ê³ł</w>":1396,"ëŀľ":1397,"tic":1398,"ì§Ī</w>":1399,"ì°©":1400,"if</w>":1401,"about</w>":1402,"ë°Ģ":1403,"ê·¸ëŁ¬ëĤĺ</w>":1404,"ê·Ģ":1405,"ëĭ¬</w>":1406,"ë¸Ķ":1407,"ast</w>":1408,"ê¾":1409,"ãħĭ</w>":1410,"ë¬¼</w>":1411,"íķĺë©´ìĦľ</w>":1412,"íı¬</w>":1413,"la":1414,"ìļ¸</w>":1415,"ìĭ¶":1416,"day</w>":1417,"ìŀĪìĹĪëĭ¤</w>":1418,"ust</w>":1419,"íĺ¼":1420,"ìĺ¤ëĬĶ</w>":1421,"íĿ¬":1422,"ê³Ħíļį":1423,"min":1424,"ëĭ¤ìĭľ</w>":1425,"ì¢ħ</w>":1426,"ant</w>":1427,"ìĤ¬ìĿ´":1428,"ìĹĨìĿ´</w>":1429,"there</w>":1430,"ìŀĺ</w>":1431,"its</w>":1432,"ê²łëĭ¤</w>":1433,"der</w>":1434,"ê³¨":1435,"ks</w>":1436,"ìĿ´ëĤł</w>":1437,"íĬ¹íŀĪ</w>":1438,"us</w>":1439,"ëĬĶëĭ¤</w>":1440,"ëıĻìķĪ</w>":1441,"ë³´</w>":1442,"re</w>":1443,"ìĭ¤</w>":1444,"íģ°</w>":1445,"use</w>":1446,"ated</w>":1447,"ëŁ°":1448,"ìĽĲìĿĦ</w>":1449,"ìĬ¤íĬ¸":1450,"ê²½ìłľ":1451,"which</w>":1452,"ìĥģìĿĦ</w>":1453,"ëł¨</w>":1454,"ëŀĢ</w>":1455,"ìĤ¬ëĬĶ</w>":1456,"ice</w>":1457,"ìĿ´ìĸ´":1458,"ìľ¼ë©´</w>":1459,"ìłķìĿĦ</w>":1460,"ëĭ¤ê°Ģ</w>":1461,"ty</w>":1462,"íĴĪ</w>":1463,"ìĭľìŀ¥":1464,"were</w>":1465,"íģ´":1466,"ack</w>":1467,"had</w>":1468,"íĺ¸</w>":1469,"ëĵĿ":1470,"ë§Ĳ</w>":1471,"ìĦľìļ¸":1472,"ëĭµ":1473,"ìŀĦ</w>":1474,"ãĨį":1475,"ì£½":1476,"...</w>":1477,"ìĥī":1478,"ë°ĺ</w>":1479,"bl":1480,"ìķ¡":1481,"other</w>":1482,"ence</w>":1483,"what</w>":1484,"mi":1485,"ëģĿ":1486,"íİ¸</w>":1487,"able</w>":1488,"red</w>":1489,"ëı¼</w>":1490,"ìĥĿ</w>":1491,"ë¬¸íĻĶ":1492,"ìŀĪìĹĪ":1493,"ì¤Ģ</w>":1494,"ìľµ":1495,"ents</w>":1496,"íĪ¬ìŀĲ":1497,"ê¸ī</w>":1498,"ded</w>":1499,"ìĤ¬ìĭ¤":1500,"ìĦ±ìĿ´</w>":1501,"ëª¨ëĳĲ</w>":1502,"ëª¨ëĵł</w>":1503,"ê¸°ìĪł":1504,"ê¸°ë¡ľ</w>":1505,"ëĤ¬":1506,"now</w>":1507,"ìĹĦ":1508,"êµ°</w>":1509,"ake</w>":1510,"dis":1511,"cont":1512,"ser":1513,"when</w>":1514,"ëĲĺìĸ´</w>":1515,"ine</w>":1516,"ìĦ¤</w>":1517,"ì§ĢëĤľíķ´</w>":1518,"ê°Ī":1519,"ìĩ":1520,"ì²ľ</w>":1521,"ìĿ´ìĸ´</w>":1522,"wi":1523,"íį¼":1524,"would</w>":1525,".âĢĿ</w>":1526,"ê°ĸ":1527,"ìĺ¤</w>":1528,"mon":1529,"cre":1530,"ë¥´ë©´</w>":1531,"ëŃ":1532,"ìĸµ</w>":1533,"ard</w>":1534,"der":1535,"ëĭ¤ìĸĳ":1536,"new</w>":1537,"ê·¸ëłĩ":1538,"ìķĦëĭĪëĿ¼</w>":1539,"íĥĪ":1540,"ë°ľ</w>":1541,"been</w>":1542,"ìłķëıĦ":1543,"ì§ķ":1544,"gu":1545,"av":1546,"ìĦľë¹Ħ":1547,"ge":1548,"ìĦ¤ëªħ":1549,"ì§ģ</w>":1550,"ìĿ´ìļ©":1551,"ìĦ¸ê³Ħ":1552,"ê¸°ë¡Ŀ":1553,"ìķĦëĭ":1554,"ê¸°ëĬĶ</w>":1555,"king</w>":1556,"ìĻķ":1557,"ê²½ìļ°":1558,"ely</w>":1559,"tu":1560,"ëĮĢíĨµëł¹":1561,"ìŀĲìĿĺ</w>":1562,"ëª¨ìĬµ":1563,"ëĿ¼ìĿ´":1564,"ë¡ľìļ´</w>":1565,"ìĺĪìłķ":1566,"so":1567,"pol":1568,"ìĹĲìĦľëıĦ</w>":1569,"ëĵ¤ìĹĲê²Į</w>":1570,"ìļ°ë¦¬":1571,"ê°ľë°ľ":1572,"íĮĢ":1573,"ë¡Ģ":1574,"ru":1575,"bi":1576,"ìĿ´ìĹĲ</w>":1577,"ëĺĲíķľ</w>":1578,"ëĤĺíĥĢ":1579,"êµŃë¯¼":1580,"ìł¸</w>":1581,"fin":1582,"ëĮĢìĥģ":1583,"tive</w>":1584,"ough</w>":1585,"gre":1586,"time</w>":1587,"ë´ī":1588,"ìĤ¬ê°Ģ</w>":1589,"ì£¼ëĬĶ</w>":1590,"ëª°":1591,"like</w>":1592,"ìĺģ</w>":1593,"ëĲĺìĹĪëĭ¤</w>":1594,"ays</w>":1595,"íĻĶë¥¼</w>":1596,"íĻį":1597,"bec":1598,"pr":1599,"ë§İìĿ´</w>":1600,"ìŀĺ":1601,"íķĻ</w>":1602,"ëĴ¤":1603,"ìºĲ":1604,"ë¨¼":1605,"íĳľ</w>":1606,"ìĭľìĬ¤":1607,"el</w>":1608,"íĥĢ</w>":1609,"no</w>":1610,"ìĿ´ëŁ°</w>":1611,"âĢ¦":1612,"âĹ":1613,"comm":1614,"ìĤ°ìĹħ":1615,"ìĪĺëĬĶ</w>":1616,"ê·¸ëŀ":1617,"ong</w>":1618,"ìļ´ìĺģ":1619,"íĸĪëįĺ</w>":1620,"ë³¼</w>":1621,"all":1622,"ì¶ľ</w>":1623,"te</w>":1624,"ound</w>":1625,"ìĭľê°Ħ</w>":1626,"inter":1627,"ëĶ°ë¥´ë©´</w>":1628,"ìĻĶëĭ¤</w>":1629,"ê´Ģëł¨</w>":1630,"ë¡¯":1631,"ell</w>":1632,"ëĭĺ":1633,"íĺĦìŀ¬</w>":1634,"ìĿ´ìĥģ</w>":1635,"ìĿĺìĽĲ":1636,"ãĤ":1637,"ic</w>":1638,"ë£Į</w>":1639,"ë°ĸ":1640,"fir":1641,"íĺģ":1642,"ë¶Ļ":1643,"ke":1644,"ìłķë³´":1645,"ë§Įíģ":1646,"ê¿":1647,"ìĸ´ìĦľ</w>":1648,"ê·¸ëŀĺ":1649,"ary</w>":1650,"also</w>":1651,"my</w>":1652,"ìł¸":1653,"ain</w>":1654,"ìľ¼ëĤĺ</w>":1655,"peo":1656,"ì§ĢìĹŃ</w>":1657,"ìĽĥ":1658,"íķĻìĥĿ":1659,"do</w>":1660,"ìµľê·¼</w>":1661,"ê¸Īìľµ":1662,"íĻľëıĻ":1663,"people</w>":1664,"ë³´ê³ł</w>":1665,"ë§Įëĵ¤":1666,"ars</w>":1667,"ìĬ¤íĥĢ":1668,"ëł¸ëĭ¤</w>":1669,"ìłĲìĿĦ</w>":1670,"ite</w>":1671,"êµŃê°Ģ":1672,"ë¦¬ìķĦ</w>":1673,"ìĹ¼":1674,"ìŀł":1675,"ê¸Īì§Ģ</w>":1676,"am</w>":1677,"íıīê°Ģ":1678,"ìĬ¤ë¥¼</w>":1679,"ë¯¼</w>":1680,"ëŀĳ":1681,"ë¯¸êµŃ</w>":1682,"ies</w>":1683,"ste":1684,"ê²½</w>":1685,"ëĭ¤ìĸĳíķľ</w>":1686,"ìĪĺê°Ģ</w>":1687,"ì¸ł":1688,"fac":1689,"ìłľê³µ":1690,"sec":1691,"ë¶Ģë¶Ħ":1692,"ìħĺ":1693,"ìĹ°</w>":1694,"tw":1695,"ans</w>":1696,"ìłĦë¬¸":1697,"ë¯¼ì£¼":1698,"ìŀ¬ë°°":1699,"ni":1700,"íĴį":1701,"her</w>":1702,"ìĿ´ìĹĪ":1703,"jo":1704,"ì½Ķë¡ľ":1705,"ous</w>":1706,"íıĲ":1707,"thing</w>":1708,"íı¬íķ¨":1709,"ìŀ¥ìĿ´</w>":1710,"coun":1711,"ë¯¸êµŃ":1712,"¨ìĸ´":1713,"ëŁ½":1714,"ëª¨</w>":1715,"ren":1716,"off":1717,"ë¥ł":1718,"sc":1719,"your</w>":1720,"ê²½ê¸°":1721,"ëĵ±ìĿĺ</w>":1722,"âĢĶ</w>":1723,"ìĿ´ë©°</w>":1724,"ìļ°ë¦¬</w>":1725,"ë³´ë©´</w>":1726,"ê´Ģê³ĦìŀĲëĬĶ</w>":1727,"ìĺ¬íķ´</w>":1728,"ìŀĪìĸ´</w>":1729,"ìĬ¬":1730,"ê²©</w>":1731,"some</w>":1732,"ws</w>":1733,"than</w>":1734,"ìĿ´ìķ¼":1735,"íĶĦ</w>":1736,"..":1737,"ì´Ŀ</w>":1738,"ìŀĲìĭłìĿĺ</w>":1739,"ìŀĲë¥¼</w>":1740,"ë§ĪìĿĮ":1741,"just</w>":1742,"att":1743,"ï¼":1744,"ì´Ī</w>":1745,"ëĮĢíķĻ":1746,"old</w>":1747,"íķľëĭ¤ëĬĶ</w>":1748,"íķĺ</w>":1749,"ëĤ´ìļ©":1750,"ì§¸</w>":1751,"ile</w>":1752,"ëªħìĿ´</w>":1753,"way</w>":1754,"ìłĢìŀĳ":1755,"ph":1756,"ëıĮìķĦ":1757,"br":1758,"íľ´":1759,"ê¸´</w>":1760,"ìłĦìĹĲ</w>":1761,"ê¸¸</w>":1762,"ìŀĪëĭ¤ëĬĶ</w>":1763,"ë°ľìĥĿ":1764,"fu":1765,"ìĿ´ìĥģ":1766,"ì²Ń</w>":1767,"ìłķì¹ĺ":1768,"ì¦Ī</w>":1769,"ë°ķ</w>":1770,"ìĭľíĤ¤":1771,"ber</w>":1772,"ë§Įíģ¼</w>":1773,"very</w>":1774,"ì¿ł":1775,"ìŀ¬ë°°íı¬</w>":1776,"ëĤ´ê°Ģ</w>":1777,"ps</w>":1778,"ëĴ¤</w>":1779,"ìłĦìŀ¬</w>":1780,"ê¸°ëĮĢ":1781,"sho":1782,"ì°¬":1783,"ìĿ´ëŁ¬":1784,"ì¶Ķì§Ħ":1785,"ë¬´ëĭ¨":1786,"íĽĦë³´":1787,"ìĻĶ":1788,"sel":1789,"pres":1790,"ì¤ĳìļĶ":1791,"ìķĬê³ł</w>":1792,"ëģ¼":1793,"ê³¡":1794,"ì°¸ìĹ¬":1795,"ìĤ¬ëŀĳ":1796,"ì¦Ŀê°Ģ":1797,"ëŁī</w>":1798,"ê´Ģë¦¬":1799,"ëĦĪë¬´</w>":1800,"ãİ":1801,"ase</w>":1802,"ì¤ĳêµŃ":1803,"ìĿ¸ëĭ¤</w>":1804,"ill":1805,"ê¶ĮìŀĲ</w>":1806,"and":1807,"ãĥ":1808,"ìķķ":1809,"ê²ĥëıĦ</w>":1810,"ëįķ":1811,"êµ´":1812,"ìª½":1813,"ë°Ķë¡ľ</w>":1814,"íĸĪê³ł</w>":1815,"ëĲĺìĹĪ":1816,"ali":1817,"she</w>":1818,"ect</w>":1819,"íĩ":1820,"ê¾¸":1821,"ë³Ħ</w>":1822,"ëĸł":1823,"ess":1824,"ìĹĶ":1825,"ance</w>":1826,"êµŃëĤ´</w>":1827,"any</w>":1828,"ëĵ¤ê³¼</w>":1829,"ê²½ì°°":1830,"ìĹŃìĭľ</w>":1831,"ê°ĻìĿ´</w>":1832,"sy":1833,"ë¬´ëĭ¨ìłĦìŀ¬</w>":1834,"ê²°ìłķ":1835,"na":1836,"ëŀĮ":1837,"after</w>":1838,"get</w>":1839,"ìľł</w>":1840,"ëª¸":1841,"enti":1842,"ìķĪìłĦ":1843,"ìłķì±ħ":1844,"ëł¥ìĿ´</w>":1845,"ë°©</w>":1846,"ìłĢìŀĳê¶ĮìŀĲ</w>":1847,"ir":1848,"into</w>":1849,"ese</w>":1850,"ê´Ģëł¨":1851,"duc":1852,"ëĤ¨</w>":1853,"ìĿ¼ë³¸":1854,"ìĦĿ</w>":1855,"ìĸ´ìļĶ</w>":1856,"íĻķìĿ¸":1857,"ce":1858,"ìĤ¬ìĿĺ</w>":1859,"ìŀĪìĿĦ</w>":1860,"ìĭ¸":1861,"ê²°ê³¼":1862,"ëĭĪê¹Į</w>":1863,"ì¢ĭìĿĢ</w>":1864,"ìĥĪë¡ľìļ´</w>":1865,"ìĿ´ìľł":1866,"ìĿĺë¥¼</w>":1867,"ons</w>":1868,"ìĭ¬</w>":1869,"íĻĺê²½":1870,"ory</w>":1871,"ked</w>":1872,"ëķĮë¬¸ìĿ´ëĭ¤</w>":1873,"ll</w>":1874,"ëĵ±ìĿ´</w>":1875,"most</w>":1876,"ëıĦë¥¼</w>":1877,"ì¹ĺë¥¼</w>":1878,"sts</w>":1879,"ìĽĲìĿĺ</w>":1880,"ìĦľìļ¸</w>":1881,"ìŀħëĭĪëĭ¤</w>":1882,"ìĭľì¦":1883,"ma":1884,"ê³µê²©":1885,"first</w>":1886,"ìķĻ":1887,"ê°Ģìļ´":1888,"ìĪĻ":1889,"ings</w>":1890,"ìħĺ</w>":1891,"them</w>":1892,"ì²«</w>":1893,"ìĿ¸ìĿ´</w>":1894,"dec":1895,"ì½Ķë¡ľëĤĺ</w>":1896,"ìĸ´ëĸ¤</w>":1897,"ìĭĿìĿĦ</w>":1898,"ë²¤":1899,"ìĥĿíĻľ":1900,"ìĭľëĬĶ</w>":1901,").</w>":1902,"ëģĮ":1903,"ê³µ</w>":1904,"ìĸ´ëł¤":1905,"ê½":1906,"ëĿ¼ëıĦ</w>":1907,"ëĵ¯</w>":1908,"ìĮ":1909,"ìłĳ</w>":1910,"ìĪł</w>":1911,"ìľĦë¥¼</w>":1912,"íĺ¹":1913,"íķĻêµĲ":1914,"pp":1915,"mil":1916,"ëĲĺì§Ģ</w>":1917,"form":1918,"íĴĢ":1919,"ìĤ¼ìĦ±":1920,"ìķĬìĿĢ</w>":1921,"col":1922,"ë¿Ĳ":1923,"sk":1924,"ëªħìĿĦ</w>":1925,"ì³Ĳ":1926,"cor":1927,"ood</w>":1928,"sti":1929,"gen":1930,"íķľíİ¸</w>":1931,"ìĦľëıĦ</w>":1932,"ëĭ¹ìĭľ</w>":1933,"ìĭľìŀ¥</w>":1934,"ê¸°ê´Ģ":1935,"ìŀĪëıĦë¡Ŀ</w>":1936,"ëĥĲ</w>":1937,"'t</w>":1938,"ìĪĺì¤Ģ":1939,"ìķĮëł¤":1940,"ëĤ¬ëĭ¤</w>":1941,"ëıĦìĭľ":1942,"tur":1943,"tional</w>":1944,"ë°ľíĳľ":1945,"ë°©ìĨ¡":1946,"ì¤Ħ</w>":1947,"âĢĵ</w>":1948,"íļ¨ê³¼":1949,"ìĿ¸ìĿĺ</w>":1950,"ì§Ģê°Ģ</w>":1951,"ì¤ĳêµŃ</w>":1952,"ì§Ģê¸Ī":1953,"íĿ¥":1954,"ëĨĢ":1955,"ê·¸ë£":1956,"ì½ĺ":1957,"íĨµ</w>":1958,"ìłľíĴĪ":1959,"ates</w>":1960,"ations</w>":1961,"ìĸµìĽĲ</w>":1962,"des":1963,"ëĤ®":1964,"ëªħìĿĺ</w>":1965,"ëıĪ":1966,"íĺĦëĮĢ":1967,"ëĸ¨ìĸ´":1968,"ìĹĶ</w>":1969,"how</w>":1970,"over</w>":1971,"ìĸ»":1972,"ìĹĲê²Į":1973,"íĩ´":1974,"íĸĪëĭ¤ê³ł</w>":1975,"ê¹Ģ</w>":1976,"ëĺĲëĬĶ</w>":1977,"íĶ¼íķ´":1978,"loo":1979,"ue</w>":1980,"íĶĦë¡ľê·¸ëŀ":1981,"ìĶ¨ëĬĶ</w>":1982,"ì§ĢëıĦ</w>":1983,"end</w>":1984,"ìĻ¸</w>":1985,"ause</w>":1986,"íļĮë¥¼</w>":1987,"ìľ¤":1988,"íĮĲë§¤":1989,"ê°Ī</w>":1990,"ë°Ķ</w>":1991,"oc":1992,"ëħĲ":1993,"ëĵľëĬĶ</w>":1994,"ìĿĺë¯¸":1995,"êµ¬ìĦ±":1996,"ì³Ĳ</w>":1997,"ë³´ìĹ¬":1998,"ìĬĪ":1999,"íķµ":2000,"--":2001,"ì¡°ìĤ¬":2002,"ë§Īëł¨":2003,"two</w>":2004,"only</w>":2005,"man</w>":2006,"ë£¨</w>":2007,"ìĭľìĹĲ</w>":2008,"íķ©ëĭĪëĭ¤</w>":2009,"ff</w>":2010,"ì§Ģë°©":2011,"ëĮĢë¥¼</w>":2012,"ìĸĳ</w>":2013,"ìĺ¬</w>":2014,"ìĿ¸íĦ°":2015,"íķ©</w>":2016,"ade</w>":2017,"ìĿ´ì§Ģ</w>":2018,"ê³¼ìłķ":2019,"ë¶ĢëĬĶ</w>":2020,"íĽĪ":2021,"ìķĶ":2022,"ëįĺ":2023,"ê°Ģìļ´ëį°</w>":2024,"ê¸°ìĹħ</w>":2025,"ìļ±</w>":2026,"als</w>":2027,"ìĺģíĸ¥":2028,"ist</w>":2029,"pos":2030,"year</w>":2031,"ìĥģíĥľ":2032,"ìĤ¬ìĹħ</w>":2033,"âĸ³</w>":2034,"ëĵł":2035,"ree</w>":2036,"ors</w>":2037,"ace</w>":2038,"clu":2039,"ìĪĺë¥¼</w>":2040,"ë¬¼ë¡ł</w>":2041,"ëĨĴìĿĢ</w>":2042,"ìŀĪê³ł</w>":2043,"ë³´ìĿ¸ëĭ¤</w>":2044,"ê¸´":2045,"ig":2046,"ìĭľë¯¼":2047,"ê·¸ìĿĺ</w>":2048,"ì§ĳ</w>":2049,"ê·¸ëŁ°</w>":2050,"ê°ĳ":2051,"ang":2052,"ìĺĪìłķìĿ´ëĭ¤</w>":2053,"ìĿ´ëĿ¼ë©°</w>":2054,"ìī½":2055,"ìĽĲìĿ´</w>":2056,"ê°Ģì§Ģ</w>":2057,"ëī´ìĬ¤</w>":2058,"ìĪĺëıĦ</w>":2059,",âĢĿ</w>":2060,"ë¦´</w>":2061,"íĻĪ":2062,"ìĦ±ê³µ":2063,"ë¸Į</w>":2064,"ëĤĺëĿ¼":2065,"ed":2066,"ìĸ´ëĸ»":2067,"ì¸µ":2068,"ì¤ĳìĭ¬":2069,"íĮĶ":2070,"ìķĬìķĺëĭ¤</w>":2071,"ìĬ¤ëĬĶ</w>":2072,"íķĻêµĲ</w>":2073,"ëıĦê°Ģ</w>":2074,"íķľëĭ¤ê³ł</w>":2075,"ë°ĸìĹĲ</w>":2076,"ìŀĲëıĻ":2077,"ê°Ģê²©":2078,"ning</w>":2079,"ì½Ķë¦¬ìķĦ</w>":2080,"ê²½ìŁģ":2081,"ëľ»":2082,"ëĳĺ":2083,"íĻľìļ©":2084,"íĸĪì§Ģë§Į</w>":2085,"%)</w>":2086,"ê°ķì¡°":2087,"ìŀħ</w>":2088,"ìļķ":2089,"ì¤Ģë¹Ħ":2090,"ëł¹</w>":2091,"ê·ľëª¨":2092,"sion</w>":2093,"ves</w>":2094,"ì¡´</w>":2095,"ìį¨</w>":2096,"ë°ĽìĿĢ</w>":2097,"ìĦ¸ê³Ħ</w>":2098,"íĭĢ":2099,"ë¥¸":2100,"ãħĭãħĭãħĭãħĭãħĭãħĭãħĭãħĭ":2101,"ìĺ¤íĽĦ</w>":2102,"ìĬ¹</w>":2103,"ì£Ħ":2104,"ìŀĳ</w>":2105,"íķ´ëıĦ</w>":2106,"ë°©ë²ķ":2107,"?\"</w>":2108,"ìĭľìĬ¤íħ":2109,"ved</w>":2110,"fl":2111,"ë§¤</w>":2112,"ìłľë¡ľ</w>":2113,"íķĺìĺĢëĭ¤</w>":2114,"íķ´ìĦľëĬĶ</w>":2115,"ëĬĶì§Ģ</w>":2116,"ìłĦë§Ŀ":2117,"ê±°ëŀĺ":2118,"ìĥĿìĤ°":2119,"ob":2120,"ì§ģìłĳ</w>":2121,"ê°Ĳëıħ":2122,"ì»¨":2123,"ss</w>":2124,"ìĭľì¼":2125,"ëį°ìĿ´":2126,"ì§Ħëĭ¤</w>":2127,"ìĿ´ë¦Ħ":2128,"ë¥´ëĬĶ</w>":2129,"íķľêµŃ</w>":2130,"bet":2131,"ving</w>":2132,"êµŃìłľ":2133,"ì§ľ</w>":2134,"ìĿ´ë¯¸</w>":2135,"íĺľ":2136,"ë²Į</w>":2137,"ì¹ĺëĬĶ</w>":2138,"ì³¤":2139,"ëĳĲê³ł</w>":2140,"ê³µê°ľ":2141,"ties</w>":2142,"ìĨĮë¹Ħ":2143,"ëĽ":2144,"íĺĦ</w>":2145,"ëŀµ":2146,"íĹ¤":2147,"ë¶Ģë¥¼</w>":2148,"ê¸°ì¤Ģ":2149,"res</w>":2150,"ë°ľìłĦ":2151,"ë·":2152,"ë°Ľê³ł</w>":2153,"could</w>":2154,"son</w>":2155,"these</w>":2156,"ìĦłìĿĦ</w>":2157,"tim":2158,"ìķĬëĬĶ</w>":2159,"ìķĬìķĺ":2160,"ë¶ĦìĦĿ":2161,"ì£¼ìŀ¥":2162,"ìĿ¼ìĿĦ</w>":2163,"ê´Ģìĭ¬":2164,"ê·¸ëŁ°":2165,"comp":2166,"tho":2167,"mu":2168,"ë¦Ń":2169,"ìĹĩ":2170,"ìĦ±ìŀ¥":2171,"ìļĶêµ¬":2172,"even</w>":2173,"ìĿĢíĸī":2174,"ve":2175,"ìµľê³ł":2176,"ì´ī":2177,"ë³¼":2178,"ì§Ģìłģ":2179,"ë§ĮìĹĲ</w>":2180,"ail":2181,"ìŀĲë¦¬":2182,"ìļ´ëıĻ":2183,"ê±¸</w>":2184,"ble</w>":2185,"ëĤĺìĺ¤":2186,"ãħĭãħĭ</w>":2187,"ë¬¼ìĿĦ</w>":2188,"ìĹħì²´":2189,"ë¬¸ìĿĦ</w>":2190,"íĥģ":2191,"ìĿ¼ë³¸</w>":2192,"because</w>":2193,"uc":2194,"íĹĮ":2195,"ìķĪìĿĦ</w>":2196,"ìĽĮ</w>":2197,"ìĿ´ëłĩ":2198,"íĬ¹ë³Ħ":2199,"ìĿ¸ìĿĦ</w>":2200,"ìĽĲìĿĢ</w>":2201,"ass":2202,"íĬ¸ë¥¼</w>":2203,"ë§Ľ":2204,"íķŃ</w>":2205,"ì¢Į":2206,"ìĿ´ëĿ¼</w>":2207,"where</w>":2208,"don</w>":2209,"ìŀĲì²´":2210,"ê²°êµŃ</w>":2211,"ëĭ¤ìĿĮ":2212,"Ģë¡ľ</w>":2213,"loc":2214,"ìĿ¼ìĿ´</w>":2215,"ëĵľëŁ¬":2216,"ion</w>":2217,"ê°ķ</w>":2218,"ìĦłê±°":2219,"ë¶ģ</w>":2220,"ì£¼ë¯¼":2221,"tic</w>":2222,"ë§ĮìĽĲ</w>":2223,"play":2224,"ìĸ´ëĸ»ê²Į</w>":2225,"ìĥģëĮĢ":2226,"hel":2227,"ìķĦë¬´":2228,"íĨµìĭł":2229,"âĸ²</w>":2230,"int":2231,"some":2232,"ìĿ¸ê°Ħ":2233,"ìĶ¨</w>":2234,"ë¤":2235,"ìĤ¬ê±´":2236,"fr":2237,"ìģ":2238,"ìĽĲìľ¼ë¡ľ</w>":2239,"ì¦Ĳ":2240,"ëĽ°":2241,"ëł¸":2242,"ìĦłìĪĺ":2243,"ëŀĲ":2244,"ìĥģìĬ¹":2245,"âĢĻ":2246,"ë§¡":2247,"ft</w>":2248,"sup":2249,"ach</w>":2250,"many</w>":2251,"ë¦¬ìĬ¤":2252,"ber":2253,"ëŁ¼":2254,"ms</w>":2255,"ned</w>":2256,"íĮĲ</w>":2257,"back</w>":2258,"dent</w>":2259,"ëĥĲ":2260,"ëįĶìļ±</w>":2261,"ë°°</w>":2262,"ëĵ¯":2263,"ê²½ê¸°</w>":2264,"ê²ĮìŀĦ":2265,"Â©</w>":2266,"ì°¾ìķĦ":2267,"ê·¸ëħĢ":2268,"ì¹ľ</w>":2269,"ë¥ĺ</w>":2270,"ìĿ¸ìĿĢ</w>":2271,"ëħ¸ëıĻ":2272,"ìĿ´ë©Ķ":2273,"ëĦĲ":2274,"tt":2275,"ìĺĪìĥģ":2276,"ìī¬":2277,"ê³łê°Ŀ":2278,"ìŀĪëĭ¤ê³ł</w>":2279,"ìĻľ</w>":2280,"ìĿ´ê°Ģ</w>":2281,"ì¢ĭìķĦ":2282,"ìĽĲìĹĲ</w>":2283,"ê¹¨":2284,"âĨ":2285,"ement</w>":2286,"ì§ĢìĨį":2287,"ìĪ¨":2288,"ì±ħ</w>":2289,"stu":2290,"ì½Ķ</w>":2291,"ìĭľìĦ¤":2292,"ë§ĲìĿĦ</w>":2293,"ë³´ëĬĶ</w>":2294,"ê¸ĪìĿĦ</w>":2295,"bel":2296,"ìŀĲìľł":2297,"tri":2298,"pri":2299,"ëĭ¤ë§Į</w>":2300,"ìĿ¸ëį°</w>":2301,"him</w>":2302,"ëĲĺë©´</w>":2303,"amer":2304,"work</w>":2305,"ëĶ°ëĿ¼":2306,"íħĲ":2307,"enc":2308,"ìµľëĮĢ</w>":2309,"ëĬĲ</w>":2310,"ìŀĪìľ¼ë©°</w>":2311,"ë§Īëĭ¤</w>":2312,"íķĺëł¤":2313,"ëĬĺ</w>":2314,"íļĮìĿĺ":2315,"íĭ°</w>":2316,"low":2317,"ìłģìļ©":2318,"ê´´":2319,"cri":2320,"then</w>":2321,"ëıĦë¡ľ</w>":2322,"ê°ķíĻĶ":2323,"car":2324,"ical</w>":2325,"ìľĦìĹĲ</w>":2326,"íķĺê²ł":2327,"ì±Ħ</w>":2328,"shi":2329,"ì¸µ</w>":2330,"while</w>":2331,"mis":2332,"star":2333,"ìĹ¬ëŁ¬</w>":2334,"ì£¼ìĿĺ":2335,"ëĮĢë¹Ħ</w>":2336,"íĮ¬":2337,"ì¡´ìŀ¬":2338,"ë¦°ëĭ¤</w>":2339,"years</w>":2340,"ê¶ģ":2341,"ëĥĪëĭ¤</w>":2342,"vo":2343,"ëĲľ":2344,"ìĦłíĥĿ":2345,"ìľłì§Ģ":2346,"ë¡ľëĬĶ</w>":2347,"ì¢Ģ</w>":2348,"ì£¼ìĿĺ</w>":2349,"°ëĭ¤</w>":2350,"ëĵ±ìŀ¥":2351,"ëĵ¤ëıĦ</w>":2352,"ê°Ģì§Ģ":2353,"ìĬ¤ê°Ģ</w>":2354,"ìĿ´ë©ĶìĿ¼</w>":2355,"ì²ĺìĿĮ":2356,"ìŀĲê¸°</w>":2357,"cu":2358,"ëĬ¥</w>":2359,"ink</w>":2360,"íģ¬ê²Į</w>":2361,"spec":2362,"ëĵ±ìĹĲ</w>":2363,"ëĶ°ë¥¸</w>":2364,"ìĥģíĴĪ":2365,"ìķĦë²Ħ":2366,"íķĺëĬĶëį°</w>":2367,"ìŀ¥ìĿĺ</w>":2368,"ì¤ĳìķĻ":2369,"ê³¼ìĿĺ</w>":2370,"êµ¬ì¡°":2371,"íıīê·":2372,"ê¸Ģë¡ľ":2373,"íľĺ":2374,"ë²½":2375,"ì§Ħì§ľ</w>":2376,"ating</w>":2377,"íĹĺ</w>":2378,"are":2379,"ìĺģíĻĶ":2380,"sch":2381,"pi":2382,"ë§ī</w>":2383,"ê°Ģì¡±":2384,"ìĭľì¦Į</w>":2385,"thr":2386,"ë³´ê³ł":2387,",\"</w>":2388,"sur":2389,"ë¶ĢìĤ°":2390,"can":2391,"êº":2392,"ì§ľ":2393,"ë§¤ìļ°</w>":2394,"well</w>":2395,"ë§ģ":2396,"ìĿ´ëŁ¬íķľ</w>":2397,"ìĬ¤ìĿĺ</w>":2398,"ìĸ´ëĬĲ</w>":2399,"ìı":2400,"ì§ĢìĽĲ</w>":2401,"make</w>":2402,"ìłĦíŀĪ</w>":2403,"ë§Īì§Ģ":2404,"ici":2405,"ë¯Ģë¡ľ</w>":2406,"ìłľë¥¼</w>":2407,"ìłľê°Ģ</w>":2408,"cr":2409,"ìĦ¸ë¥¼</w>":2410,"ìĹŃíķł":2411,"ëŀĳ</w>":2412,"port</w>":2413,"ë°ĶìĿ´":2414,"ìĽ¨":2415,"íĤ¤</w>":2416,"ìķĦëĭĪëĭ¤</w>":2417,"ë®":2418,"tly</w>":2419,"ê±´ê°ķ":2420,"ë¡Ń":2421,"ìĸ´ìķ¼</w>":2422,"ìĿĮìĿĦ</w>":2423,"ë´Ĳ":2424,"ê³ĦíļįìĿ´ëĭ¤</w>":2425,"used</w>":2426,"ìĿ´ëłĩê²Į</w>":2427,"íİĺìĿ´":2428,"ê´Ģê´ĳ":2429,"ê²°ê³¼</w>":2430,"ìĦ¤ëªħíĸĪëĭ¤</w>":2431,"ìĿ´íķ´":2432,"ëĶĶ</w>":2433,"ìĿ¸ìłķ":2434,"ê°ĲìĿĦ</w>":2435,"ìķĦëĭĮ</w>":2436,"ì¼ĢìĿ´":2437,"ë¹¨":2438,"ë¸Įëŀľ":2439,"vie":2440,"ëľ¨":2441,"ìłķë¶Ģ</w>":2442,"ìķĦíĮĮ":2443,"ì¦Ŀ</w>":2444,"ìŀĶ":2445,"ëĵ¤ìĸ´</w>":2446,"íĺĲ":2447,"ìĿ´ëŀĢ</w>":2448,"íķĺê²łëĭ¤</w>":2449,"ë°ĽìķĦ":2450,"dy</w>":2451,"ê±´ìĦ¤":2452,"go</w>":2453,"world</w>":2454,"ìĿ¼ë¶ĢíĦ°</w>":2455,"ì£¼ìļĶ</w>":2456,"ê²½ìĺģ":2457,"íĮĮ</w>":2458,"bas":2459,"íĺĢ</w>":2460,"ì¸ł</w>":2461,"ìĽĢìĿĦ</w>":2462,"ìĨĶ":2463,"ìĤ¬ëŀĮìĿ´</w>":2464,"ì£ł</w>":2465,"char":2466,"ìĬ¤ë§Ī":2467,"ìĹ¬ìĦ±":2468,"may</w>":2469,"íĻĺ</w>":2470,"dre":2471,"vel":2472,"ì¶Ķê°Ģ":2473,"ë¦Ħ</w>":2474,"ìĩ¼":2475,"ìĨ¡</w>":2476,"ëĭ¨ì²´":2477,"mat":2478,"ë¬´ìĹĩ":2479,"state</w>":2480,"ëıĦëĬĶ</w>":2481,"ëĮĢíķľ":2482,"fore</w>":2483,"ìĸ´ëĤĺ":2484,"uni":2485,"cur":2486,"ëĦ£":2487,"ê²¼":2488,"ìľ¼ë¡ľëĬĶ</w>":2489,"ëłĮ":2490,"ê±°ìĿĺ</w>":2491,"ì±ħìŀĦ":2492,"right</w>":2493,".]</w>":2494,"ê°Ĳ</w>":2495,"ìķĦìĭľ":2496,"ture</w>":2497,"ê³µëıĻ":2498,"ook</w>":2499,"see</w>":2500,"sen":2501,"ìĽł":2502,"ìŀĳíĴĪ":2503,"íĳ¸":2504,"ëĵľë¥¼</w>":2505,"being</w>":2506,"last</w>":2507,"ìĥģëĭ¹":2508,"ìŀ¥ìĹĲìĦľ</w>":2509,"ë´¤":2510,"ëĥ¥</w>":2511,"ìłķëıĦ</w>":2512,"pe</w>":2513,"ëª¨ëį":2514,"poin":2515,"those</w>":2516,"íĶĦë¦¬":2517,"sol":2518,"ë°©ìĭĿ":2519,"ìĭľíĤ":2520,"ìĿ¼ë°ĺ":2521,"ìľ¡</w>":2522,"ê¸°ëĬ¥":2523,"wee":2524,"ìłģìĿ´</w>":2525,"ell":2526,"ìĦ¸ìļĶ</w>":2527,"ìłĦìĿĦ</w>":2528,"gover":2529,"ë¹Ħë¡¯":2530,"ë¡ľë¶ĢíĦ°</w>":2531,"vis":2532,"ì¹´</w>":2533,"dd":2534,"ome</w>":2535,"ëĮĢìĿĺ</w>":2536,"ìŀĪì§Ģë§Į</w>":2537,"ë¹Į":2538,"ãħł":2539,"íħĶ":2540,"iz":2541,"ìĺ¥":2542,"ìĿ¼ë¶Ģ</w>":2543,"ëļ":2544,"ëª¨ìĬµìĿĦ</w>":2545,"eng":2546,"ë¯¸ëŀĺ":2547,"ê°ģê°ģ</w>":2548,"ìĬ¤íĬ¸</w>":2549,"ìĶ©</w>":2550,"ìĺģìĹħ":2551,"ìŀĲìĹ°":2552,"ìĭŃ":2553,"low</w>":2554,"war":2555,"mem":2556,"ëĬĲëĤ":2557,"ater</w>":2558,"diff":2559,"pa":2560,"ëĤĺê°Ģ":2561,"inclu":2562,"ìĹĺ":2563,"ìłķíķľ</w>":2564,"íĶĦë¡ľê·¸ëŀ¨":2565,"ì§ĢìĹĲ</w>":2566,"ê³Ħìķ½":2567,"ìĻ¸êµŃ":2568,"ê³µê°Ĳ":2569,"ëĤ´ëĬĶ</w>":2570,"ë²Īì§¸</w>":2571,"ìĥĪ</w>":2572,"íķ´ëĭ¹</w>":2573,"ë¶ģíķľ":2574,"íİ¼":2575,"wr":2576,"ìĿ´ìłľ</w>":2577,"ë¶Ħìķ¼":2578,".<</w>":2579,"ìĭ¤ìĭľ":2580,"ear":2581,"soci":2582,"ìĹĲìĦł</w>":2583,"ë¤Ħ":2584,"ìŀĪìĸ´ìĦľ</w>":2585,"ê±°ë¦¬":2586,"ì¡±</w>":2587,"íĿĲ":2588,"ìĿ¼ê¹Įì§Ģ</w>":2589,"ster</w>":2590,"ìĿ´ë£¨":2591,"americ":2592,"self</w>":2593,"ëĤ©":2594,"íķĺê±°ëĤĺ</w>":2595,"ê³¼íķĻ":2596,"govern":2597,"ëĮĢìĹĲ</w>":2598,"ê¶ĮìĿĦ</w>":2599,"íĮĲëĭ¨":2600,"ë°Ľìķĺëĭ¤</w>":2601,"ìĦ¼íĦ°":2602,"ë¨¸ëĭĪ":2603,"ìŀĪê²Į</w>":2604,"íķ¨</w>":2605,"ê°Ķëĭ¤</w>":2606,"ju":2607,"ê°Ļëĭ¤</w>":2608,"ë¨¼ìłĢ</w>":2609,"ìķĬëĬĶëĭ¤</w>":2610,"íĮĢ</w>":2611,"ê·¸ëŀĺìĦľ</w>":2612,"íĨł</w>":2613,"ë£Įë¥¼</w>":2614,"ì¹ľêµ¬":2615,"bs</w>":2616,"ack":2617,"tec":2618,"ê´Ģíķľ</w>":2619,"ëłµ":2620,"ìĤ¬ìĹĲ</w>":2621,"with":2622,"íķĺëĤĺ</w>":2623,"ì§ĵ":2624,"here</w>":2625,"ëªĩ</w>":2626,"id":2627,"sig":2628,"ìĺ¤ìłĦ</w>":2629,"ì¤ĳìĹĲ</w>":2630,"ì§ĢìĿĺ</w>":2631,"ited</w>":2632,"ìĹĨìĹĪëĭ¤</w>":2633,"ìłķìĭł":2634,"ìĤ¬ê³ł":2635,"inv":2636,"ëª»</w>":2637,"ê°Ģì§Ģê³ł</w>":2638,"ëĮĢêµ¬":2639,"ì£¼íĥĿ":2640,"ê²½íĹĺ":2641,"íĸīìłķ":2642,"ëª©íĳľ":2643,"ëĤ¸</w>":2644,"ê¸°ê°Ħ":2645,"íķĺìŀĲ</w>":2646,"ëĿ¼ë©°</w>":2647,"pen":2648,"read":2649,"ëĮĢìĥģìľ¼ë¡ľ</w>":2650,"much</w>":2651,"íķĺëĬĶ":2652,"cer":2653,"ë³´íĹĺ":2654,"ìĿĺê²¬":2655,"aking</w>":2656,"ying</w>":2657,"ì§Ģê¸Ī</w>":2658,"êµŃëĤ´":2659,"ìĥģìĿ´</w>":2660,"ë©ĶìĿ´":2661,"ê³łëł¤":2662,"ìķŀìĦľ</w>":2663,"ê¸°ì¤Ģ</w>":2664,"ìĿ´ì§Ģë§Į</w>":2665,"íķ´ê²°":2666,"ë§Įëĵ¤ìĸ´":2667,"ì°į":2668,"ìĤ¶":2669,"ìķĪìĹĲ</w>":2670,"ëĵľëĿ¼":2671,"ëĭ¤ìĿĮ</w>":2672,"ìĺ¬ëĿ¼":2673,"ìłĪ</w>":2674,"ìĹĲëĦĪ":2675,"ëı¼":2676,"ìĬ¨</w>":2677,"ê¿Ī":2678,"before</w>":2679,"íķ´ì£¼":2680,"ìĬ¤ë¡ľ</w>":2681,"ê·¸ëłĩê²Į</w>":2682,"íļĮìĿĺ</w>":2683,"ê¸°ê°Ħ</w>":2684,"ìłľìŀĳ":2685,"ìłĦëŀµ":2686,"ëħ¸</w>":2687,"ãĢĮ</w>":2688,"ìĿ¸ì§Ģ</w>":2689,"ìĦľë¥¼</w>":2690,"íĶ¼</w>":2691,"ë¹Ī":2692,"ë§¥":2693,"ê³ĦìĨį</w>":2694,"ë¶Ģê°Ģ</w>":2695,"ìĿ´ìĻĢ</w>":2696,"íĶĮëłĪìĿ´":2697,"ei":2698,"ìŀ¥ê´Ģ":2699,"ì©":2700,"port":2701,"íķĺëįĺ</w>":2702,"ê°Ģë¥¼</w>":2703,"ìĿ´ë²Ī":2704,"ëĵ±ìľ¼ë¡ľ</w>":2705,"ìĿ¸íķ´</w>":2706,"ê·ľ</w>":2707,"ìļ°ëł¤":2708,"bro":2709,"ë³´íĺ¸":2710,"gg":2711,"ê¸°ì¡´</w>":2712,"íĻķë³´":2713,"anc":2714,"down</w>":2715,"ìľ¨</w>":2716,"ìŀĲë¡ľ</w>":2717,"ë³ĢíĻĶ":2718,"ëĵ£":2719,"%,</w>":2720,"íĥķ":2721,"ê³µê¸ī":2722,"âĳ":2723,"ë¡Ģ</w>":2724,"@(</w>":2725,"ë°©ë¬¸":2726,"ê°ľìĦł":2727,"ìĦ¤ì¹ĺ":2728,"íķĦìļĶíķľ</w>":2729,"ìŀĲëĵ¤ìĿ´</w>":2730,"ëĩ":2731,"íĺĪ":2732,"cap":2733,"ìłĦíĸĪëĭ¤</w>":2734,"serv":2735,"íĥĿ</w>":2736,"ìĻĢìĿĺ</w>":2737,"fe</w>":2738,"íļĮëĬĶ</w>":2739,"ë¹Ľ":2740,"try</w>":2741,"going</w>":2742,"ach":2743,"ìŀĪëĬĶëį°</w>":2744,"ê¸Ģë¡ľë²Į</w>":2745,"tv</w>":2746,"ë¹Ħíķ´</w>":2747,"__":2748,"sub":2749,"ê°ľìĿĺ</w>":2750,"ous":2751,"ìħĶ":2752,"ìłĲìĿ´</w>":2753,"game</w>":2754,"ë§ŀì¶":2755,"ëĭĺ</w>":2756,"íļĮê°Ģ</w>":2757,"ê¸°ìĿĺ</w>":2758,"gy</w>":2759,"ë¥´</w>":2760,"fol":2761,"ì¹Ń":2762,"know</w>":2763,"ìĹħë¬´":2764,"íķĳ":2765,"íĻķëĮĢ":2766,"cour":2767,"ìĸĺ":2768,"êµĲíĨµ":2769,"ä¸":2770,"ta":2771,"ê°ĲìĤ¬":2772,"ëĤ´ëł¤":2773,"ê¸°ë³¸":2774,"har":2775,"such</w>":2776,"ìĦľë¹ĦìĬ¤</w>":2777,"ë²Ħ</w>":2778,"ìĪĺìĿĺ</w>":2779,"ìĤ¬ë¬´":2780,"ì¤Ģëĭ¤</w>":2781,"ë¦½</w>":2782,"ì°¨ì§Ģ":2783,"ëĮĢíĳľ</w>":2784,"ìĭłì²Ń":2785,"ìĸ´ëıĦ</w>":2786,"ìĺ¨ëĭ¤</w>":2787,"ans":2788,"ê°Ķ":2789,"ëħ¸ëł¥":2790,"ì°°</w>":2791,"side</w>":2792,"ìĭ±":2793,"ë®¤":2794,"íĿĶ":2795,"ish":2796,"ìĦ¼íĦ°</w>":2797,"ê²Ģì°°":2798,"íĺĦìĭ¤":2799,"ìĹ¬ê¸°":2800,"ëħ¹":2801,"through</w>":2802,"ì¡°ì§ģ":2803,"ìĥī</w>":2804,"ìłķìĥģ":2805,"íı¬ìĿ¸":2806,"ful</w>":2807,"ìŀ¥ìĹĲ</w>":2808,"ê°ĲìĨĮ":2809,"um</w>":2810,"sted</w>":2811,"ëĭ¨ê³Ħ":2812,"êµŃìĿĺ</w>":2813,"olo":2814,"ìºł":2815,"ìĿ´ë¤Ħ":2816,"ìĪĺìĿµ":2817,"íİĢ":2818,"ple":2819,"ìŀĪëįĺ</w>":2820,"ìķĦì§ģ</w>":2821,"act</w>":2822,"ëĤĻ":2823,"íķĺëıĦë¡Ŀ</w>":2824,"made</w>":2825,"ê·¸ëŁ°ëį°</w>":2826,"ìĸ¸ë¡ł</w>":2827,"ë¶Ģëĭ´":2828,"ìĦłìłķ":2829,"ie":2830,"should</w>":2831,"ê°ľë°ľ</w>":2832,"ìĭľíĸī":2833,"fun":2834,"ë¥´ê²Į</w>":2835,"ë°ĽìĿĦ</w>":2836,"ëĶĶìŀĲ":2837,"ìĿ´ê¸°</w>":2838,"ason</w>":2839,"ë¯¿":2840,"think</w>":2841,"ê³µê°Ħ":2842,"ìºĲë¦Ń":2843,"ê³łëĬĶ</w>":2844,"ê·¸ëĥ¥</w>":2845,"ë°ĽëĬĶ</w>":2846,"ìľĦì¹ĺ":2847,"íķĺìĺĢ":2848,"fo":2849,"ê°ķì¡°íĸĪëĭ¤</w>":2850,"wer</w>":2851,"ìłķìĿ´</w>":2852,"íĮħ":2853,"ìĽĲìĹĲìĦľ</w>":2854,"ìĿ´ëıĻ":2855,"íĸĪëĭ¤ëĬĶ</w>":2856,"ëŃĲ":2857,"ë¦¼</w>":2858,"íĢ":2859,"sm":2860,"ì³¤ëĭ¤</w>":2861,"ìķĮ</w>":2862,"ince</w>":2863,"pt</w>":2864,"ë¢":2865,"ëĪĦêµ¬":2866,"íķĺê¸°ë¡ľ</w>":2867,"ìĤ´ìķĦ":2868,"ëıħ</w>":2869,"íĦ´":2870,"ì£¼ë¡ľ</w>":2871,"ë½":2872,"ìłķëıĦë¡ľ</w>":2873,"ì²ł</w>":2874,"ì¡°ìĦł":2875,"ë³µ</w>":2876,"ange</w>":2877,"ì¹¼":2878,"ìķŀìľ¼ë¡ľ</w>":2879,"led</w>":2880,"ìĬ¤íı¬":2881,"ì§ĢëĤĺ":2882,"ëħĦìĹĲ</w>":2883,"ìĨĮë¦¬":2884,"ish</w>":2885,"ìĿĺíķ´</w>":2886,"ìĸ¼êµ´":2887,"ì°¨ë¥¼</w>":2888,"tre":2889,"íĳľíĺĦ":2890,"ì¹Ļ":2891,"ìłķë§Ĳ</w>":2892,"ëıĦìĿĺ</w>":2893,"still</w>":2894,"ìĭľìĬ¤íħľ":2895,"ë³´ëĭĪ</w>":2896,"ë³ĳ</w>":2897,"ì§ĢëĤľëĭ¬</w>":2898,"ìĨĮë¥¼</w>":2899,"ê¹Ĭ":2900,"good</w>":2901,"ë§¨":2902,"ìª½</w>":2903,"ì§ĳì¤ĳ":2904,"lg":2905,"ns</w>":2906,"dur":2907,"ëĭ¥":2908,"nor":2909,"dic":2910,"ì»´":2911,"ìĿĺë£Į":2912,"ê°ľìĿ¸":2913,"ë§¹":2914,"ë¥ł</w>":2915,"ìĤ¬ìĻĢ</w>":2916,"presi":2917,"ìĹħìĿĦ</w>":2918,"ëĨĵê³ł</w>":2919,"ëĮĢê°Ģ</w>":2920,"ily</w>":2921,"out":2922,"ëª©</w>":2923,"cle":2924,"bre":2925,"ìłĦêµŃ</w>":2926,"line</w>":2927,"ìĿ´ìĿµ":2928,"ìľĦíĹĺ":2929,"íķŃê³µ":2930,"',</w>":2931,"ìĺ¤ëĬĺ":2932,"ìĿĢíĸī</w>":2933,"off</w>":2934,"ë²¨":2935,"ia</w>":2936,"ëĭ´</w>":2937,"íĥľ</w>":2938,"ìłĦì²´</w>":2939,"êµĲìľ¡</w>":2940,"ì¶Ķê°Ģ</w>":2941,"ump</w>":2942,"ìĸ´ëłµ":2943,"prob":2944,"ìĿ¸ì²ľ":2945,"ìŀĲìĻĢ</w>":2946,"lin":2947,"ê´ĳì£¼":2948,"íıīê·ł</w>":2949,"dn</w>":2950,"come</w>":2951,"ìĦľë¡ľ</w>":2952,"ful":2953,"did</w>":2954,"ë©´ìĦľëıĦ</w>":2955,"leg":2956,"again":2957,"ìĬ¤íĨł":2958,"ì¹ĺê³ł</w>":2959,"ìłĲìĹĲìĦľ</w>":2960,"against</w>":2961,"íķĺê¸°ëıĦ</w>":2962,"ise</w>":2963,"ê»ĺ":2964,"ëĦĪ</w>":2965,"ë¬¸ìłľê°Ģ</w>":2966,"ëħĦê°Ħ</w>":2967,"ìłģìĿĦ</w>":2968,"ìŀĩ":2969,"ê³µê³µ":2970,"ë¶ĢìĹĲ</w>":2971,"ì½ľ":2972,"id</w>":2973,"ë°ĶëŀĮ":2974,"ìĭľë¦¬":2975,"ê·¹</w>":2976,"ê·¸ê°Ģ</w>":2977,"itt":2978,"ë²łìĿ´":2979,"íĻķì§Ħ":2980,"íĸĪëĬĶëį°</w>":2981,"âĨĴ</w>":2982,"ìĬ¤ëŁ¬":2983,"ìĥģìĿĺ</w>":2984,"less</w>":2985,"ìĹ´ë¦°</w>":2986,"ìłľëĮĢë¡ľ</w>":2987,"ìĬ¤íĤ":2988,"ë¶Ģì¡±":2989,"national</w>":2990,"ë¶ĦìľĦ":2991,"êº¼":2992,"ìĹĨìĹĪ":2993,"ond</w>":2994,"ëĮĢíĳľëĬĶ</w>":2995,"tor</w>":2996,"ë§¤ì¶ľ":2997,"take</w>":2998,"ìłĦì²´":2999,"ê²½ìłľ</w>":3000,"ì¼ľ":3001,"ì¤ĳìļĶíķľ</w>":3002,"ë¹ĦêµĲ":3003,"ëª¨ëį¸":3004,"ìľ¼ëĭĪ</w>":3005,"call":3006,"íĻ©</w>":3007,"ì£¼ê³ł</w>":3008,"ì¢ħíķ©":3009,"ë¿Ĳ</w>":3010,"ê°ĢëĬ¥íķľ</w>":3011,"ê°Ģê¹Į":3012,"ìłľìĭľ":3013,"ìĿ½":3014,"ë³´ìĺĢëĭ¤</w>":3015,"ìľĦìĽĲíļĮ</w>":3016,"ì²Ļ":3017,"government</w>":3018,"grou":3019,"ëĲĺë©´ìĦľ</w>":3020,"tiv":3021,"ë¹ĦíĮĲ":3022,"ë¶Ģëª¨":3023,"ì¦ī</w>":3024,"íĺĦìŀ¬":3025,"ìĤ¬ì§Ħ":3026,"ëĮĢìĿĳ":3027,"ë°ĽìķĦ</w>":3028,"ther":3029,"ëĤ´ê³ł</w>":3030,"ëĭ¬ëŁ¬":3031,"dr":3032,"ëª¬":3033,"íĨµíķ©":3034,"fer":3035,"ë¥´ê³ł</w>":3036,"íĮħ</w>":3037,"ê¸°ìŀĲ":3038,"ëĬĺìĸ´":3039,"ê·ł":3040,"ìĦ±ê³¼</w>":3041,"cen":3042,"story</w>":3043,"ìĸ¼ë§Ī":3044,"ê°ľë¥¼</w>":3045,"gener":3046,"produc":3047,"ë³´ëĭ¤ëĬĶ</w>":3048,"ìĿ¸ê°Ģ</w>":3049,"ìĿ¸íĦ°ëĦ":3050,"ê°ĢëĬ¥ìĦ±ìĿ´</w>":3051,"ëĦ¤ìļĶ</w>":3052,"ìļ°ë¦¬ëĬĶ</w>":3053,"ìķĪìłķ":3054,"ìĬ¤íĦ°":3055,"publ":3056,"num":3057,"ë³µì§Ģ":3058,"ë¡ľìĦľ</w>":3059,"vers":3060,"ìĸ´ë¦°":3061,"íĺĳëł¥":3062,"lion</w>":3063,"ìĺĪìĤ°":3064,"ë¶ĢëıĻ":3065,"ìĺģíĸ¥ìĿĦ</w>":3066,"íĿ¡":3067,"ãĢį</w>":3068,"ê°ľìµľ":3069,"ì¡¸":3070,"ê²ĮìŀĦ</w>":3071,"ì»¬":3072,"ëįĶëĿ¼ëıĦ</w>":3073,"ëĭ¬ëŁ¬</w>":3074,"want</w>":3075,"ë°©íĸ¥":3076,"ì¤ĳìĨĮ":3077,"ìĤ¬ìĹħìĿĦ</w>":3078,"ìĬ¤ë§ĪíĬ¸":3079,"fri":3080,"ìĺĪ</w>":3081,"win":3082,"íķĺìĿ´":3083,"land</w>":3084,"ween</w>":3085,"ility</w>":3086,"ì¡°ìĤ¬</w>":3087,"ë³Ħë¡ľ</w>":3088,"kno":3089,"ick</w>":3090,"ìłľìĻ¸":3091,"íĸīë³µ":3092,"ë¹Ħë¥¼</w>":3093,"tal":3094,"ìĤ´</w>":3095,"ìķī":3096,"íļĮìĹĲìĦľ</w>":3097,"ëĵĿ</w>":3098,"ìĿ´ìŀĲ</w>":3099,"ì¤ĳìĿ´ëĭ¤</w>":3100,"ë§Ŀ</w>":3101,"up":3102,"ìķĮê³ł</w>":3103,"cc":3104,"resp":3105,"wom":3106,"ê°ĸê³ł</w>":3107,"differ":3108,"ass</w>":3109,"ìŀĲìĭłìĿ´</w>":3110,"ê¸°ìĪł</w>":3111,"ìķĬìĿĦ</w>":3112,"ì¶ķ</w>":3113,"ë°ĺë©´</w>":3114,"ë¶ĢìĿĺ</w>":3115,"clo":3116,"íĸ¥</w>":3117,"ìľ¼ë¡ľìį¨</w>":3118,"ëį§":3119,"ê°Ģê°Ģ</w>":3120,"lar":3121,"ìĿ¼ìĹĲ</w>":3122,"ëıĻìĭľìĹĲ</w>":3123,"ì£¼ìĿ¸":3124,"under":3125,"íļį</w>":3126,"ìĸ´ëĶĶ":3127,"ë°ľê²¬":3128,"says</w>":3129,"ann":3130,"ê³Ħë¥¼</w>":3131,"ê²¨</w>":3132,"ë¹ĦìĬ":3133,"ìĽĢì§ģ":3134,"def":3135,"ì²ĺ</w>":3136,"ìĺĪìĪł":3137,"ëķĮëĬĶ</w>":3138,"ë±":3139,"ìŀĲëĵ¤ìĿĺ</w>":3140,"ìĿ´íĽĦ":3141,"ant":3142,"medi":3143,"ë¦¬ê·¸</w>":3144,"ãĢİ</w>":3145,"between</w>":3146,"íĸĪìľ¼ë©°</w>":3147,"ëĭ¹ìĭł":3148,"del":3149,"íı°":3150,"ê·¸ë£¹":3151,"three</w>":3152,"ìĹŃíķłìĿĦ</w>":3153,"buil":3154,"ê³¡</w>":3155,"ì§Ģì§Ģ</w>":3156,"ë»":3157,"ãĦ":3158,"ì²ĺë¦¬":3159,"ëŁīìĿĦ</w>":3160,"ì¶ľìĭľ":3161,"ìĪĺìļĶ":3162,"ìĹ°ê²°":3163,"ëŀĲëĭ¤</w>":3164,"ê·¸ë£¹</w>":3165,"ven</w>":3166,"ê³¼ìłķìĹĲìĦľ</w>":3167,"ê³µê°Ĳìĸ¸ë¡ł</w>":3168,"ìĬ¤ëŁ½":3169,"ê°ĦìĿĺ</w>":3170,"ë¹ĦìĬ·":3171,"ë¬ĺ":3172,"ìłķë¶Ģê°Ģ</w>":3173,"direc":3174,"tical</w>":3175,"reg":3176,"ë¡¯ëį°":3177,"plo":3178,"fam":3179,"íĸīëıĻ":3180,"ìĿ´ë²¤":3181,"ì§¸":3182,"ìĬ¤íģ¬":3183,"ë¬¼ìĿ´</w>":3184,"team</w>":3185,"ë©Ģ":3186,"same</w>":3187,"ìĿĮìķħ":3188,"ìľ¼ë¡ľëıĦ</w>":3189,"any":3190,"ìļ°ëĬĶ</w>":3191,"ë²Ĺ":3192,"ëª»íķľ</w>":3193,"ìĤ¬ìĭ¤</w>":3194,"during</w>":3195,"ari":3196,"íĻľìĦ±":3197,"ìĦ¬":3198,"ìĥģìĹĲ</w>":3199,"ëĶ°ëĿ¼ìĦľ</w>":3200,"ì¤ĳìĿ¸</w>":3201,"ì²¨":3202,"ìĤ¬ëŀĮëĵ¤ìĿ´</w>":3203,"ëħĦë¶ĢíĦ°</w>":3204,"ìĤ¬ëŀĮìĿĢ</w>":3205,"ìĿĺìĽĲìĿĢ</w>":3206,"fil":3207,"ë¢°":3208,"ìħ¨":3209,"ë¦¬ìķĦ":3210,"ìĹĲê²ĮëĬĶ</w>":3211,"ì§Ģë¡ľ</w>":3212,"ty":3213,"requ":3214,"íı´":3215,"ê·¸ëĮĢë¡ľ</w>":3216,"ìłľê¸°":3217,"peri":3218,"pul":3219,"ëĦĲ</w>":3220,"ê¸¸ìĿĦ</w>":3221,"ëĭ¬ë¦¬</w>":3222,"cam":3223,"bli":3224,"both</w>":3225,"stre":3226,"ca":3227,"íķĺëĿ½":3228,"ìĹ¬íĸī":3229,"since</w>":3230,"ë§ĪìĿ´":3231,"íķĺëĭ¤ëĬĶ</w>":3232,"ëĿ½</w>":3233,"ëıĦìŀħ":3234,"ê²°</w>":3235,"ì²ĺìĿĮ</w>":3236,"ê½ĥ":3237,"ìĿĳ</w>":3238,"ìķĬëĭ¤</w>":3239,"sul":3240,"íĺķíĥľ":3241,"íĬ¹ì§ķ":3242,"íĶĦëŀĳ":3243,"íĬ¸ëĬĶ</w>":3244,"ì¹ĺê°Ģ</w>":3245,"ìĿ¼ìĸ´":3246,"ëĲĺë©°</w>":3247,"ìĽĢìĿ´</w>":3248,"ì°¸ìĦĿ":3249,"íķĺê³ł":3250,"elec":3251,"say</w>":3252,"ìĭľìĦ¤</w>":3253,"part</w>":3254,"around</w>":3255,"ters</w>":3256,"ep":3257,"ìķĦìĦľ</w>":3258,"ìī½ê²Į</w>":3259,"ìĪĺì¶ľ":3260,"ìĶ¨ê°Ģ</w>":3261,"ì²ŃìĨĮ":3262,"êµ¬ë¥¼</w>":3263,"ìŀ¬íĮĲ":3264,"ì§Ģê¸ī":3265,"ë¹¼":3266,"long</w>":3267,"ãħİ":3268,"íı°</w>":3269,"ì±ħìĿĦ</w>":3270,"ëķħ":3271,"ster":3272,"ì¯":3273,"íĻĢ":3274,"ìŀĪìĬµëĭĪëĭ¤</w>":3275,"ë¶Ģë¶Ħ</w>":3276,"ìķ¡</w>":3277,"ê³µìĹ°":3278,"íķ´ìĻ¸":3279,"íĺģìĭł":3280,"ê³µë¬´":3281,"though</w>":3282,"ë§İëĭ¤</w>":3283,"ì¥":3284,"ton</w>":3285,"set</w>":3286,"ìĿĦê¹Į</w>":3287,"íĬľ":3288,"ìŀ¥ìķł":3289,"les</w>":3290,"íķŃìĹĲ</w>":3291,"íĸĪìĿĦ</w>":3292,"ìĺ¤ëĬĺ</w>":3293,"trump</w>":3294,"ëį§ë¶Ļ":3295,"ìŀĳìĿĢ</w>":3296,"ê°Ģì§Ħ</w>":3297,"hou":3298,"ëĮĢìĭł</w>":3299,"ê³¤":3300,"ìłĦìŀĲ":3301,"ì¶©ë¶Ħ":3302,"ìĹ´</w>":3303,"ê³¼ëĬĶ</w>":3304,"ìĭľê°ĦìĿ´</w>":3305,"íĻľëıĻìĿĦ</w>":3306,"ê·ľëª¨</w>":3307,"ê°ģì¢ħ</w>":3308,"ìĿ¼ìĿĢ</w>":3309,"ëĢ":3310,"íŀĮ</w>":3311,"íħĮìĿ´":3312,"ë³´ìĿ´":3313,".[</w>":3314,"happ":3315,"ê²ģ":3316,"ìŀĪê¸°</w>":3317,"ê°ĢëĬ¥íķĺëĭ¤</w>":3318,"ail</w>":3319,"ever":3320,"need</w>":3321,"ìĽħ":3322,"íŀĪëł¤</w>":3323,"ten":3324,"ìłľëĬĶ</w>":3325,"ëĮĢëĬĶ</w>":3326,"devel":3327,"ì¡°ìĦ±":3328,"life</w>":3329,"spe":3330,"ìĪĺëıĦ":3331,"íļĮìĹĲ</w>":3332,"really</w>":3333,"ìĺ¤íŀĪëł¤</w>":3334,"ê°ĲìĹ¼":3335,"ey</w>":3336,"ê°ľìĽĶ</w>":3337,"ìĤ¬ëŀĮ</w>":3338,"ner</w>":3339,"ëĬ¦":3340,"ants</w>":3341,"íĿ¬</w>":3342,"ames</w>":3343,"ìĺģíĻĶ</w>":3344,"ep</w>":3345,"ê²ª":3346,"ì§Ĳ":3347,"íĥĳ":3348,"ê¸°ëĭ¤":3349,"ìĭľì²Ń":3350,"ëĭ¤ëĭĪ":3351,"ìĪĺë¡Ŀ</w>":3352,"ìĤ¬ë¡Ģ":3353,"ë¹Ħìļ©":3354,"ãħĭãħĭãħĭ</w>":3355,"ì§Ģì§Ģ":3356,"ìĤ¬ë¡ľ</w>":3357,"âĪ":3358,"ìĦŃ":3359,"sting</w>":3360,"ëĵ¤ìĹĲ</w>":3361,"publi":3362,"exp":3363,"ë¡ľë¥¼</w>":3364,"poli":3365,"ë¬»":3366,"ìŀĲëĵ¤ìĿĢ</w>":3367,"íļĮìĤ¬</w>":3368,"ëŀ«":3369,"bus":3370,"ëĦĺìĸ´":3371,"ê´Ģë¦¬</w>":3372,"ëĥī":3373,"ê°Ŀ</w>":3374,"ìłĦêµŃ":3375,"public</w>":3376,"ven":3377,"ong":3378,"ëĽ°ìĸ´":3379,"ì§ĢëıĦ":3380,"ìľĦëĬĶ</w>":3381,"íĺķìĦ±":3382,"val":3383,"ga":3384,"ìłķë¶ĢëĬĶ</w>":3385,"ef":3386,"ìŀĦìĿĦ</w>":3387,"ë°ĺìĺģ":3388,"ë¶Ħê¸°</w>":3389,"ë°Ľìķĺ":3390,"ì¹ĺë£Į":3391,"fic":3392,"ism</w>":3393,"ry</w>":3394,"ìĤ¬íļĮ</w>":3395,"ìĭľê°Ģ</w>":3396,"times</w>":3397,"another</w>":3398,"ë§ĪìĿĦ":3399,"ìłľíķľ":3400,"city</w>":3401,"ìĹĲìĦľìĿĺ</w>":3402,"sear":3403,"ëıĦìĭľ</w>":3404,"own</w>":3405,"over":3406,"ê¸°íļį":3407,"ìŀ¥ê³¼</w>":3408,"ìľĦë¡ľ</w>":3409,"ways</w>":3410,"sive</w>":3411,"ë¦¬ì§Ģ</w>":3412,"ì¤ĳìĭ¬ìľ¼ë¡ľ</w>":3413,"êµ¬ì¶ķ":3414,"dat":3415,"ìĨįìĹĲ</w>":3416,"ìĻľ":3417,"ind</w>":3418,"ë§ģ</w>":3419,"íĻĶê°Ģ</w>":3420,"ë¬¸ìłľë¥¼</w>":3421,"íĦ¸":3422,"ê¸°ìĸµ":3423,"ë¦¬ìĿĺ</w>":3424,"Ģëĭ¤</w>":3425,"----":3426,"ë¥¸ëĭ¤</w>":3427,"fa":3428,"ëĮĢìłĦ":3429,"íħĮ</w>":3430,"ëĤĺëĪ":3431,"'(</w>":3432,"ëģĦ":3433,"ì´Į":3434,"ëłī":3435,"sum":3436,"ë°¤":3437,"íĥĲ":3438,"ìĤ¬ëĿ¼":3439,"ëĤ¼</w>":3440,"ìłķíĻķ":3441,")'</w>":3442,"ë°ĶëĢ":3443,"eff":3444,"ìĨĮëĵĿ":3445,"íĬ¸ëŁ¼":3446,"ë¿Ĳë§Į</w>":3447,"ìĤ¬ìĭ¤ìĿĦ</w>":3448,"ê³ĦìĨį":3449,"ì¶ľìĹ°":3450,"ship</w>":3451,"ìĦ°ëĭ¤</w>":3452,"ëł¤ê³ł</w>":3453,"every":3454,"ëŁīìĿ´</w>":3455,"ìĸ´ë¥¼</w>":3456,"acc":3457,"ë²Ķ</w>":3458,"mus":3459,"ìĭ¤ìłľ</w>":3460,"ì²«":3461,"íĿĺ":3462,"ê¸°ë°ĺ":3463,"íĨµíķľ</w>":3464,"ì°¸ê°Ģ":3465,"íļĮë³µ":3466,"ëŁ¬ìĭľ":3467,"ìłķë¶ĢìĿĺ</w>":3468,"ì§ģìĽĲ":3469,"sed</w>":3470,"ãħł</w>":3471,"ìĸ¸ê¸ī":3472,"ìĹŃìĤ¬":3473,"ë§Įíķľ</w>":3474,"tv":3475,"ëĤ´ëħĦ</w>":3476,"ìŀĥ":3477,"ìį¨":3478,"ìĤ°ìĹħ</w>":3479,"ê±°ë¦¬</w>":3480,"ìłĬ":3481,"ë°ĺìĿĳ":3482,"sa":3483,"ìłģê·¹":3484,"contin":3485,"ìĺ¬íķ´":3486,"ëĤĺíĥĢëĤ¬ëĭ¤</w>":3487,"ë¦¬ìĹĲ</w>":3488,"ought</w>":3489,"ìļ°ë¦¬ê°Ģ</w>":3490,"ìļĶì²Ń":3491,"indi":3492,"president</w>":3493,"ìĸ¸ë¡ł":3494,"ë°°ìļ°":3495,"play</w>":3496,"ëªħìľ¼ë¡ľ</w>":3497,"ash":3498,"ìĹħê³Ħ":3499,"ìĿ´ìķ¼</w>":3500,"ê³łìļ©":3501,"view</w>":3502,"ìłĦëĭ¬":3503,"lead":3504,"ëª¨ë¥´":3505,"ê°Ģê³ł</w>":3506,"hum":3507,"!!":3508,"ìĨĮê°ľ":3509,"ìĭľíĤ¤ëĬĶ</w>":3510,"ìĦľìĿĺ</w>":3511,"ì½ĶìĬ¤":3512,"nex":3513,"íĥĢìĿ´":3514,"ëª»íķĺê³ł</w>":3515,"ool</w>":3516,"under</w>":3517,"eu":3518,"ward</w>":3519,"ë§ĮëĤĺ":3520,"ëĮĢë¶Ģë¶Ħ":3521,"bri":3522,"struc":3523,"ìĺģìĥģ</w>":3524,"hol":3525,"íĬ¸ê°Ģ</w>":3526,"ëĿ¼ìĿ¸</w>":3527,"bar":3528,"ëĭ¤ë©°</w>":3529,"ëĤĺìĺ¨ëĭ¤</w>":3530,"per</w>":3531,"ê°Ĵ":3532,"ages</w>":3533,"appe":3534,"chil":3535,"ial</w>":3536,"ìµľì´Ī":3537,"ë§Īì§Ģë§ī</w>":3538,"stem</w>":3539,"íķ´ìķ¼":3540,"issu":3541,"ì¶ĺ":3542,"ëĮĢíļĮ</w>":3543,"ê·¸ëıĻìķĪ</w>":3544,"ìĥ¤":3545,"ìŀĲë¦¬</w>":3546,"ëħĢ</w>":3547,"ìłĦê¸°":3548,"ëªħìĿĢ</w>":3549,"cent</w>":3550,"ê·¸ë¦¬":3551,"high</w>":3552,"ëħ¼ìĿĺ":3553,"ëĤĺëĿ¼</w>":3554,"ëį§ë¶ĻìĺĢëĭ¤</w>":3555,"ìłĦíĻĺ":3556,"ì¹´ëĵľ":3557,"íŀĺìĿĦ</w>":3558,"ìĿ¸íķľ</w>":3559,"ê¸°ê´Ģ</w>":3560,"sha":3561,"íĥĦ</w>":3562,"íķ´ëĭ¹":3563,"ì¡°íķ©":3564,"ìĭľê°ĦìĿĦ</w>":3565,"using</w>":3566,"ë©¤":3567,"íĻĺê²½</w>":3568,"ì¹ł</w>":3569,"ê³łë¥¼</w>":3570,"ì£¼ëª©":3571,"ected</w>":3572,"gro":3573,"ë°¥":3574,"ìłľíĴĪ</w>":3575,"adi":3576,"ìĪĺìĤ¬":3577,"ìĦ±ìĹĲ</w>":3578,"ìłĦíĺĢ</w>":3579,"stri":3580,"ìĦ±ê³¼":3581,"ìĪĺíĸī":3582,"íĿ¬ë§Ŀ":3583,"ê¸Ģ</w>":3584,"ëĵ±ë¡Ŀ":3585,"ìķĮìķĦ":3586,"âĶ":3587,"êµ¬ì²´":3588,"ëŁ½</w>":3589,"ê¼¬":3590,"!\"</w>":3591,"ìŁģ</w>":3592,"ìĤ¬ë§Ŀ":3593,"ë³´ìĿ´ëĬĶ</w>":3594,"ìłķë³´ë¥¼</w>":3595,"ì¤¬":3596,"ìķ½ìĿĦ</w>":3597,"too</w>":3598,"des</w>":3599,"âĢĿ":3600,"mor":3601,"tting</w>":3602,"ë§Įëĵł</w>":3603,"ë¡Ńê²Į</w>":3604,"ìĺ¬ë¦¼":3605,"ìļ°ìĦł</w>":3606,"lim":3607,"ì¹´ëĵľ</w>":3608,"ëĦĵ":3609,"íĵ":3610,"ëĮĢíķĻ</w>":3611,"ìµľê³ł</w>":3612,"ëĤĺëıĦ</w>":3613,"every</w>":3614,"lan":3615,"develop":3616,"sim":3617,"ìĿ´ëĵ¤ìĿĢ</w>":3618,"ëĮĢíĨµëł¹ìĿĢ</w>":3619,"incre":3620,"ëĭ¹ìĿĢ</w>":3621,"ë°ĶëĿ¼":3622,"íĿĳ":3623,"ìłĲìĿĢ</w>":3624,"ìŀħìŀ¥":3625,"posi":3626,"ìĺģìĥģ":3627,"ëģĬ":3628,"ìĹ¬ìłĦíŀĪ</w>":3629,"place</w>":3630,"ëĭ¨ì§Ģ</w>":3631,"ê²¼ëĭ¤</w>":3632,"ëĭ¨ìĿĦ</w>":3633,"ìĦłìĥĿ":3634,"contro":3635,"ìĨįìĹĲìĦľ</w>":3636,"ìĤ¬íļĮìłģ</w>":3637,"ì²ŃìĻĢ":3638,"ê¼½":3639,"told</w>":3640,"ê³Ħíļį</w>":3641,"end":3642,"ëįĶë¶Ī":3643,"mini":3644,"íķĺëĭ¤ê³ł</w>":3645,"ë°©ì¹¨":3646,"íİ´":3647,"ë·°":3648,"ìĦ±ìĿĢ</w>":3649,"ëłĪ</w>":3650,"ê·¼ëį°</w>":3651,"sure</w>":3652,"ì¢ĭëĭ¤</w>":3653,"ìŀĪëĬĶ":3654,"each</w>":3655,"ìĭľíĹĺ":3656,"ìľ¼ë¡ľë¶ĢíĦ°</w>":3657,"ë¦´":3658,"ìĿ´ìłĦ":3659,"repor":3660,"system</w>":3661,"íķ´ìĻ¸</w>":3662,"ë¬¸ìłľ</w>":3663,"ìĭĿìĿ´</w>":3664,"íĶ½":3665,"íĪ¬ìŀĲ</w>":3666,"best</w>":3667,"ìķĬìķĦ</w>":3668,"ëĩĮ":3669,"ëĵ¤ê³ł</w>":3670,"ë³´ìľł":3671,"ze</w>":3672,"ìĤ¬ê±´</w>":3673,"consi":3674,"ìĸ´ëł¤ìļ´</w>":3675,"ìĬ¤íĦ°</w>":3676,"ëĮĢíĨµëł¹</w>":3677,"wing</w>":3678,"ban":3679,"ëħ¼ëŀĢ":3680,"next</w>":3681,"ìŀĲìĤ°":3682,"onom":3683,"ale</w>":3684,"ìħĢ":3685,"ris":3686,"ìłľì£¼":3687,"ë°±</w>":3688,"ëĭ¨ê³Ħ</w>":3689,"ì¸¡ìĿĢ</w>":3690,"ìłĦíĨµ":3691,"ê±±":3692,"ì¡°ê±´":3693,"tes</w>":3694,"ê¸°ë¡ĿíĸĪëĭ¤</w>":3695,"hn":3696,"ìĿĺìĽĲ</w>":3697,"ì¦Ŀê¶Į":3698,"ì§Ħì¶ľ":3699,"ìĸ¸</w>":3700,"íĮ¨</w>":3701,"íĮĮìķħ":3702,"ëĪĦë¦¬":3703,"rele":3704,"ëĬ¥ëł¥":3705,"ê°Ģìŀħ":3706,"ê°ķëł¥":3707,"book</w>":3708,"ê²©ìĿĦ</w>":3709,"something</w>":3710,"íĺĳìĿĺ":3711,"íĻķìĭ¤":3712,"ìłĿ":3713,"ëĳĶ</w>":3714,"ëĮĢíķ´ìĦľëĬĶ</w>":3715,"sci":3716,"ëª»íĸĪëĭ¤</w>":3717,"provi":3718,"ìŀĲì¹ĺ":3719,"ìłĦìŁģ":3720,"ë§ĲìĿ´</w>":3721,"ìľĦê°Ģ</w>":3722,"ëĤĺìĿ´":3723,"respon":3724,"stor":3725,"ìĹĨìĸ´</w>":3726,"ì´¬":3727,"wa":3728,"ë§ĮìĿĺ</w>":3729,"ìĤ¼ìĦ±ìłĦ":3730,"ìĦľë¹ĦìĬ¤ë¥¼</w>":3731,"ê±°ìķ¼</w>":3732,"íļĮìĤ¬":3733,"ë§Ĳë¡ľ</w>":3734,"ê³³</w>":3735,"ìķĦì£¼</w>":3736,"wat":3737,"ë¬´ìĬ¨</w>":3738,"ìĿ´ë©´</w>":3739,"ìĪĺë°ĸìĹĲ</w>":3740,"bc</w>":3741,"ê°Ģìł¸":3742,"ë¹Ħê°Ģ</w>":3743,"ìļ°ìĪĺ":3744,"%),</w>":3745,"ì²´íĹĺ":3746,"ìŀĲë¦¬ë¥¼</w>":3747,"bor":3748,"police</w>":3749,"point</w>":3750,"ality</w>":3751,"íĦ°ë¥¼</w>":3752,"ì²´ìľ¡":3753,"ever</w>":3754,"pic":3755,"ê²ĢíĨł":3756,"let</w>":3757,"ëĤĺìĺ¨</w>":3758,"ìķĮëł¤ì¡Įëĭ¤</w>":3759,"ëĿ¼ë©´</w>":3760,"ê·¼ë¡ľ":3761,"ìłķìĹĲ</w>":3762,"ëª¨ëĳĲ":3763,"ghts</w>":3764,"ìĿµ</w>":3765,"why</w>":3766,"ê°Ħëĭ¤</w>":3767,"akes</w>":3768,"ì°®":3769,"top</w>":3770,"things</w>":3771,"ëıĦìĹĲ</w>":3772,"ìĤ¬ê³ł</w>":3773,"ìłĦë¬¸ê°Ģ":3774,"dri":3775,"ê²½ìļ°ê°Ģ</w>":3776,"commun":3777,"ìĸ¼ë§ĪëĤĺ</w>":3778,"ë¯¼ì£¼ëĭ¹</w>":3779,"ìĿ´ë£¨ìĸ´":3780,"íķľëĭ¤ë©´</w>":3781,"ìĭ¬ìĿĦ</w>":3782,"ì¹¨</w>":3783,"âĵ":3784,"ft":3785,"curren":3786,"ìĿ´ë¯¸":3787,"ê³³ìĹĲ</w>":3788,"ìłľì¡°":3789,"pai":3790,"íĺĲìĿĺ":3791,"ëŁŃ":3792,"et":3793,"ë³Ģ</w>":3794,"lot</w>":3795,"ìĬµ</w>":3796,"ìĭľìŀĳíĸĪëĭ¤</w>":3797,"ê°ĢìĦľ</w>":3798,"ëħ¸ëŀĺ":3799,"form</w>":3800,"ëĤľëĭ¤</w>":3801,"ì¹ł":3802,"accor":3803,"ìŀ¥ìľ¼ë¡ľ</w>":3804,"íķ¨ìĿĦ</w>":3805,"ìľłëŁ½":3806,"never</w>":3807,"êµ¬ê°Ģ</w>":3808,"ìłģìĿĢ</w>":3809,"ë¶ĢìĤ°</w>":3810,"ëĵľìĿĺ</w>":3811,"ë§Īì°¬":3812,"ìĿ¼ë°ĺ</w>":3813,"ëĿ¼ìļ´":3814,"ë§Įëĵ¤ìĸ´</w>":3815,"ìµľ</w>":3816,"ject</w>":3817,"ìľ¼ë¡ľìĦľ</w>":3818,"ìĹ¬ìķ¼</w>":3819,"ìĿ¸ìĤ¬":3820,"ëª©ìĨĮ":3821,"pat":3822,"êµ¬ë§¤":3823,"ìĪľ</w>":3824,"season</w>":3825,"ê³µìĭĿ</w>":3826,"ìľ¨ìĿ´</w>":3827,"ì½ĺíħĲ":3828,"sto":3829,"íĸ¥íĽĦ</w>":3830,"ices</w>":3831,"sour":3832,"bur":3833,"ìļ°ìĬ¹":3834,"ìķ¨":3835,"ëĺĳ":3836,"ready</w>":3837,"found</w>":3838,"ëģĮìĸ´":3839,"ling</w>":3840,"ìĦ¸ê°Ģ</w>":3841,"tis":3842,"ëªħíķľ</w>":3843,"ìĺ·":3844,"ìĻķ</w>":3845,"gra":3846,"com</w>":3847,"ê²ĥìĹĲ</w>":3848,"ë³Ģíĺ¸":3849,"ëĤĺë¬´":3850,"ê²°íĺ¼":3851,"ìĤ¬íķŃ":3852,"ëĵ¤ìĹĪëĭ¤</w>":3853,"ìŀĳìĹħ":3854,"high":3855,"ê¸°ìĹħìĿĺ</w>":3856,"ëĭ´ëĭ¹":3857,"main":3858,"ë²ķìĿĦ</w>":3859,"house</w>":3860,"íķĺë£¨":3861,"ë¶ĢíĦ°":3862,"tor":3863,"put</w>":3864,"pho":3865,"íĸĪìľ¼ëĤĺ</w>":3866,"íĽĪëł¨":3867,"ë¶ĦìĿ´</w>":3868,"ens</w>":3869,"news</w>":3870,"ê²łëĭ¤ëĬĶ</w>":3871,"âĢĻ,</w>":3872,"ê¸°ìĻĢ</w>":3873,"ìĿ¼ìľ¼":3874,"ìģĺ":3875,"ëĶ©":3876,"does</w>":3877,"ìĹĦë§Ī":3878,"ìłĦíĪ¬":3879,"âĢ¦âĢ¦":3880,"ê³łëĵ±":3881,"ëĤĺë¥¼</w>":3882,"âĵĴ</w>":3883,"âĪ¼</w>":3884,"gan":3885,"few</w>":3886,"ëĶ¸":3887,"ìĩĦ":3888,"arly</w>":3889,"ëĤĺìĻĶëĭ¤</w>":3890,"ë¬´ë¦¬":3891,"ìĭ¤ìłľë¡ľ</w>":3892,"ë§ĮìĿĦ</w>":3893,"change</w>":3894,"íı¬ìĿ¸íĬ¸</w>":3895,"ì¦ī":3896,"ê¼Ń</w>":3897,"ê³łë¯¼":3898,"íķĺë£¨</w>":3899,"íĵ¨":3900,"heal":3901,"her":3902,"ëĨĴìķĦ":3903,"ë½ĳ":3904,"ëĤĺìĺ¤ëĬĶ</w>":3905,"states</w>":3906,"ìĭľìĿĺ</w>":3907,"ak</w>":3908,"íĻķìĤ°":3909,"íĬ¸ìĿĺ</w>":3910,"ëıĪìĿĦ</w>":3911,"group</w>":3912,"ìĹŃìĿĦ</w>":3913,"sible</w>":3914,"bers</w>":3915,"cha":3916,"great</w>":3917,"ëĭ¹ìĿ´</w>":3918,"ë³´ê±´":3919,"êµŃíļĮ</w>":3920,"ëĤĺìĿĺ</w>":3921,"sou":3922,"vir":3923,"home</w>":3924,"ìĺ®":3925,"ë¶ĦìĿĦ</w>":3926,"ë§ĮìĽĲ":3927,"howe":3928,"ë³¸ê²©":3929,"ë¶Īêµ¬":3930,"however</w>":3931,"ê²ĥìĿ´ëĿ¼ê³ł</w>":3932,"ì¡°ê¸Ī</w>":3933,"ëĵľê°Ģ</w>":3934,"ê¸°ëħĲ":3935,"ìķĦëĬĶ</w>":3936,"íķĻìĥĿ</w>":3937,"stan":3938,"ì£¼ë³Ģ":3939,"ìłľì¶ľ":3940,"ê°ĲìĿ´</w>":3941,"ê³µìĤ¬</w>":3942,"ì§Ģì¼ľ":3943,"ìĿ´íķĺ</w>":3944,"ìķĦíĮĮíĬ¸</w>":3945,"ìķĦë¦Ħ":3946,"ìĸµìĽĲìĿĦ</w>":3947,"ìĽłëĭ¤</w>":3948,"without</w>":3949,"ìĬ¤ìĻĢ</w>":3950,"ki":3951,"ì°Į":3952,"ko":3953,"ìĿ¸ë¬¼":3954,"ëĲĺê¸°</w>":3955,"ìĹħì²´</w>":3956,"ë©ĺ":3957,"ê°ĢìĿĺ</w>":3958,"íĸīìĤ¬":3959,"look</w>":3960,"ë¬¸íĻĶ</w>":3961,"ìŀĸ":3962,"stat":3963,"ëĬĲëĤĮ":3964,"ric":3965,"ãİ¡</w>":3966,"ìŀĲëıĻì°¨</w>":3967,"show</w>":3968,"ìĸ´ë¨¸ëĭĪ":3969,"ìĭĿìľ¼ë¡ľ</w>":3970,"ì¡°ìłķ":3971,"ê³¤</w>":3972,"ìĦ¸ëĮĢ</w>":3973,"íĶĦë¡ľìłĿ":3974,"ide":3975,"ìĹ¬ëŁ¬":3976,"ìļ´ìĺģ</w>":3977,"ê³łëıĦ</w>":3978,"ê´ĳ</w>":3979,"ìĹĲìĿ´":3980,"ëĮĢíķľë¯¼":3981,"ìĺĢëįĺ</w>":3982,"trans":3983,"ìĭľë¥¼</w>":3984,"ques":3985,"ë©¸":3986,"ê³§</w>":3987,"ê°ľìłķ":3988,"ort</w>":3989,"beg":3990,"might</w>":3991,"ë¬¸íķĻ":3992,"ëĭ¹ìĿĺ</w>":3993,"ìĿ¸ê³¼</w>":3994,"ìķĦëĭĪ</w>":3995,"ë§ĮìĿ´</w>":3996,"cas":3997,"ìŀĲìĹĲ</w>":3998,"ìĿ´ëĵ¤</w>":3999,"according</w>":4000,"ê´Ģìĭ¬ìĿĦ</w>":4001,"inform":4002,"ë°©ìĨ¡</w>":4003,"appro":4004,"ili":4005,"êµ°ìĿĢ</w>":4006,"ëįĶëĭĪ</w>":4007,"ë³ĳìĽĲ</w>":4008,"ë¶Ħìĸĳ":4009,"ê·¸ë¦¼":4010,"ìĪĺìŀħ":4011,"power</w>":4012,"ì²ŃëħĦ":4013,"ê°ĦìĹĲ</w>":4014,"ëĤ´ìļ©ìĿĦ</w>":4015,"ëĭ¤ë¥´":4016,"ìŀĲìĹĲê²Į</w>":4017,"ìĤŃ":4018,"ëĭ¹ìĹ°":4019,"ìķĦìļĶ</w>":4020,"litt":4021,"ìŀĳìļ©":4022,"ãħİ</w>":4023,"ìĿ´ìķ¼ê¸°":4024,"ìŀĲìĦ¸":4025,"ì¾":4026,"ìłķë³´</w>":4027,"ëĭ¹íķľ</w>":4028,"ìľĦìĿĺ</w>":4029,"ìĬ¤ìĬ¤ë¡ľ</w>":4030,"fre":4031,"econom":4032,"ëĶĶì§Ģ":4033,"resul":4034,"ë²Įìĸ´":4035,"adv":4036,"called</w>":4037,"ãħĭãħĭãħĭãħĭ</w>":4038,"ëĦ¤ìĿ´":4039,"including</w>":4040,"roo":4041,"ì²´ë¥¼</w>":4042,"ems</w>":4043,"ëĮĢìĥģ</w>":4044,"??</w>":4045,"ëĭ¨ìĿĢ</w>":4046,"different</w>":4047,"ìĽĶë¶ĢíĦ°</w>":4048,"ë§Īì°¬ê°Ģì§Ģ":4049,"ãĢı</w>":4050,"íĹ¬":4051,"week</w>":4052,"ìŀ¬ë¯¸":4053,"ë¶Ģìłķ":4054,"ê°¤":4055,"ëĭ¤ìĿ´":4056,"ìłķì±ħ</w>":4057,"ë³´ëĤ´":4058,"ìĭľìĬ¤íħľ</w>":4059,"ê´ľ":4060,"ì£¼ê°Ģ</w>":4061,"ìĿ´ìķ¼ê¸°ë¥¼</w>":4062,"ê¸°ì´Ī":4063,"äº":4064,"ìĿĺíķľ</w>":4065,"spo":4066,"ìĥģíĻ©ìĹĲìĦľ</w>":4067,"mic":4068,"little</w>":4069,"ëª¨ë°Ķ":4070,"os</w>":4071,"--</w>":4072,"rus":4073,"ìĭłê·ľ</w>":4074,"ê·¸ë¥¼</w>":4075,"íĨµìĭłìĤ¬</w>":4076,"ë°ĺê¸°</w>":4077,"ìķĦëĭĮ":4078,"íĺ¹ìĿĢ</w>":4079,"ì§ĢìĻĢ</w>":4080,"ë³Ģê²½":4081,"ìĤ¬ìĭ¤ìĥģ</w>":4082,"million</w>":4083,"ëĤĺìĻĢ</w>":4084,"ects</w>":4085,"ë¶ĦìĹĲ</w>":4086,"ìĹ°ìĨį</w>":4087,"ently</w>":4088,"íĦ´</w>":4089,"case</w>":4090,"got</w>":4091,"son":4092,"ë¡ľìĿĺ</w>":4093,"ìĹĲë§Į</w>":4094,"ams</w>":4095,"number</w>":4096,"ìĹ¬ìĦ±</w>":4097,"ìĸ¸ìłľ":4098,"ëĮĢì¶ľ":4099,"ë¸Įëŀľëĵľ</w>":4100,"ì½¤":4101,"ìĹĨëĭ¤ëĬĶ</w>":4102,"co</w>":4103,"tain":4104,"ìŀ¥ê¸°":4105,"ë¿Į":4106,"ê°ľìĽĶ":4107,"help</w>":4108,"ë³´ëıĦ":4109,"êµ¬ëĤĺ</w>":4110,"ëĬĲëģ¼":4111,"data</w>":4112,"ìĺĨ":4113,"ê·¸ëŀĺëıĦ</w>":4114,"ê³µìłķ":4115,"ìĿ¼ëĭ¨</w>":4116,"prof":4117,"ëĮĢíķ´":4118,"ìµľì¢ħ</w>":4119,"ìĭľì¼ľ</w>":4120,"ìĮĵ":4121,"ual</w>":4122,"part":4123,"íĺĦì§Ģ":4124,"íĶĦëłĪ":4125,"íĻĶëĲľ</w>":4126,"cul":4127,"ìĹĨê³ł</w>":4128,"ìķ¤":4129,"ìľĦíķ´ìĦľëĬĶ</w>":4130,"ket</w>":4131,"íĬ¸ëŁ¼íĶĦ</w>":4132,"med</w>":4133,"ë¯¸êµŃìĿĺ</w>":4134,"êµŃê°Ģ</w>":4135,"ê±°ì³Ĳ</w>":4136,"ments</w>":4137,"ê¸į":4138,")âĢĻ</w>":4139,"big</w>":4140,"ces</w>":4141,"ì£¼ë¥¼</w>":4142,"ë¬µ":4143,"âĺ":4144,"ìĭ¤ìĿĦ</w>":4145,"ëĵ±ìĿĢ</w>":4146,"support</w>":4147,".></w>":4148,"proble":4149,"ìħĪ":4150,"ìĤ¬íĥľ":4151,"ì¸¡</w>":4152,"ëĵľìĭľ</w>":4153,"wal":4154,"íıŃ</w>":4155,"ì§Ģíķĺ":4156,"comple":4157,"da":4158,"ths</w>":4159,"ìĿ¸ìľ¼ë¡ľ</w>":4160,"ë§ĪìĿĮìĿĦ</w>":4161,"ë©´ìĿĦ</w>":4162,"ë°Ķíĥķ":4163,"ìĹ¬ìŀĲ":4164,"ìľ¼ë©´ìĦľ</w>":4165,"ìĦ¤ë¦½":4166,"second</w>":4167,"ëĭ¤ê°Ģ":4168,"ê±´ì¶ķ":4169,"ìłĦìĭľ":4170,"cro":4171,"ìĭłê³ł":4172,"ëĥĪ":4173,"ìĽħ</w>":4174,"ãħłãħł":4175,"ë¯¸ëĶĶ":4176,"å¤":4177,"american</w>":4178,"ë§Īì¼Ģ":4179,"êµ¬ëĬĶ</w>":4180,"ë°ĺëĵľìĭľ</w>":4181,"ìĦ±ìĿĺ</w>":4182,"offici":4183,"country</w>":4184,"íķŃìĥģ</w>":4185,"better</w>":4186,"ìĿĢëį°</w>":4187,"ìĹĪëįĺ</w>":4188,"ìĽĶëĵľ":4189,"air":4190,"ëĭ¨ìĪľ":4191,"íļĮìŀ¥ìĿĢ</w>":4192,"ë¹¨ë¦¬</w>":4193,"ember</w>":4194,"ê´ĢìĿĦ</w>":4195,"ìķł</w>":4196,"ì°¨ê°Ģ</w>":4197,"ëĳ¥":4198,"ëī´ìĭľìĬ¤":4199,"head</w>":4200,"ased</w>":4201,"íĮĮìĿ´":4202,"ì°½</w>":4203,"ys":4204,"ìĮį":4205,"ê²°ê³¼ë¥¼</w>":4206,"ë²Ķì£Ħ":4207,"ëª½":4208,"ì¶ľìĭł":4209,"doc":4210,"ê·¼ë¬´":4211,"ìºĲë¦ŃíĦ°":4212,"ìĬ¤ëŁ¬ìļ´</w>":4213,"ìĿ´ìĥģìĿĺ</w>":4214,"ê¹Ķ":4215,"ë¬¸ìłľëĬĶ</w>":4216,"ama</w>":4217,"ëıħë¦½":4218,"ëĮĢêµ¬</w>":4219,"ìŀĲì£¼</w>":4220,"plan":4221,"body</w>":4222,"ìľłì¹ĺ":4223,"ìĸ´ì©":4224,"ëĮĢì±ħ":4225,"nat":4226,"ëĵ¯ìĿ´</w>":4227,"ëĮĢë¶Ģë¶Ħ</w>":4228,"êµ¬ìĿĺ</w>":4229,"íķľíħĮ</w>":4230,"íķĺëĿ¼</w>":4231,"ë°ĽìķĦëĵ¤":4232,"ìķħ</w>":4233,"dra":4234,"left</w>":4235,"ìŀĲê¸°":4236,"ìĶ¬</w>":4237,"ì§Ģìłķ":4238,"íĶĦë¡ľê·¸ëŀ¨</w>":4239,"ìĬ¤íĭ°":4240,"íĪ¬íĳľ":4241,"cra":4242,"ê°ĢìĬ":4243,"auth":4244,"clai":4245,"ì¡°ê¸Ī":4246,"ped</w>":4247,"ë§Įì¡±":4248,"ë¹Ļ":4249,"ëĮĢíĺķ</w>":4250,"ë¹Ħì¤ĳ":4251,"iting</w>":4252,"actu":4253,"ìĬ¤ìĹĲ</w>":4254,"ìķĦì§ģ":4255,"ì§Ģë©´ìĦľ</w>":4256,"ìŀĪì§Ģ</w>":4257,"exam":4258,"ì§ĢìłģíĸĪëĭ¤</w>":4259,"ately</w>":4260,"ë°ĺëĮĢ":4261,"ìĹ¼</w>":4262,"ì°¨ë¡Ģ</w>":4263,"women</w>":4264,"ìĭ«":4265,"íį¼</w>":4266,"ìľłìĿ¼":4267,"íĸīìĿĦ</w>":4268,"public":4269,"ë¥łìĿ´</w>":4270,"íļĮìŀ¥</w>":4271,"¨ëĭ¤</w>":4272,"ìĶ¨ìĿĺ</w>":4273,"ëī´ìĭľìĬ¤íĨµìĭłìĤ¬</w>":4274,"ë²ĦìĬ¤</w>":4275,"ins</w>":4276,"ê¸Īìķ¡":4277,"íķĺëĤĺìĿĺ</w>":4278,"ê²ĥê³¼</w>":4279,"ëªĩ":4280,"ìĭ¶ëĭ¤</w>":4281,"ê°ķíķľ</w>":4282,"hu":4283,"ìĭ¤íĮ¨":4284,"read</w>":4285,"êµŃìĿĢ</w>":4286,"sing</w>":4287,"ìĭĿíĴĪ":4288,"íĻķìłķ":4289,"ìŀħìĿĦ</w>":4290,"ì¤Ħìĸ´":4291,"ìĽĢ</w>":4292,"æľ":4293,"âĹĩ</w>":4294,"ë¹Ħë¡¯íķ´</w>":4295,"free</w>":4296,"hal":4297,"vel</w>":4298,"ìŀĺëª»":4299,"find</w>":4300,"oper":4301,"ìĥģìĿĢ</w>":4302,"ë¶ĢìĻĢ</w>":4303,"íĻľëıĻ</w>":4304,"ëĮĢì¤ĳ":4305,"chang":4306,"ìłĲìľ¼ë¡ľ</w>":4307,"maj":4308,"ìķĪìĿ´</w>":4309,"ì§Īë¬¸":4310,"company</w>":4311,"ìķŀìĹĲ</w>":4312,"ëĮĢíĨµëł¹ìĿ´</w>":4313,"ably</w>":4314,"íķĦìļĶíķĺëĭ¤</w>":4315,"law</w>":4316,"íķ©ìĿĺ":4317,"ìĪłìĿĦ</w>":4318,"ished</w>":4319,"íĺĢ":4320,"ìŀĪìĹĪëįĺ</w>":4321,"turn</w>":4322,"see":4323,"ëĭ¬ëĿ¼":4324,"ìĤ¬ëŀĮëĵ¤ìĿĢ</w>":4325,"ëį°ëıĦ</w>":4326,"ìĬ¨":4327,"ì§ĪìĿĦ</w>":4328,"ë§Ĳíķľëĭ¤</w>":4329,"busin":4330,"ìĨĲìĿĦ</w>":4331,"ì£¼ìĭĿ":4332,"ben":4333,"ëĤ´ìĹĲ</w>":4334,"whe":4335,"proc":4336,"ìłĦíķ´":4337,"coll":4338,"ìĺĪë°©":4339,"ëħĦê¹Įì§Ģ</w>":4340,"ì¾Į":4341,"íķ´ìĦĿ":4342,"ëłĪìĿ´</w>":4343,"ëħĦìĿĦ</w>":4344,"resear":4345,"han":4346,"ì£¼ìŀ¥íĸĪëĭ¤</w>":4347,"ì§Ŀ</w>":4348,"ëĴ·":4349,"ìĸ´ë²Ħ":4350,".'</w>":4351,"ìĿ´ëĿ¼ëıĦ</w>":4352,"equ":4353,"recor":4354,"íļ¨ê³¼ë¥¼</w>":4355,"based</w>":4356,"íĻľ</w>":4357,"ential</w>":4358,"ì§ĢíĤ¤":4359,"íĦ¸</w>":4360,"ëĤĺë¨¸":4361,"ì§ĢìļĶ</w>":4362,"ëª¨ìĸĳ":4363,"organ":4364,"ë§ĮëĵľëĬĶ</w>":4365,"íķ¨ìľ¼ë¡ľìį¨</w>":4366,"ìĨĮìŀ¬":4367,"íĻĶìŀ¥":4368,"ìłĦë§ĿìĿ´ëĭ¤</w>":4369,"ê°Ģê²©</w>":4370,"ìŀĲìĭłìĿĦ</w>":4371,"ëıĦìĻĢ</w>":4372,"den":4373,"ger":4374,"desig":4375,"follow":4376,"ìĺ¬ë¦¬":4377,"ìĽĲíķĺëĬĶ</w>":4378,"ëĭ¨ìĿĺ</w>":4379,"ìĨĮìĨį</w>":4380,"íĤ¹":4381,"ìĿ¸ìĭĿ":4382,"ìľ¨ìĿĢ</w>":4383,"ë°©ìķĪìĿĦ</w>":4384,"êµ³":4385,"ìĪĺìĪĺ":4386,"ëĮĢíĻĶ":4387,"ness</w>":4388,"ë¡¤":4389,"ì¯¤</w>":4390,"ats</w>":4391,"íĽ¨":4392,"gl":4393,"ìłĢëĬĶ</w>":4394,"íĶ½</w>":4395,"ëĭ¤ìļ´</w>":4396,"íķĦìļĶê°Ģ</w>":4397,"ëł´":4398,"ê²ĥì²ĺëŁ¼</w>":4399,"ìłĲìĹĲ</w>":4400,"ina</w>":4401,"íĪ¬ìŀħ":4402,"ìķŀëĳĲê³ł</w>":4403,"ìĭľì¦Į":4404,"pur":4405,"war</w>":4406,"action</w>":4407,"dge</w>":4408,"lik":4409,"íķĺëł¤ëĬĶ</w>":4410,"ì¼ĵ":4411,"ë¶ģíķľ</w>":4412,"ëĪĪìĹĲ</w>":4413,"âĹĨ</w>":4414,"ìĻĢìĦľ</w>":4415,"ìłģìĿ´ê³ł</w>":4416,"demo":4417,"íıīíĻĶ":4418,"íĨµê³¼":4419,"ini":4420,"íıīê°Ģ</w>":4421,"bs":4422,"ëĦĪë¬´":4423,"íķ´ìĸĳ":4424,"tics</w>":4425,"ìłķìĿĢ</w>":4426,"information</w>":4427,"ëıĦë¡ľ":4428,"ìĵ¸":4429,"ìłģê·¹</w>":4430,"ìĿ´ëĿ¼ë©´</w>":4431,"eas":4432,"ìĹĨìĿĦ</w>":4433,"êµ°ìĿĺ</w>":4434,"didn</w>":4435,"ìŀĲìĽĲ":4436,"date</w>":4437,"ëĤ¨ìĿĢ</w>":4438,"ë©ĭ":4439,"ì¦ĿìĿĦ</w>":4440,"íķľë²Ī</w>":4441,"air</w>":4442,"ëĮĢì²´":4443,"ìľłíĨµ":4444,"ìĨĲ</w>":4445,"ëĲł":4446,"import":4447,"nec":4448,"êµŃíĨł":4449,"ê²ĥìĿ´ëĿ¼ëĬĶ</w>":4450,"ê³³ìĹĲìĦľ</w>":4451,"ë°ĶëĢĮ":4452,"ìļĶì¦":4453,"ìĪĺìĥģ":4454,"again</w>":4455,"'re</w>":4456,"party</w>":4457,"ìĥģíĻ©ìĿĦ</w>":4458,"ëħĦëĮĢ</w>":4459,"ê°ľíĺģ":4460,"ëĭ¨ìĿ´</w>":4461,"ëĤĺìĦľ":4462,"ìĨĮìĨį":4463,"ë³¸ëĭ¤</w>":4464,"ë§ŀìķĦ</w>":4465,"univers":4466,"ability</w>":4467,"íİľ":4468,"ê²¬</w>":4469,"ë¬´ìĹŃ":4470,"ìĭłìļ©":4471,"ìĿĺë¬´":4472,"ì§ĳìĹĲ</w>":4473,"united</w>":4474,"ì°¬</w>":4475,"sever":4476,"ë¶Īêµ¬íķĺê³ł</w>":4477,"ìĬ¤ì½Ķ":4478,"don":4479,"ìĹĲëĦĪì§Ģ</w>":4480,"ously</w>":4481,"íĪ¬</w>":4482,"íħį":4483,"az":4484,"men</w>":4485,"ìĭľìŀ¥ìĿĢ</w>":4486,"ë¸ĮëĿ¼":4487,"ìĿ´ìĤ¬":4488,"four</w>":4489,"íĽ¨ìĶ¬</w>":4490,"íķĺëĬĺ":4491,"åħ":4492,"ative</w>":4493,"ëª©ìĿĦ</w>":4494,"ê´ĢìĿĢ</w>":4495,"ìŀĲë³¸":4496,"ëıĦìĽĢìĿ´</w>":4497,"íķ´ìļĶ</w>":4498,"white</w>":4499,"ëĭ¨ì²´</w>":4500,"ê²Ģ</w>":4501,"ìĨĮìľł":4502,"ology</w>":4503,"nee":4504,"vide":4505,"ìļ¸ìĤ°":4506,"ê¸°ìĪłìĿĦ</w>":4507,"ìŀĦëĮĢ":4508,"ë¶Ģë¬¸":4509,"ë°ĶìĿ´ëŁ¬":4510,"ìĭľìĬ¤</w>":4511,"ìĺ¬ëŀĲëĭ¤</w>":4512,"ë´Ĳ</w>":4513,"ì£¼íĥĿ</w>":4514,"percent</w>":4515,"ë©´ìĹĲ</w>":4516,"ë¹ħ":4517,"ìĹ°íķ©":4518,"ë©¤ë²Ħ":4519,"stitu":4520,"tain</w>":4521,"ì§ĢìĹŃìĿĺ</w>":4522,"ëıĪ</w>":4523,"mc":4524,"ìĻĢëĬĶ</w>":4525,"ê¸°ì¡´":4526,"ìľ¨ìĿĦ</w>":4527,"ìĹĳ":4528,"ê²½ìĿĦ</w>":4529,"ê³µìľł":4530,"ìłĦìĹĲìĦľ</w>":4531,"art</w>":4532,"rela":4533,"boo":4534,"est":4535,"íĽĪ</w>":4536,"ìķĦìĭľìķĦ":4537,"íĻįë³´":4538,"ìĪĺë¡ľ</w>":4539,"êµĲìĪĺëĬĶ</w>":4540,"íħľ":4541,"ìĿĺê²¬ìĿĦ</w>":4542,"ìĿ´ê¸°ëıĦ</w>":4543,"esti":4544,"ëĳĺëŁ¬":4545,"íĬ¸ë¡ľ</w>":4546,"ëĤ®ìĿĢ</w>":4547,"ì´Īëĵ±":4548,"ìĭ¬ê°ģ":4549,"ìĦłë³´":4550,"ì²´ê²°":4551,"ê·¸ê²ĥìĿĢ</w>":4552,"ìĤ´íİ´":4553,"ê¸°ê³ł</w>":4554,"ls</w>":4555,"ê´ĢìĿ´</w>":4556,"ick":4557,"ë§¨</w>":4558,"ì°¸</w>":4559,"today</w>":4560,"ëĥ¥":4561,"ìĻĦìłĦíŀĪ</w>":4562,"ë¸Ķëŀ":4563,"ìķ½ìĨį":4564,"name</w>":4565,"ìĤ¬ëŀĮìĿĺ</w>":4566,"later</w>":4567,"plic":4568,"ëĭĿ</w>":4569,"íķĺìĭľ":4570,"ìĦłë°ľ":4571,"dents</w>":4572,"far</w>":4573,"íķĺìļ°":4574,"ì²ĺìĿĮìľ¼ë¡ľ</w>":4575,"ìª½ìľ¼ë¡ľ</w>":4576,"thers</w>":4577,"íĺľíĥĿ":4578,"ë³´ê¸°</w>":4579,"ê°ľëħĲ":4580,"ìıŁ":4581,"ëıĻìĿ¼":4582,"ìĸĺê¸°":4583,"ë¸Ķ</w>":4584,"ëĶľ":4585,"ìĨĮê°Ģ</w>":4586,"il</w>":4587,"ìħĺìĿĦ</w>":4588,"ì°¨ë³Ħ":4589,"íģĲ":4590,"money</w>":4591,"fiel":4592,"run":4593,"ital</w>":4594,"ì§ĳìĿĦ</w>":4595,"ëł¤ëĬĶ</w>":4596,"ìĺģêµŃ</w>":4597,"ìĺ¤ë¥¸</w>":4598,"íĬ¸ë¦¬":4599,"ê·¸ëŁ¼</w>":4600,"ëĵĢ":4601,"ê±´ìĿĦ</w>":4602,"ys</w>":4603,")<</w>":4604,"ìĿ´ë¦ĦìĿĦ</w>":4605,"light</w>":4606,"íĸĪìĬµëĭĪëĭ¤</w>":4607,"íĶ¼íķ´</w>":4608,"ì«":4609,"....":4610,"popul":4611,"ìłľìķĪ":4612,"ëªħìĹĲ</w>":4613,"ì°¨ëŁī":4614,"ìĭłë¢°":4615,"hard</w>":4616,"ìŀĲëıĻì°¨":4617,"ê°Ģì¡±</w>":4618,"ë¶ĢëıĻìĤ°</w>":4619,"ê¸ĪìĿ´</w>":4620,"ëª»íķĺëĬĶ</w>":4621,"ë§Īì§Ģë§ī":4622,"ê°ĳìŀĲê¸°</w>":4623,"ë¦¿":4624,"ìĹ¬ê¸°ìĹĲ</w>":4625,"ëĤ´ëĨĵ":4626,"ë°ĳ":4627,"ê¾¸ì¤Ģ":4628,"ìµľê³łìĿĺ</w>":4629,"away</w>":4630,"ê´ĳì£¼</w>":4631,"//</w>":4632,"íģ¬ë¡ľ":4633,"ëŀĢëĭ¤</w>":4634,"ë°Ķê¿":4635,"ìłĳê·¼":4636,"ë°Ľì§Ģ</w>":4637,"ìĤ¬ìļ©</w>":4638,"ì¤ĺ":4639,"ê²½ìļ°ìĹĲëĬĶ</w>":4640,"mr</w>":4641,"ìĤ¬ìĿ´ìĹĲ</w>":4642,"ì§ĢìĽĲìĿĦ</w>":4643,"íķĺê²łëĭ¤ëĬĶ</w>":4644,"íķĺê¸°":4645,"ëŃĶ":4646,"ëĿ¼ìĿ¸":4647,"êµŃìłķ":4648,"ë¶Īê³¼":4649,"ìĿ¸íĦ°ëĦ·</w>":4650,"making</w>":4651,"ê°Ģìłķ":4652,"ìŀ¬ìĤ°":4653,"tice</w>":4654,"ì¶ĺ</w>":4655,"ë§º":4656,"ow":4657,"school</w>":4658,",#</w>":4659,"ìĹĪê³ł</w>":4660,"ê´Ģëł¨íķ´</w>":4661,"ìķĬëĬĶ":4662,"ìĥģìľ¼ë¡ľ</w>":4663,"ìłľìĿĺ</w>":4664,"always</w>":4665,"ê¹Įì§ĢëĬĶ</w>":4666,"ê´Ģê³Ħë¥¼</w>":4667,"face</w>":4668,"recei":4669,"polic":4670,"vol":4671,"grap":4672,"ë²¨</w>":4673,"ìĤ¬ëŀĮìĿĦ</w>":4674,"íŀĺëĵ¤":4675,"ìĭłìĿĦ</w>":4676,"íĥĢê³ł</w>":4677,"ë°ľìĸ¸":4678,"vic":4679,"ì£¼ëıĦ":4680,"night</w>":4681,"ì§§":4682,"ê¸°ì¤Ģìľ¼ë¡ľ</w>":4683,"íĮĲë§¤</w>":4684,"days</w>":4685,"ìĹĦì²Ń":4686,"ë§¤ëħĦ</w>":4687,"ë¸Įë¦¬":4688,"sing":4689,"ìĻĦìĦ±":4690,"experi":4691,"media</w>":4692,"íĨłë¡ł":4693,"ëĵľë¦¬":4694,"ìłĦë°ĺ":4695,"wil":4696,"ë¨¹ê³ł</w>":4697,"ìĿĮìĭĿ":4698,"ìłľëıĦ</w>":4699,"ë§ĲìĶ":4700,"ìĥģëĭ¹íŀĪ</w>":4701,"ë°Ķíĥķìľ¼ë¡ľ</w>":4702,"ìŀħìŀ¥ìĿĦ</w>":4703,"ë¬¼ìĿĺ</w>":4704,"ë§ĪìĿĦ</w>":4705,"ult</w>":4706,"ëĦ¤íĬ¸":4707,"ì¡°ì°¨</w>":4708,"íĶĮëŀ«":4709,"ê³¼ìłķìĿĦ</w>":4710,"ball</w>":4711,"ìĹħê³Ħ</w>":4712,"ê¸°ìĹ¬":4713,"ê°Ģë¥´":4714,"fore":4715,"ê°Ģêµ¬</w>":4716,"family</w>":4717,"key</w>":4718,"ê·ľëª¨ìĿĺ</w>":4719,"already</w>":4720,"ëĤĺìķĦ":4721,"ìĽĲê³¼</w>":4722,"ìĿ´ìľłëĬĶ</w>":4723,"ping</w>":4724,"once</w>":4725,"new":4726,"ì±Ļ":4727,"ì±Ķ":4728,"ìļ°ë¦¬ìĿĺ</w>":4729,"ì¡°ìĤ¬ë¥¼</w>":4730,"ë°¤</w>":4731,"ê¹ĮìļĶ</w>":4732,"ìŀĲë£Į":4733,"ones</w>":4734,"ì§ĦìĿĦ</w>":4735,"ê³ĦíļįìĿĦ</w>":4736,"ëĤĺìĦľ</w>":4737,"ai</w>":4738,"ìŀ¬ìłķ":4739,"ìŀĲì²´</w>":4740,"ìĿĺíĺ¹":4741,"ìŀĲìĿ¸</w>":4742,"ìłł":4743,"ê¶ĮìĿĺ</w>":4744,"ìĥģëĮĢë¡ľ</w>":4745,"ë¯¼ê°Ħ":4746,"ë°ĺëıĦ":4747,"____":4748,"ì£¼ìĿ¸ê³µ":4749,"íĽĦë³´</w>":4750,"ë¥¼":4751,"ë¹ĦìĬ·íķľ</w>":4752,"ê´Ģê³Ħ</w>":4753,"real</w>":4754,"ì´¬ìĺģ":4755,"ses</w>":4756,"ìĭ¶ìĿĢ</w>":4757,"net":4758,"íķµìĭ¬":4759,"ëĭĿ":4760,"ì°½ìĹħ":4761,"ëŀľëĵľ</w>":4762,"ìĺ¤íĶ":4763,"ìĿ´ìĹĪëįĺ</w>":4764,"belie":4765,"sco":4766,"ì§Ģë°°":4767,"ë³´ìŀ¥":4768,"ìĸ´ê°Ģ</w>":4769,"ìłĢëħ":4770,"íĺľ</w>":4771,"ìłģìĿ´ëĭ¤</w>":4772,"techn":4773,"ced</w>":4774,"ders</w>":4775,"cho":4776,"ë§ŀëĬĶ</w>":4777,"íĶĮëŀ«íı":4778,"ê´Ģìĭ¬ìĿ´</w>":4779,"ìĹĲìļĶ</w>":4780,"ëķĮë§Īëĭ¤</w>":4781,"íĺķìĿĦ</w>":4782,"ë¹Ħë¡¯íķľ</w>":4783,"ëĤĺê°Ī</w>":4784,"ì¢Ģ":4785,"ìłĲê²Ģ":4786,"ìłķê·ľ":4787,"cou":4788,"aying</w>":4789,"secur":4790,"ìĺĪë¥¼</w>":4791,"ë°©ë²ķ</w>":4792,"ìķĦìļ¸":4793,"ì¶Ķì²ľ":4794,"ëĮĢìłĦ</w>":4795,"ê³¼ê±°</w>":4796,"ath</w>":4797,"love</w>":4798,"íķ´ë¥¼</w>":4799,"ë°©ì¹¨ìĿ´ëĭ¤</w>":4800,"ìłĦíĻĶ":4801,"ìĭľìŀ¥ìĹĲìĦľ</w>":4802,"ê»´":4803,"rel":4804,"ì§ķ</w>":4805,"ì¤ĳëĭ¨":4806,"manag":4807,"til</w>":4808,"íķľêµŃìĿĺ</w>":4809,"ëĮĢíĨµëł¹ìĿĺ</w>":4810,"ago</w>":4811,"ê´ľì°®":4812,"ìĬ¤íİĺ":4813,"ìĭ¬íŀĪ</w>":4814,"ìĦłìĸ¸":4815,"men":4816,"ëį°ë·":4817,"ìŀ¡ê³ł</w>":4818,"ë´Ħ":4819,"íŀĲ":4820,"ìĨĮíĨµ":4821,"ìŀĲì²´ê°Ģ</w>":4822,"je":4823,"ìľłíĬľ":4824,"ëĭ¬ìĦ±":4825,"ìĬ¤íĭ":4826,"ator</w>":4827,"ê²½ëĤ¨":4828,"ìĥĿìĿĦ</w>":4829,"ìłĦìĿ´</w>":4830,"íĻķëĮĢ</w>":4831,"ì¼Ģ</w>":4832,"ì¢ħìĿĺ</w>":4833,"ê³łìĨį":4834,"ìĦłìĪĺ</w>":4835,"ë©Ķìĭľ":4836,"order</w>":4837,"ë¦¬ìĻĢ</w>":4838,"ìĦľë¹ĦìĬ¤":4839,"ëŀµ</w>":4840,"ìŀĬ":4841,"ëįľ":4842,"ìķĬìľ¼ë©´</w>":4843,"íĬ¸ìĹĲ</w>":4844,"ìłľíĴĪìĿĦ</w>":4845,"ë¶Ħëªħ":4846,"ìĿ´ìĿĺ</w>":4847,"ëĤĺê³ł</w>":4848,"ìķĦìķ¼</w>":4849,"ê²łëĭ¤ê³ł</w>":4850,"ìĿ´íķĺ":4851,"ë°°ì¹ĺ":4852,"working</w>":4853,"ê±´ìĦ¤</w>":4854,"ìĨĮìĨ¡":4855,"ìĬ¤ëŁ½ê²Į</w>":4856,"ìĦłìĿ´</w>":4857,"ìĨĮìĹĲ</w>":4858,"ì»´íĵ¨":4859,"ê¸°íļĮë¥¼</w>":4860,"paig":4861,"ë´¤ëĭ¤</w>":4862,"ì§ģìĽĲ</w>":4863,"aff":4864,"ìĹ¬ë¡ł":4865,"youn":4866,"ìĭłë¬¸":4867,"íķĻìĬµ":4868,"ë°©ìĸ´":4869,"ë©´ìĹĲìĦľ</w>":4870,"íĶ¼íķ´ë¥¼</w>":4871,"ê·¼ê±°":4872,"ì»¤</w>":4873,"ìľłëŁ½</w>":4874,"ï¼Ľ</w>":4875,"must</w>":4876,"dence</w>":4877,"ìķŀìĹĲìĦľ</w>":4878,"wid":4879,"nam":4880,"regi":4881,"ì¶Ķì§Ħ</w>":4882,"ìłģìłĪ":4883,"games</w>":4884,"post</w>":4885,"ìħĭ":4886,"mul":4887,"sit":4888,"campaig":4889,"íļ¨ìľ¨":4890,"inde":4891,"íĺ¸ë¥¼</w>":4892,"ate":4893,"íļ¨ê³¼ê°Ģ</w>":4894,"ë§ĮìĽĲìĿĦ</w>":4895,"ìĭľëıĦ":4896,"ìĹ°êµ¬</w>":4897,"ori":4898,"ìĥģëĭ´":4899,"ëĤĺëĪĦ":4900,"ìķĦëŀĺ":4901,"known</w>":4902,"ìĿ´íĥĪ":4903,"ìĪĺìļ©":4904,"ì²ŃìĿĢ</w>":4905,"until</w>":4906,"fact</w>":4907,"íķĻê³¼</w>":4908,"ìĦłê±°</w>":4909,"run</w>":4910,"euro":4911,"ìĿ¸ì²ľ</w>":4912,"ë¶Ģë¥´":4913,"fic</w>":4914,"ì²´ê³Ħ":4915,"political</w>":4916,"wer":4917,"zed</w>":4918,"ëį°ëĭ¤</w>":4919,"acy</w>":4920,"cover":4921,"êµŃìĿ´</w>":4922,"ê·¸ëħĢëĬĶ</w>":4923,"ìĿ´ëģĮ":4924,"íĶĮëŁ¬":4925,"ìľµ</w>":4926,"ìĭľìŀ¥ìĿĺ</w>":4927,"ë°Ķê¾¸":4928,"íĻĶìĹĲ</w>":4929,"ëĵľëĿ¼ë§Ī</w>":4930,"ìĥĿëªħ":4931,"ìķĦëĤ´":4932,"reli":4933,"ë¶Ħìķ¼</w>":4934,"net</w>":4935,"ê°ķìĽĲ":4936,"ìµľì´Īë¡ľ</w>":4937,"ë¦¬ê¸°</w>":4938,"ìĽĲì¹Ļ":4939,"full</w>":4940,"ë¶ĪìķĪ":4941,"íĤ¹</w>":4942,"fied</w>":4943,"ìĹ½":4944,"does":4945,"ìļ´ìļ©":4946,"ìłķìĿĺ":4947,"ãħĩ":4948,"health</w>":4949,"ìĻ¸êµĲ":4950,"kt":4951,"che":4952,"!!</w>":4953,"ì§Ħíĸī</w>":4954,"ì¶ľë°ľ":4955,"ìłĦìĿĺ</w>":4956,"ë°©ìĭĿìľ¼ë¡ľ</w>":4957,"ëĮĵ":4958,"tal</w>":4959,"ics</w>":4960,"ëıĮ</w>":4961,"ìķĪíĥĢ":4962,"ê³µë¶Ģ":4963,"ê°Ģë©´</w>":4964,"start</w>":4965,"doesn</w>":4966,"ê³µëª¨":4967,"plac":4968,"yet</w>":4969,"dro":4970,"ë¦¬ë¡ľ</w>":4971,"ëĬĲëĥĲ</w>":4972,"íķ´ìĦľ":4973,"íķľëį°</w>":4974,"ìĹĦ</w>":4975,"ì§Ģêµ¬":4976,"report</w>":4977,"ker</w>":4978,"ìĭľíĤ¬</w>":4979,"âĢĻ(</w>":4980,"íĥĵ":4981,"ìĨĮë°©":4982,"ìĺ¤ë¥´":4983,"requi":4984,"ì¹´ë©Ķ":4985,"ëª¸ìĿĦ</w>":4986,"water</w>":4987,"íĽĦìĹĲ</w>":4988,"cep":4989,"ê¸ĢìĿĦ</w>":4990,"ìĦ¤ìłķ":4991,"ê°Ģì¹ĺ":4992,"êµ°ìĿ´</w>":4993,"ëĭĺìĿ´</w>":4994,"ìļ°ê³ł</w>":4995,"former</w>":4996,"ìĿ¼ìĿĺ</w>":4997,"tro":4998,"ìŀī":4999,"ë°ĿíĺĢ":5000,"university</w>":5001,"ë¶ĢìĹ¬":5002,"ê²łì§Ģë§Į</w>":5003,"ë¶ĦìĿĺ</w>":5004,"íĬ¹ìĪĺ":5005,"ëĭ¬ëĿ¼</w>":5006,"ëĲľëĭ¤ëĬĶ</w>":5007,"ëĨĴëĭ¤</w>":5008,"ìĵ°ëĬĶ</w>":5009,"foo":5010,"ìŀĲëŀĳ":5011,"ê·ľìłķ":5012,"ë¥łìĿĦ</w>":5013,"ì§ĢëĤľíķ´":5014,"ìŀĪëĭ¤ë©´</w>":5015,"mer":5016,"ëĭī":5017,"ë°Ķëĭ¥":5018,"íĴĪìĿĦ</w>":5019,"fur":5020,"possible</w>":5021,"pass":5022,"ì²Ńêµ¬":5023,"open</w>":5024,"sal":5025,"ê²½ê¸°ëıĦ</w>":5026,"ì²´ê°Ģ</w>":5027,"ìłĬìĿĢ</w>":5028,"ì§Ģë©´</w>":5029,"ì¹Ń</w>":5030,"ëĬĶê°Ģ</w>":5031,"least</w>":5032,"ìĹĨëĭ¤ê³ł</w>":5033,".,</w>":5034,"ency</w>":5035,"ê°ķëł¥íķľ</w>":5036,"enough</w>":5037,"íħĶëłĪ":5038,"ë´ī</w>":5039,"ãĨį</w>":5040,"ìĽĮíģ¬":5041,"ë³´ìŀĲ</w>":5042,"ëĤĺë¨¸ì§Ģ</w>":5043,"ures</w>":5044,"ëĤ´ì§Ģ</w>":5045,"ê²ĥìŀħëĭĪëĭ¤</w>":5046,"ìŀĪìľ¼ë©´</w>":5047,"ê³¼ê±°":5048,"ëŀŃ":5049,"ìĹ°ê¸°":5050,"ë°Ķëĭ¤":5051,"ìĭŃ</w>":5052,"bit</w>":5053,"ëł¥ìĿĢ</w>":5054,"ëħĦìĹĲëĬĶ</w>":5055,"ëĵ¤ë¡ľ</w>":5056,"ì§Ģê²Į</w>":5057,"ëĤĺìĻĶ":5058,"ìĭľìłĪ":5059,"ì§ĢìĨįìłģìľ¼ë¡ľ</w>":5060,"ì·¨ìĹħ":5061,"êµ°ìĤ¬":5062,"ìĥģíĻ©ìĿ´</w>":5063,"ë°±íĻĶ":5064,"ëĮĢíķĻêµĲ</w>":5065,"tors</w>":5066,"tex":5067,"sions</w>":5068,"court</w>":5069,"ìĬ¤íĶ¼":5070,"êµ´</w>":5071,"ision</w>":5072,"ìĭľë¦¬ì¦Ī":5073,"ë¯¼ì¡±":5074,"íħĶ</w>":5075,"ì¶ķêµ¬":5076,"hom":5077,"ë¶Īíİ¸":5078,"ìĥģíĻ©</w>":5079,"ìķĦìĭľìķĦ</w>":5080,"ì§ĢìĹĲìĦľ</w>":5081,"ì§Ģê¸Īê¹Įì§Ģ</w>":5082,"ìĥĿê°ģíķľëĭ¤</w>":5083,"came</w>":5084,"ìĭľëĮĢ</w>":5085,"won</w>":5086,"ëŀĮ</w>":5087,"ì¶©ë¶ĦíŀĪ</w>":5088,"íŀĪëĬĶ</w>":5089,"ì§ĳíĸī":5090,"five</w>":5091,"security</w>":5092,"ëħĦëıĦ</w>":5093,"å®":5094,"ëĮĢë³Ģ":5095,"ution</w>":5096,"likely</w>":5097,"ê¸įìłķ":5098,"Įëĭ¤</w>":5099,"ìĿ¸ëĵ¤ìĿ´</w>":5100,"speci":5101,"ìĿ´ê²Į</w>":5102,"ually</w>":5103,"ê²½ë¶ģ":5104,"ëĶ©</w>":5105,"lear":5106,"....</w>":5107,"orig":5108,"give</w>":5109,"ì°¨ìĿ´":5110,"êµŃë¦½":5111,"ìķĪìĿĢ</w>":5112,"ìĥĪëĪĦë¦¬":5113,"ìłĦë¬¸</w>":5114,"keep</w>":5115,"ê¸°ìĹħìĿ´</w>":5116,"ì²łìłĢ":5117,"yor":5118,"ì§ĢìĭĿ":5119,"ìļ°ìĦł":5120,"having</w>":5121,"ìĺµ":5122,"ìĦ±ìŀ¥</w>":5123,"ìĨĮìĦ¤":5124,"ëĦ¥":5125,"ìŀ¬ë¥¼</w>":5126,"ê³µê²©</w>":5127,"wan":5128,"ê³łìĸĳ":5129,"ular</w>":5130,"table</w>":5131,"ê´ĳê³ł":5132,"ë¹Ī</w>":5133,"ìĽĶìĹĲ</w>":5134,"ìĿ¸ëıĦ</w>":5135,"ê°ĢìĬ´":5136,"ney</w>":5137,"ìĻ¸ìĹĲëıĦ</w>":5138,"ì°¨ëŁī</w>":5139,"ìķĶ</w>":5140,"ëł¬":5141,"ë§Īì¹ĺ</w>":5142,"ëĪĦê°Ģ</w>":5143,"ëĨĪ":5144,"ìĸ´ë¦°ìĿ´":5145,"hy":5146,"ê³µëıĻ</w>":5147,"ëłĢëĭ¤</w>":5148,"ìĦłë¬¼":5149,"defen":5150,"ê²ĮìĿ´":5151,"ì½©":5152,"ê°ķíĻĶ</w>":5153,"êµŃë¯¼</w>":5154,"ë´īìĤ¬":5155,"ìĿ¼ë¡ľ</w>":5156,"ìĿ¸ìĪĺ":5157,"ëħĦìĿ´</w>":5158,"ìľłë¦¬":5159,"social</w>":5160,"important</w>":5161,"ê¸°ë³¸</w>":5162,"ìĿ¸ëıĦ":5163,"ìĥĿê°ģìĿ´</w>":5164,"els</w>":5165,"ëĭ«":5166,"person":5167,"tici":5168,"ëıĦì°©":5169,"ften</w>":5170,"ëª¨ë°ĶìĿ¼</w>":5171,"ìķĦìļ¸ëŁ¬</w>":5172,"ìĦ¤ê³Ħ":5173,"ê·¸ëŁ¬ë©´ìĦľ</w>":5174,"íĬ¼":5175,"ìĿ´ëĭ¬</w>":5176,"business</w>":5177,"hun":5178,"position</w>":5179,"ìģľ</w>":5180,"ìĹ°ê³Ħ":5181,"ìµľê·¼":5182,"dren</w>":5183,"ëĮĢë²ķ":5184,"ê³ĦìĹ´":5185,"press</w>":5186,"actually</w>":5187,"ì§Ģê¸ĪìĿĢ</w>":5188,"ë§Įìķ½</w>":5189,"íĺĲìĿĺë¡ľ</w>":5190,"ë¹ĦëĬĶ</w>":5191,"ê´Ģëł¨ëĲľ</w>":5192,"ëŁ´</w>":5193,"whether</w>":5194,"ences</w>":5195,"early</w>":5196,"pris":5197,"mag":5198,"ëł¥ê³¼</w>":5199,"ëıĻìĿĦ</w>":5200,"ìľ¤</w>":5201,"ìķĺëįĺ</w>":5202,"íĶĦë¦¬ë¯¸":5203,"russi":5204,"ìĿ´ìľłë¡ľ</w>":5205,"children</w>":5206,"ì²Ļ</w>":5207,"ìĪľê°Ħ</w>":5208,"goo":5209,"êµŃë°©":5210,"ëıĦìłĦ":5211,"ê°ĲëıħìĿĢ</w>":5212,"íĥĪ</w>":5213,"ìĥĿìĤ°</w>":5214,"ë³´ìĹ¬ì£¼":5215,"ì¡°ì¹ĺ":5216,"ë§Ĳê³ł</w>":5217,"ëıĦìĦľ":5218,"ìĸ´ëĬĶ</w>":5219,"íĨ¤":5220,"ìĨĮíĶĦ":5221,"fron":5222,"ê±·":5223,"ëĦĺëĬĶ</w>":5224,"ìĹ´ê³ł</w>":5225,"ìĿĺìĤ¬":5226,"several</w>":5227,"sun":5228,"often</w>":5229,"ì¹¸":5230,"ìĥĿê°ģìĿĦ</w>":5231,"black</w>":5232,"íķµìĭ¬</w>":5233,"dam":5234,"human</w>":5235,"ê·¸ëĵ¤ìĿĢ</w>":5236,"inst":5237,"ê¸ĪìĿĢ</w>":5238,"ë§ĲìĶĢ":5239,"ê±°ìļ´</w>":5240,"ìłĦëħĦ</w>":5241,"ëĤ¨íİ¸":5242,"ìĨĮíĻĶ":5243,"ening</w>":5244,"ë¬¸ìĿ´</w>":5245,"ì±Ħìļ©":5246,"ì¤ĳìĹĲìĦľ</w>":5247,"lab":5248,"ë³´ìĿ´ê³ł</w>":5249,"level</w>":5250,"took</w>":5251,"ened</w>":5252,"priv":5253,"íĸ¥íķ´</w>":5254,"ë§ĲìĹĲ</w>":5255,"ì§Ģìĸ´</w>":5256,"ë°©ìĿĦ</w>":5257,"ìĬ¤íĥĢ</w>":5258,"ì»µ</w>":5259,"ëķĮê¹Įì§Ģ</w>":5260,"ëĬ¥ëł¥ìĿĦ</w>":5261,"small</w>":5262,"ëĪĪìĿĦ</w>":5263,"ìĭľìŀ¥ìĹĲ</w>":5264,"ìĽĲëĤ´":5265,"ê±°ë¶Ģ":5266,"ê³¨</w>":5267,"ìĺĪìĥģëĲľëĭ¤</w>":5268,"ë°ľìĿĦ</w>":5269,"ìŀĪìĿĦ":5270,"ìļ´ëıĻ</w>":5271,"íı¬ê¸°":5272,"main</w>":5273,"ict</w>":5274,"ìĦ¸ì¢ħ":5275,"ìĽĲëŀĺ</w>":5276,"'m</w>":5277,"ëªħëł¹":5278,"past</w>":5279,"ë²łíĬ¸":5280,"ìĸ´ì§Ħ</w>":5281,"ìĬ¤íı¬ì¸ł":5282,"ìķĪìĿĺ</w>":5283,"ëį©":5284,"ê°ľìĿ¸</w>":5285,"saf":5286,"ë¡±":5287,"ëįĶë¶Īìĸ´</w>":5288,"video</w>":5289,"charac":5290,"feat":5291,"ìĿ¼ìŀĲë¦¬</w>":5292,"ëıħìĿ¼</w>":5293,"ê²ĥìĿ´":5294,"sn":5295,"ëĶĶìĬ¤":5296,"ëį°ìĿ´íĦ°</w>":5297,"become</w>":5298,"íķĺëĭĪ</w>":5299,"ìĭ¼</w>":5300,"ìĹ¬ë¦Ħ":5301,"gs</w>":5302,"feder":5303,"succ":5304,"ìĸ´ë¡ľ</w>":5305,"ëĳĺ</w>":5306,"ìĿ¸íĦ°ëĦ·":5307,"íķĳ</w>":5308,"ì¦Ŀê¶Į</w>":5309,"ì¡°ìĿĺ</w>":5310,"ì°¨ëĬĶ</w>":5311,"ê²°íķ©":5312,"ë¬´ìĭľ":5313,"ì§ĦìĿ´</w>":5314,"ê³µìĿĦ</w>":5315,"íĭĢ</w>":5316,"íĶĦëŀĳìĬ¤</w>":5317,"ê²ĢìĤ¬</w>":5318,"ì¡°ê±´</w>":5319,"person</w>":5320,"htt":5321,"ëŁ´":5322,"ê·ĢìĹ¬":5323,"ëĵ¬":5324,"ger</w>":5325,"ë¹łë¥¸</w>":5326,"aw":5327,"bil":5328,"ìĦ¸ìĽĶ":5329,"ìłĦëĤ¨":5330,"ìłķë¦¬":5331,"ê¸°ëĬ¥ìĿĦ</w>":5332,"bra":5333,"ìĬ¤íħĮ":5334,"ìľłìĿĺ</w>":5335,"ê°ĢìĹĲ</w>":5336,"yes</w>":5337,"íķĺê³łìŀĲ</w>":5338,"ê²½ì°°</w>":5339,"cal":5340,"contr":5341,"ply</w>":5342,"ëĮĢìĹĲìĦľ</w>":5343,"ë§ĮëĤĺ</w>":5344,"êµ¬ìĨį":5345,"ìĥģíĴĪ</w>":5346,"ë¯¸ìĪł":5347,"ìĹ¬ê¸°ìĦľ</w>":5348,"ëĭ¹ìĿĦ</w>":5349,"ë³´íĨµ</w>":5350,"vs</w>":5351,"emplo":5352,"ê¸Īìľµ</w>":5353,"ìĹ°ì¶ľ":5354,"ëĵ£ê³ł</w>":5355,"ë¹łë¥´ê²Į</w>":5356,"ì¶Ķìłķ":5357,"doing</w>":5358,"ìĤ¬ì§Ħ</w>":5359,"íıīê°Ģë¥¼</w>":5360,"ëĮĢëĭµ":5361,"ãħľ":5362,"ë¯¸ë¦¬</w>":5363,"players</w>":5364,"move</w>":5365,"ê³µê°ľ</w>":5366,"my":5367,"ìĥĿíĻľ</w>":5368,"ared</w>":5369,"ëĥĲëĬĶ</w>":5370,"paren":5371,"íķĺëĭ¤ê°Ģ</w>":5372,"êµĲìľ¡ìĿĦ</w>":5373,"ë©´ìĿ´</w>":5374,"ìľ¼ë¯Ģë¡ľ</w>":5375,"live</w>":5376,"íģ°":5377,"ìĹ´ìĭ¬íŀĪ</w>":5378,"expl":5379,"ìĤ¬ìļ©íķł</w>":5380,"ìĻ¸êµŃìĿ¸</w>":5381,"ë°ĶëŀĢëĭ¤</w>":5382,"tar":5383,"ìļ´ìłĦ":5384,"ê°ľìĦł</w>":5385,"ê³łíĨµ":5386,"ì°¨ë¡Ģ":5387,"ìĺ¤ë¥¼</w>":5388,"ë§¤ìĿ¼</w>":5389,"ì¡¸ìĹħ":5390,"ck</w>":5391,"ìĨĮëĬĶ</w>":5392,"ê²ĢìĤ¬":5393,"ê²½ì°°ìĿĢ</w>":5394,"ety</w>":5395,"coming</w>":5396,"ìĦ±ê²©":5397,"continu":5398,"centr":5399,"viol":5400,"ìĥĿíĥľ":5401,"ì°¸ê³ł":5402,"prin":5403,"acks</w>":5404,"ìĿ´ë¥´":5405,"ìĿĺìĭĿ":5406,"ìĿ´ì²ĺëŁ¼</w>":5407,"york</w>":5408,"ê¸¸ìĿ´</w>":5409,"íĺ¸íħĶ":5410,"assi":5411,"commit":5412,"ìĺģìĹŃ":5413,"ãħİãħİ</w>":5414,"ë±ħ":5415,"ëĬĶê²Į</w>":5416,"ë°´":5417,"tak":5418,"ëĳĶ":5419,"ê±±ìłķ":5420,"stand</w>":5421,"ê°ľìļĶ</w>":5422,"ìħĪìĿ´ëĭ¤</w>":5423,"íļ¨ê³¼</w>":5424,"ëģĿìĹĲ</w>":5425,"ley</w>":5426,"seen</w>":5427,"ìĭľì¼ľ":5428,"ental</w>":5429,"ìķĦë§Ī":5430,"ìķłëĭĪ":5431,"ëĤŃ":5432,"ë¶Īê°Ģ":5433,"indu":5434,"ë¨¸ëĭĪ</w>":5435,"íĹĪìļ©":5436,"ë³´ìķĺëĭ¤</w>":5437,"community</w>":5438,"ëıĦìĽĢìĿĦ</w>":5439,"ê²½ê¸°ë¥¼</w>":5440,"íķĺìŀĲ":5441,"ëŃĲ</w>":5442,"posed</w>":5443,"ê¸°íĥĢ</w>":5444,"future</w>":5445,"ë¥łìĿĢ</w>":5446,"ìľĦìĹĲìĦľ</w>":5447,"leag":5448,"ìĭľìłĪ</w>":5449,"ê·¹ë³µ":5450,"ìĵ°ê³ł</w>":5451,"ìķĦëĭĪë©´</w>":5452,"ëĵ±ê³¼</w>":5453,"ìľłëĭ":5454,"bal":5455,"ìĩ¼íķĳ":5456,"ê°ĢìļĶ</w>":5457,"ëĵłëĭ¤</w>":5458,"ëĤĺìĦ°ëĭ¤</w>":5459,"ê³³ìĿ´</w>":5460,"ë¶ĢíĦ°ëĬĶ</w>":5461,"given</w>":5462,"kill":5463,"ross</w>":5464,"ì¦Ŀê°Ģ</w>":5465,"member</w>":5466,"ë°ĽëĬĶëĭ¤</w>":5467,"ì¹ĺì§Ģ</w>":5468,"íı¬íķ¨íķľ</w>":5469,"íĬ¹ìłķ</w>":5470,"ëıķ":5471,"ìĿĺíļĮ</w>":5472,"íĺĦìŀ¥</w>":5473,"ìĺĪë¹Ħ":5474,"ìłĲìĿ´ëĭ¤</w>":5475,"ëª¨ìĬµìĿ´</w>":5476,"investi":5477,"ged</w>":5478,"íĶĦë¡ľê·¸ëŀ¨ìĿĦ</w>":5479,"ìĭľë¦¬ì¦Ī</w>":5480,"ìĤ¬ìļ©íķĺëĬĶ</w>":5481,"ê²Įëĭ¤ê°Ģ</w>":5482,"hn</w>":5483,"ìĪĺìĽĲ":5484,"ëĶĶìĺ¤</w>":5485,"ìĿ¸íĦ°ë·°":5486,"ì£Ħ</w>":5487,"ìĿ´ìļ©íķ´</w>":5488,"ëĭ¤ìĨĮ</w>":5489,"ê¸°ìļ¸":5490,"within</w>":5491,"ìµľìłĢ":5492,"ëī´ìĭľìĬ¤</w>":5493,"ends</w>":5494,"íİ¼ì³Ĳ":5495,"control</w>":5496,"ì°¾ìķĦ</w>":5497,"íķĺëł¤ê³ł</w>":5498,"among</w>":5499,"ëĵľìĹĲ</w>":5500,"cent":5501,"ë¨¼</w>":5502,"ìĭľìŀ¥ìĿĦ</w>":5503,"ëĭĺìĿĺ</w>":5504,"ì±ĶíĶ¼":5505,"íģ´ëŀĺ":5506,"ìłķì¹ĺìłģ</w>":5507,"ority</w>":5508,"ê²ĥìĿ´ìĹĪëĭ¤</w>":5509,"ì§ĦìĿĢ</w>":5510,"íĶĦëĿ¼":5511,"ë¦¬ëįĶ":5512,"course</w>":5513,"field</w>":5514,"ëĤ´ìĹĲìĦľ</w>":5515,"ìĭľíĤ¤ê³ł</w>":5516,"ë©°":5517,"ë¯¸ìĤ¬":5518,"dow":5519,"ì¢ħêµĲ":5520,"ìĥĪë¡ľ</w>":5521,"ëĤĺë§Ī</w>":5522,"ë³µíķ©":5523,"íĻĶíķĻ":5524,"ë°°ìļ°</w>":5525,"cial</w>":5526,"ìłķì±ħìĿĦ</w>":5527,"ê¸Īì§Ģ":5528,"ì²´ìĿĺ</w>":5529,"ìķĦìĿĺ</w>":5530,"ìĺ¨ëĿ¼ìĿ¸</w>":5531,"republic":5532,"êµŃíļĮ":5533,"campaign</w>":5534,"la</w>":5535,"glo":5536,"fel":5537,"ëį¤":5538,"esday</w>":5539,"history</w>":5540,"ë¡ľë´":5541,"ë¶Ģë¡ľ</w>":5542,"ìĬ¤ì¹´":5543,"done</w>":5544,"íĶĮ</w>":5545,"ì°½ì¶ľ":5546,"ìĶ¨ë¥¼</w>":5547,"ìŀ¥ê´ĢìĿĢ</w>":5548,"went</w>":5549,"ìĵ´</w>":5550,"ê±°ëŀĺ</w>":5551,"ìĸµìĽĲìľ¼ë¡ľ</w>":5552,"pot":5553,"ë¡ľê°Ģ</w>":5554,"ìĬĪíį¼":5555,"ëĨįìĹħ":5556,"service</w>":5557,"asked</w>":5558,"ì§Ŀ":5559,"ëł¥ìĿĺ</w>":5560,"ê²¨ìļ¸":5561,"ë²¼":5562,"ë¶Ī</w>":5563,"ì£¼ë³Ģ</w>":5564,"ë©Ī":5565,"may":5566,"ãģ®":5567,"ì§ĢëĭĪ":5568,"ìĦ±ëıĦ</w>":5569,"dou":5570,"thre":5571,"milit":5572,"íĺ¼ìŀĲ</w>":5573,"ìķĦìĺĪ</w>":5574,"ëĭ¨ìĹĲ</w>":5575,"feel</w>":5576,"ëģĶ":5577,"stry</w>":5578,"organiz":5579,"æĸ":5580,"íķĢ":5581,"íĶĮëĿ¼":5582,"ì½ĺíħĲì¸ł":5583,"ë§¤ì¶ľ</w>":5584,"ìķĦë¥´":5585,"ëĮĢê·ľëª¨</w>":5586,"ìŀĲëĵ¤ìĿĦ</w>":5587,"ëıĻë¬¼":5588,"ëĭ¹ìĦł":5589,"ê¶ĮìĿ´</w>":5590,"íİ¸ìĿĺ":5591,"ë²½</w>":5592,"ê°Ĳëıħ</w>":5593,"ìłķìľ¼ë¡ľ</w>":5594,"ëĵľë¡ľ</w>":5595,"ìŀĲìľ¨":5596,"general</w>":5597,"ê¸Īë¦¬</w>":5598,"example</w>":5599,"obama</w>":5600,"ìĭľìŀ¥ìĿ´</w>":5601,"íķ´ì§Ħ</w>":5602,"concer":5603,"ìķĹ":5604,"ì²ŃìĻĢëĮĢ</w>":5605,"íĸĪê¸°</w>":5606,"ãĦ±":5607,"ê¹ĬìĿĢ</w>":5608,"ìłĦëĤł</w>":5609,"repres":5610,"thir":5611,"íĥľìĸĳ":5612,"care</w>":5613,"ìĸ´ë¦°</w>":5614,"ì¥Ĳ":5615,"ì¤ĳêµŃìĿĺ</w>":5616,"ìĭľê°ģ":5617,"ìĿ´ìłĦ</w>":5618,"ë°ľìĥĿíķľ</w>":5619,"ë°°ë¥¼</w>":5620,"ë°¸":5621,"ìķĦëıĦ</w>":5622,"head":5623,"ê±¸ì³Ĳ</w>":5624,"ìĿĳëĭµ":5625,"ìłľëıĦ":5626,"series</w>":5627,"bed</w>":5628,"ìĤ¼ìĦ±</w>":5629,"lat":5630,"ë§Īë¬´ë¦¬":5631,"ëĭ´ìĿĢ</w>":5632,"íķĺëįĶëĿ¼ëıĦ</w>":5633,"ë¶ĪëŁ¬":5634,"ìĿ¸ê°ĦìĿĺ</w>":5635,"íĺ¼</w>":5636,"ë¥ĺë¥¼</w>":5637,"ìĹĲê²ĮëıĦ</w>":5638,"local</w>":5639,"ëĶĶì§ĢíĦ¸</w>":5640,"ring</w>":5641,"ê·¸ê²ĥìĿĦ</w>":5642,"íĸīìĤ¬</w>":5643,"ours</w>":5644,"ìĹ°ê°Ħ</w>":5645,"den</w>":5646,"ê³łê°Ŀ</w>":5647,"ë°ĺë³µ":5648,"ì£¼ì°¨":5649,"ìĹ´ë¦¬ëĬĶ</w>":5650,"ê·¸ëħĢìĿĺ</w>":5651,"ìłĳì´ī":5652,"ìŀ¬ë°":5653,"ìĭľìĻĢ</w>":5654,"ëħĦìĿĺ</w>":5655,"hor":5656,"ê³Ħìķ½ìĿĦ</w>":5657,"ìĤ¬ìĹħìĹĲ</w>":5658,"ì¡°ë¥¼</w>":5659,"ë¯¸ìĦ¸":5660,"une</w>":5661,"ched</w>":5662,"ë¶Ģíĥģ":5663,"ê·¸ëĵ¤ìĿĺ</w>":5664,"ë°°ê²½":5665,"ëĲĺìĸ´":5666,"ington</w>":5667,"avail":5668,"ì§ĢìĹŃìĹĲ</w>":5669,"ìłĢëıĦ</w>":5670,"ê³³ìĿĦ</w>":5671,"ran":5672,"ê·¸ëŀĺ</w>":5673,"ta</w>":5674,"large</w>":5675,"íĺģ</w>":5676,"kind</w>":5677,"addi":5678,"íĸĩ":5679,"íļĮìĽĲ":5680,"investig":5681,"ìŀĲê¸Ī</w>":5682,"members</w>":5683,"ëŁ¬ìĭľìķĦ</w>":5684,"ìĸ¼</w>":5685,"êµ¬ìĹĲ</w>":5686,"ê¾¸ì¤ĢíŀĪ</w>":5687,"ury</w>":5688,"fully</w>":5689,"evi":5690,"ë³¸ë¶Ģ":5691,"ë¦¬ë©°</w>":5692,"íĮĮê´´":5693,"half</w>":5694,"íĨ¡":5695,"inste":5696,"ìľłëĭĪ":5697,"ìĿ´ìĸ´ìĦľ</w>":5698,"ìĹŃëĮĢ</w>":5699,"ãħłãħł</w>":5700,"ìľĦíĺĳ":5701,"';</w>":5702,"íķ¨ê»ĺ":5703,"ëŀį":5704,"ì§ĦíĿ¥":5705,"ëļľ":5706,"ëŁīìĿĢ</w>":5707,"ìłķì¹ĺ</w>":5708,"dom":5709,"ìį¼":5710,"ìĭłê²½":5711,"ëĮĢíĺķ":5712,"ë°ķê·¼":5713,"din":5714,"ëĤ¨ìķĦ</w>":5715,"mb":5716,"ìķĪìĹĲìĦľ</w>":5717,"ìĻ¸ìĹĲ</w>":5718,"ëĬĲê»´":5719,"íıī</w>":5720,"work":5721,"process</w>":5722,"da</w>":5723,"ë£¡":5724,"ìŀĪìĸ´":5725,"íĺĳíļĮ</w>":5726,"aring</w>":5727,"project</w>":5728,"ìĿ´ë²ĪìĹĲ</w>":5729,"tru":5730,"following</w>":5731,"ê³µìĽĲ</w>":5732,"íĮĲê²°":5733,"ìĭ¤íĹĺ":5734,"ìłģê·¹ìłģìľ¼ë¡ľ</w>":5735,"ë§ŀì¶°</w>":5736,"ê¸°ìĹĲëĬĶ</w>":5737,"ìŀĲëħĢ":5738,"ê³³ìĿĢ</w>":5739,"ìĤ¬ê³¼":5740,"others</w>":5741,"ìĭ¤ì²ľ":5742,"://</w>":5743,"ìķĬê²Į</w>":5744,"ìĹĲìĸ´":5745,"ëĿ¼ìļ°":5746,"ê°Ģê¹Įìļ´</w>":5747,"âĹĭ</w>":5748,"list</w>":5749,"width</w>":5750,"invol":5751,"ìĿ¼ë³¸ìĿĺ</w>":5752,"ê³µìĭĿ":5753,"ì§Ģêµ¬</w>":5754,"ëĤ¨ìŀĲ</w>":5755,"anal":5756,"ë§Īë²ķ":5757,"comes</w>":5758,"ìłĦìļ©</w>":5759,"ë¨¸ë¦¬":5760,"research</w>":5761,"ww":5762,"ìĵ¸</w>":5763,"íİĺìĿ´ì§Ģ</w>":5764,"ë¬¼ìĹĲ</w>":5765,"ming</w>":5766,"phone</w>":5767,"ëĵ¯íķľ</w>":5768,"ìĦłìĿĺ</w>":5769,"ìĤ°ìĿĦ</w>":5770,"ëĮĢìĻĢ</w>":5771,"ëĵłì§Ģ</w>":5772,"ë¶Īë²ķ":5773,"ìŀłìĭľ</w>":5774,"ìĦľìĹĲ</w>":5775,"ìľĦìĽĲìŀ¥ìĿĢ</w>":5776,"ëĤ¸ëĭ¤</w>":5777,"ì§ĪìĿ´</w>":5778,"ëĮĢëĭ¨":5779,"íģ¬ë¦¬ìĬ¤":5780,"ëĸ¨":5781,"ash</w>":5782,"months</w>":5783,"young</w>":5784,"ë²ĪìĹĲ</w>":5785,"ë¶ķ":5786,"ê°ĲìķĪ":5787,"ìĬ¤íĤ¬":5788,"ë°©ë²ķìĿĦ</w>":5789,"íıīê·ł":5790,"mer</w>":5791,"ìķĦì¹¨":5792,"test</w>":5793,"ãĢĬ</w>":5794,"kb":5795,"ìĥģìĹĲìĦľ</w>":5796,"íĨµíĻĶ":5797,"toge":5798,"ë¡ľëıĦ</w>":5799,"ìĭľìŀĳíķľ</w>":5800,"getting</w>":5801,"ì§Ģê¸°</w>":5802,"ë°°ì¶ľ":5803,"ëĵ±ìĹĲìĦľ</w>":5804,"ë¥Ļ":5805,"ìĥĿíĻľìĿĦ</w>":5806,"ê°Ģì¹ĺë¥¼</w>":5807,"ëĮĢì¶ľ</w>":5808,"ati":5809,".)</w>":5810,"ìĭ¤ì§Ī":5811,"ì£¼ë¬¸":5812,"êµĲìĪĺ</w>":5813,"ìĿ´ë¡ľ</w>":5814,"ëĤĺë¬´</w>":5815,"ì°¨ìĿ´ê°Ģ</w>":5816,"cus":5817,"åı":5818,"office</w>":5819,"together</w>":5820,"ê´Ħ":5821,"íĺĦìŀ¥":5822,"ï¼į</w>":5823,"ë³´ë¥¼</w>":5824,"ëķĮëıĦ</w>":5825,"tty</w>":5826,"íķĺê²łëĭ¤ê³ł</w>":5827,"market</w>":5828,"ë°ľíĳľíĸĪëĭ¤</w>":5829,"descri":5830,"ìĤ¬ìĹĲìĦľ</w>":5831,"íģ¬ë¦¬":5832,"ë¹ļ":5833,"ìķĦë¬´ë¦¬</w>":5834,"ements</w>":5835,"âĸł</w>":5836,"ìķĦëıĻ":5837,"ì¹´ì¹´":5838,"ìĹ¬ìŀĲ</w>":5839,"dar":5840,"ìĭľì¼°ëĭ¤</w>":5841,"ê´Ģê°Ŀ":5842,"ìĭľíĤ¨</w>":5843,"ëŀľ</w>":5844,"ê¶ģê¸Ī":5845,"ip":5846,"ëį°ë¯¸":5847,"dev":5848,"lu":5849,"ì§ĳëĭ¨":5850,"ìĺ¬ë¦¼íĶ½</w>":5851,"íĿĲë¦Ħ":5852,"íģ¬ëĭ¤</w>":5853,"ë³´ë©°</w>":5854,"ìĿ´ë¦Ħ</w>":5855,"ìķŀìľ¼ë¡ľëıĦ</w>":5856,"ìĿ´ëĵ¤ìĿ´</w>":5857,"ë¹Ħìļ©</w>":5858,"ìĿ¼ìłķ</w>":5859,"ìĦ±ëĬ¥":5860,"ìĿ¸ê·¼</w>":5861,"ìĿ¸ìĥģ":5862,"ìĹī":5863,"ëĲĺìĹĪê³ł</w>":5864,"ìłĲìłĲ</w>":5865,"dly</w>":5866,"ê°ķëĤ¨":5867,"tran":5868,"det":5869,"íĮ©":5870,"ìŀĳìĦ±":5871,"ìĥģì§ķ":5872,"ì£¼ìĭľ":5873,"ëł¤ë©´</w>":5874,"ìłľìĹĲ</w>":5875,"ëĵ±ê¸ī":5876,"ì°½ì¡°":5877,"ëįķë¶ĦìĹĲ</w>":5878,"ê¶ĮìĹĲ</w>":5879,"ìłľíķľ</w>":5880,"ìĸ´ëłµëĭ¤</w>":5881,"ìĻĦë²½":5882,"chec":5883,"ìľĦì¹ĺíķľ</w>":5884,"ë¡łìĿĦ</w>":5885,"across</w>":5886,"ë²Ĺìĸ´":5887,"ìĩł":5888,"íĺĦì§Ģ</w>":5889,"room</w>":5890,"ë§ĪìĿĮìĿ´</w>":5891,"esp":5892,"ìĿ¸ê³µ":5893,"pt":5894,"que</w>":5895,"ìĭ¤ìĹĲìĦľ</w>":5896,"call</w>":5897,"ìĭłìĿ´</w>":5898,"ë¡ľìĿ´":5899,"ëĵ¤ìĹĪ":5900,"ë³´ìĪĺ":5901,"origin":5902,"back":5903,"ìĿ´ê±´</w>":5904,"ìłķëĭ¹":5905,"than":5906,"nov":5907,"ìļ°ë¦¬ëĤĺëĿ¼":5908,"ëĭ¬ëł¤":5909,"ë¨¹ëĬĶ</w>":5910,"ìĺĪìĤ°</w>":5911,"looking</w>":5912,"means</w>":5913,"tem":5914,"space</w>":5915,"ldn</w>":5916,"ìŀĲê²©":5917,"foc":5918,"north</w>":5919,"ì±ĦëĦĲ":5920,"íķ©ë¦¬":5921,"month</w>":5922,"ì¶ľìĭł</w>":5923,"ìĿ¸ìĹĲ</w>":5924,"ê°ĸì¶Ķ":5925,"ìĥģê³µ":5926,"ìĻĦë£Į":5927,"ìŀĲë¦¬ìĹĲ</w>":5928,"ìıŁìķĦ":5929,"ìľĪ":5930,"ëĦ·":5931,"ê±°ì£¼":5932,"íĬ¹ë³Ħíķľ</w>":5933,"intere":5934,"êµ¬ìŀħ":5935,"partic":5936,"ìķĦëĭĪê³ł</w>":5937,"ê³Ħìķ½</w>":5938,"cy":5939,"ëİ":5940,"bit":5941,"ole</w>":5942,"ìĨĮë¦¬ë¥¼</w>":5943,"ì¤¬ëĭ¤</w>":5944,"êµŃë¬´":5945,"bloc":5946,"international</w>":5947,"íļĮìĿĺë¥¼</w>":5948,"jus":5949,"ëĤĺê°Ģ</w>":5950,"ë§Īìĭľ":5951,"ì¦Ŀê±°":5952,"ìļĶì¦ĺ</w>":5953,"ë²Īì§¸":5954,"clear</w>":5955,"ìĿĮìĿ´</w>":5956,"ê·¸ìĹĲ</w>":5957,"ë¹Ħíĸī":5958,"associ":5959,"win</w>":5960,"ëĤĺìļĶ</w>":5961,"ground</w>":5962,"vari":5963,"believe</w>":5964,"ê¹Ŀ":5965,"ê³Ħê°Ģ</w>":5966,"ìłľê³µíķĺëĬĶ</w>":5967,"íĺĦì§Ģìĭľê°Ħ</w>":5968,"ìľĦê¸°</w>":5969,"player</w>":5970,"ener":5971,"ìĿ¸ì§Ģ":5972,"ëłĪë²¨</w>":5973,"ë§ŀì¶¤":5974,"ì¶Ķê°Ģë¡ľ</w>":5975,"scri":5976,"thought</w>":5977,"ê°ľê°Ģ</w>":5978,"law":5979,"ìĥģíĻ©ìĹĲ</w>":5980,"accoun":5981,"ìŀĲë£Įë¥¼</w>":5982,"ë¶Ģë¬¸</w>":5983,"who":5984,"ê·¸ê²Į</w>":5985,"ë³´íĹĺ</w>":5986,"ìĪ¨ìĿĦ</w>":5987,"ì°¾ëĬĶ</w>":5988,"ìĪľê°Ħ":5989,"ê¼¼":5990,"ìľĦë°ĺ":5991,"ëĶ±":5992,"íĽĮ":5993,"íĺ¸ìĿĺ</w>":5994,"ìĹł":5995,"ìĿ¸ëĵ¤ìĿĺ</w>":5996,"ìĿ¼ìĿ´ëĭ¤</w>":5997,"ë°©ìĹŃ":5998,"ê±°ëĵ":5999,"ê³§":6000,"ìłķìĿĺ</w>":6001,"ëĤ¨ìŀĲ":6002,"ìłģìĿĺ</w>":6003,"ìĸµìĽĲ":6004,"depart":6005,"ìĪĺìĦĿ":6006,"dn":6007,"ìĹ°ìŀ¥":6008,"ching</w>":6009,"ê³¨íĶĦ":6010,"íķ´ì£¼ëĬĶ</w>":6011,"ëĮĢë¶Ģë¶ĦìĿĺ</w>":6012,"íĬ¸ìĻĢ</w>":6013,"ìĿ¼ê³¼</w>":6014,"gram</w>":6015,"ìµľì¢ħ":6016,"ì£¼ë¯¼</w>":6017,"area</w>":6018,"ç¾":6019,"ë¨¸</w>":6020,"íİĢëĵľ</w>":6021,"nal</w>":6022,"ana</w>":6023,"íķĺë©´ìĦľëıĦ</w>":6024,"íĮĲìĿĦ</w>":6025,"dom</w>":6026,"jour":6027,"ì¶ľìĭľ</w>":6028,"type</w>":6029,"ê°Ģë¡ľ</w>":6030,"ëª¨ë¥¼</w>":6031,"ìļ±":6032,"ìĿĺìĭ¬":6033,"force</w>":6034,"ëĮĢíķľë¯¼êµŃ</w>":6035,"ì»µ":6036,"edit</w>":6037,"ìĤ¶ìĿĺ</w>":6038,"ìłĦìŁģ</w>":6039,"çĶ":6040,"ë²ķë¬´":6041,"êµĲìĪĺ":6042,"available</w>":6043,"ìĬ¹ë¦¬":6044,"ìĦľê°Ģ</w>":6045,"ler</w>":6046,"ìĪĺë§İìĿĢ</w>":6047,"ìĹ¬ë¶Ģë¥¼</w>":6048,"ìĹ°ìĬµ":6049,"ian</w>":6050,"makes</w>":6051,"deb":6052,"ëĲľëĭ¤ê³ł</w>":6053,"ê¸°ê¹Įì§Ģ</w>":6054,"fc</w>":6055,"prac":6056,"ìĤ¬ìĥģ</w>":6057,"announ":6058,"ë²ķìĹĲ</w>":6059,"foun":6060,"ìĽĶê¹Įì§Ģ</w>":6061,"almost</w>":6062,"ìĿ´ëĵ¤ìĿĺ</w>":6063,"instead</w>":6064,"ê·¸ê²ĥìĿ´</w>":6065,"problem</w>":6066,"åľ":6067,"resi":6068,"ê³µìŀ¥</w>":6069,"ê·¸ëķĮ</w>":6070,"ìĺ¤ëŀĺ":6071,"ë§Īë¥¼</w>":6072,"êµī":6073,"ìĺ¤íĶĦ":6074,"--------":6075,"ëĿĦ":6076,"ëł¥ìľ¼ë¡ľ</w>":6077,"ê²½ìļ°ëıĦ</w>":6078,"func":6079,"ì»¬</w>":6080,"stand":6081,"ï½":6082,"ìŀĳëħĦ</w>":6083,"exc":6084,"ìķĦìĿ´íħľ":6085,"ì§ĳìĹĲìĦľ</w>":6086,"ìķ¡ìĿĢ</w>":6087,"ìĦ±ê³¼ë¥¼</w>":6088,"ë°ľíĳľíķľ</w>":6089,"america</w>":6090,"ìł¤":6091,"íĻĶìĿĺ</w>":6092,"rac":6093,"board</w>":6094,"ner":6095,"identi":6096,"ìľĦíķ´ìĦľ</w>":6097,"?âĢĿ</w>":6098,"ìĤ¬íļĮìĿĺ</w>":6099,"ìĥĪë¡Ńê²Į</w>":6100,"ìĹ°ëĿ½":6101,"ê°Ģê²©ìĿ´</w>":6102,"íĽĦë³´ëĬĶ</w>":6103,"ëĨĵìĿĢ</w>":6104,"ëĵľëŀĺ":6105,"ë³´ëĭ¤":6106,"ë°ĶìĿ´ìĺ¤":6107,"ìĭ¤íĺĦ":6108,"âĸ¶</w>":6109,"john</w>":6110,"ìķĦìĿ´ëĶĶ":6111,"ìĿ¸ìĥĿ":6112,"ìĿ¼ìĹĲëĬĶ</w>":6113,"ow</w>":6114,"major</w>":6115,"ìĨįìľ¼ë¡ľ</w>":6116,"íĻį</w>":6117,"rights</w>":6118,"ìĤ¬ìŀ¥ìĿĢ</w>":6119,"ì§Ģíľĺ":6120,"ëħ¸ì¡°":6121,"compe":6122,"tin</w>":6123,"ì¸¡ìĿ´</w>":6124,"non</w>":6125,"compan":6126,"ìĨĮìŀ¬</w>":6127,"ìĭłìĿĺ</w>":6128,"ìĿ´ê±°</w>":6129,"ìŀĲê¸Ī":6130,"inf":6131,"ëĥĲê³ł</w>":6132,"ë°ľìĥĿ</w>":6133,"ë£©":6134,"ìŀĲëĵ¤ìĹĲê²Į</w>":6135,"issue</w>":6136,"ì¡°ì¹ĺë¥¼</w>":6137,"ìŀ¥ê´Ģ</w>":6138,"©ëĭĪëĭ¤</w>":6139,"ë¬¸ìŀ¬":6140,"ëĮĢë¹Ħ":6141,"ëĭ¬ëĿ¼ê³ł</w>":6142,"asn</w>":6143,"ê³łìŀĲ</w>":6144,"íĥ±":6145,"sus":6146,"ìĸ´ìļ¸":6147,"km</w>":6148,"ìłľê³µíķľëĭ¤</w>":6149,"ëĤ¨ë¶ģ":6150,"ìķĪëĤ´":6151,"íĮĢìĿ´</w>":6152,"hand":6153,"íļ¡":6154,"policy</w>":6155,"ìłĦíķľ</w>":6156,"gir":6157,"ì¢ħëª©":6158,"ìłľìĻ¸íķľ</w>":6159,"ì±ħìŀĦìĿĦ</w>":6160,"ìĭ¬ë¦¬":6161,"ìĪĺìĤ°":6162,"added</w>":6163,"simil":6164,"offic":6165,"ì¤ĳìļĶíķĺëĭ¤</w>":6166,"ì²ĺë²Į":6167,"ìĦ¸ê¸°</w>":6168,"ele":6169,"twit":6170,"deal</w>":6171,"secre":6172,"ìĪĺëıĦê¶Į</w>":6173,"ëĮĢìļ°":6174,"íĺĳ</w>":6175,"ê¸°ë¡Ŀ</w>":6176,"ìĪĺìĤ¬</w>":6177,"federal</w>":6178,"âĢľ":6179,"'ve</w>":6180,"along</w>":6181,"www</w>":6182,"ì´Į</w>":6183,"íĮĢìĿĢ</w>":6184,"ë§Īì°¬ê°Ģì§Ģë¡ľ</w>":6185,"long":6186,"ëĲĺëĬĶëį°</w>":6187,"rul":6188,"íĻľìķ½":6189,"ëĭ¤íĸī":6190,"íĤ¨":6191,"ëľ»ìĿĦ</w>":6192,"minu":6193,"ight</w>":6194,"ê²¹":6195,"ìļĶìĿ¼</w>":6196,"ìĿ´ê²ĥìĿĢ</w>":6197,"consider":6198,"íĳľë¥¼</w>":6199,"ê²Ģì°°</w>":6200,"ìĨĮíķľ</w>":6201,"ìıĺ":6202,"íĥľìĸ´":6203,"ì¤ĺ</w>":6204,"íĻĪíİĺìĿ´":6205,"ì£¼ê±°":6206,"ìłľê±°":6207,"impro":6208,"ìĿ¼ê¹Į</w>":6209,"ìĭľìĬ¤íħľìĿĦ</w>":6210,"ëĤĺìĺ¤ê³ł</w>":6211,"ìĺ¤ë¥¸":6212,"ëĤ´ë¶Ģ":6213,"tt</w>":6214,"ì»¤ë®¤":6215,"fav":6216,"ë£Įë¡ľ</w>":6217,"ê³ĦìĿĺ</w>":6218,"ìĿ¸ê¶Į":6219,"started</w>":6220,"ìĽ¹":6221,"beh":6222,"ì¤ĳíķľ</w>":6223,"ëª»íķ´</w>":6224,"ê°ľìłķ</w>":6225,"sion":6226,"ìłľìĿ¼</w>":6227,"ë¹łìł¸":6228,"íĸīìĤ¬ë¥¼</w>":6229,"ìĤ¶ìĿĦ</w>":6230,"ìĸ´ìĿĺ</w>":6231,"íĻķìĿ¸íķł</w>":6232,"ê³łìłķ":6233,"ëĬĺìĹĪëĭ¤</w>":6234,"ëħ¼ëŀĢìĿ´</w>":6235,"ìĬ¤íĬ¸ëłĪ":6236,"\",</w>":6237,"ëĶ°ëľ»":6238,"wash":6239,"gar":6240,"ì§ģìĹħ":6241,"bill</w>":6242,"ë¹ĦëĤľ":6243,"íıŃë°ľ":6244,"ined</w>":6245,"ìĿ´ë²¤íĬ¸</w>":6246,"ìŀĲìłĦ":6247,"ìĻ¼":6248,"ah</w>":6249,"class</w>":6250,"êµŃìĿĦ</w>":6251,"rather</w>":6252,"ì¤ĳìĨĮê¸°ìĹħ":6253,"ì¡°íķ©</w>":6254,"ê²ĮëıĦ</w>":6255,"ìĬ¤íĥ":6256,"íĳľìĭľ":6257,"êµŃë¯¼ìĿĺ</w>":6258,"ê²½ê¸°ìĹĲìĦľ</w>":6259,"tively</w>":6260,"âĢ¦âĢ¦</w>":6261,"íĬĢ":6262,"ì²ŃìĨĮëħĦ":6263,"ë¿ĲìĿ´ëĭ¤</w>":6264,"ëĪĦêµ°":6265,"recent</w>":6266,"ìĬ¤íı¬ì¸ł</w>":6267,"scre":6268,"image</w>":6269,"ìłķëıĦìĿĺ</w>":6270,"sil":6271,"anim":6272,"ìĪĺì¶ľ</w>":6273,"ically</w>":6274,"ìĤ¬íķľ</w>":6275,"ê¸°ìŀĲíļĮ":6276,"ë¥ĺìĿĺ</w>":6277,"ine":6278,"ê°ĢëŁī</w>":6279,"ìķĦìī¬":6280,"ìĿ´ëķĮ</w>":6281,"ìĬ¤ì¼Ģ":6282,"ìĦ¯</w>":6283,"ëĭŃ":6284,"ented</w>":6285,"ches</w>":6286,"ìĹĺë¦¬":6287,"ë©ľ":6288,"íĮĮíĬ¸":6289,"pc":6290,"sty":6291,"ì»¤ë®¤ëĭĪ":6292,"ê¾¼":6293,"ìķĬëıĦë¡Ŀ</w>":6294,"ìĭ¬íķľ</w>":6295,"ìµľìĦłìĿĦ</w>":6296,"ë§ĲíķĺëĬĶ</w>":6297,"ãİŀ</w>":6298,"ìĺ¤ë¦¬":6299,"ê¹ľ":6300,"ê¸°ì§Ģ</w>":6301,"íİĺìĿ´ìĬ¤":6302,"ëĵ¤ìĸ´ê°Ģ":6303,"ended</w>":6304,"ìĿ¸ê¸°ë¥¼</w>":6305,"ëħĲ</w>":6306,"experience</w>":6307,"os":6308,"ë¯¸ëŀĺ</w>":6309,"south</w>":6310,"ì¡°ìĦł</w>":6311,"mom":6312,"ê°ľë¡ľ</w>":6313,"aining</w>":6314,"idea</w>":6315,"íĨ¤</w>":6316,"ìłĦìŀĲ</w>":6317,"ë¶ģíķľìĿĺ</w>":6318,"ì¦Ŀê°ĢíĸĪëĭ¤</w>":6319,"ë¬¸ìĿĺ</w>":6320,"ut":6321,"ìĤ¬ìĭ¤ìĿ´</w>":6322,"ë¯¸ë¥¼</w>":6323,"ë§ĪìŀĲ</w>":6324,"stration</w>":6325,"ëĮĢíĳľìłģìĿ¸</w>":6326,"ìĥģíĻ©ìĿ´ëĭ¤</w>":6327,"ì«ĵ":6328,"ìŀĪìĸ´ìķ¼</w>":6329,"ë§ŀì¶Ķ":6330,"ìŀħìĿĢ</w>":6331,"care":6332,"íķĺìĹ¬":6333,"star</w>":6334,"ëĤĺê²Į</w>":6335,"ë§Įìľ¼ë¡ľ</w>":6336,"ë§īìĿĦ</w>":6337,"ìĤ¬ìĹħìĿĢ</w>":6338,"íĺĳëł¥</w>":6339,"tit":6340,"ìĿ¼ìĸ´ëĤĺ":6341,"íļĮìĻĢ</w>":6342,"sib":6343,"sta":6344,"ëłĢ":6345,"íĺķìĿ´</w>":6346,"ë³´ì§Ģ</w>":6347,"ì§ĳê³Ħ":6348,"dru":6349,"íĹĪ</w>":6350,"ìĿĺë¯¸ë¥¼</w>":6351,"ì¶¤":6352,"ëĤ³":6353,"íģ¬ë¥¼</w>":6354,"center</w>":6355,"ìķĦë¦Ħëĭ¤ìļ´</w>":6356,"legal</w>":6357,"íĴį</w>":6358,"trying</w>":6359,"ìķłíĶĮ":6360,"íĺ¸ê°Ģ</w>":6361,"ìĺ¬ëł¤":6362,"ìĦłìĹĲ</w>":6363,"íĻĶëĬĶ</w>":6364,"íĬ¼</w>":6365,"west</w>":6366,"isn</w>":6367,"êµīìŀ¥":6368,"ëĭ¹ë¶Ģ":6369,"ê¸°ë¶Ģ":6370,"department</w>":6371,"ìĺ¬ëł¸ëĭ¤</w>":6372,"ëĵ¤ìĿ´":6373,"ëį°ìĿ´íĦ°":6374,"job</w>":6375,"íķ´ìĻĶëĭ¤</w>":6376,"ê°Ģê²©ìĿĢ</w>":6377,"íķĻëħĦ</w>":6378,"âĹİ</w>":6379,"%(</w>":6380,"ëĮĢíķ´ìĦľëıĦ</w>":6381,"program</w>":6382,"ìĭľìŀĳìľ¼ë¡ľ</w>":6383,"êµĲê³¼":6384,"ëįĶëĿ¼</w>":6385,"ìķĪìľ¼ë¡ľ</w>":6386,"ìľĦíķĺìĹ¬</w>":6387,"ë³´ìĿ´ì§Ģ</w>":6388,"ìĺ¤ê³ł</w>":6389,"ìĹħë¬´</w>":6390,"ìĥģìĬ¹</w>":6391,"ask</w>":6392,"ìķĮìķĺ":6393,"wed</w>":6394,"current</w>":6395,"ìĨĮë¦¬</w>":6396,"abo":6397,"ì¦ĪëĭĪ":6398,"ë³¸ë¶Ģ</w>":6399,"agre":6400,"ìĤ¬ìĿ´</w>":6401,"ëĪĦêµ¬ëĤĺ</w>":6402,"ë³´ì¦Ŀ":6403,"ìĿĺìĽĲìĿ´</w>":6404,"ãħĭãħĭãħĭãħĭãħĭ</w>":6405,"ë°¥</w>":6406,"ëĶ°ë¡ľ</w>":6407,"works</w>":6408,"ê³ĦìĤ°":6409,"military</w>":6410,"ìŀ¬ë°Į":6411,"ì§ģìłĳ":6412,"ìŀĸìķĦ</w>":6413,"ìĹĦì²ŃëĤľ</w>":6414,"compl":6415,"ìŀĪìĸ´ìļĶ</w>":6416,"ìŀħê³ł</w>":6417,"vidu":6418,"selves</w>":6419,"ances</w>":6420,"ãģĦ":6421,"ìĺ¹":6422,"ìĭ¬ìĤ¬":6423,"ë©į":6424,"ë¶Ħë¥ĺ":6425,"individu":6426,"ëĭ¤ìĿĮê³¼</w>":6427,"anything</w>":6428,"íĹĮ</w>":6429,"ëĲĺìŀĲ</w>":6430,"fail":6431,"íĶĮëłĪìĿ´</w>":6432,"íı´ë¦¬":6433,"pal":6434,"nothing</w>":6435,"med":6436,"ê³łê°ľë¥¼</w>":6437,"ë¬¼ìĸ´":6438,"ë°ľíĸī":6439,"source</w>":6440,"åŃ":6441,"sl":6442,"wards</w>":6443,"ëĬ¥ëł¥</w>":6444,"pay</w>":6445,"ì§Ħëĭ¨":6446,"íŀĺëĵł</w>":6447,"ëĸ¼":6448,"ëıĭ":6449,"ì´Īë°ĺ":6450,"ì´īêµ¬":6451,"ners</w>":6452,"taking</w>":6453,"twitter</w>":6454,"ìĥģëĮĢìłģìľ¼ë¡ľ</w>":6455,"ë²ķë¥ł":6456,"ê³µíķŃ":6457,"ìĿ´ëįĺ</w>":6458,"ë¹Ħë°Ģ":6459,"ëª©ìĨĮë¦¬":6460,"ê·¸ëłĪìĿ´":6461,"ines</w>":6462,"ough":6463,"ìĿ¼ë¶Ģ":6464,"ê²Ĳ</w>":6465,"íı¬íķ¨íķĺëĬĶ</w>":6466,"ìľłëªħ":6467,"ëģĪ":6468,"league</w>":6469,"admini":6470,"ards</w>":6471,"ators</w>":6472,"íĻĶìĻĢ</w>":6473,"ê³µìĭľ":6474,"lig":6475,"ê´ĢìĹĲìĦľ</w>":6476,"close</w>":6477,"ìī½ì§Ģ</w>":6478,"version</w>":6479,"ìĤ¬ëŀĮëĵ¤ìĿĺ</w>":6480,"taken</w>":6481,"ìĬ¹ìĿĦ</w>":6482,"ëĭ¹ìĹ°íŀĪ</w>":6483,"hon":6484,"ëĵ±ëıĦ</w>":6485,"íĮ½":6486,"tom":6487,"study</w>":6488,"ìłĦë¶Ģ</w>":6489,"ë°ķê·¼íĺľ</w>":6490,"ìĹĪëĬĶëį°</w>":6491,"æĹ":6492,"ëį´":6493,"ì½ĺ</w>":6494,"ë°ĿíŀĪ":6495,"film</w>":6496,"single</w>":6497,"ëĲ©ëĭĪëĭ¤</w>":6498,"plan</w>":6499,"ë¸ĶëŀĻ":6500,"ì§ĢìĹŃìĹĲìĦľ</w>":6501,"previ":6502,"ìºłíİĺ":6503,"ìļ°ì£¼":6504,"exper":6505,"êµ¬ì¡°</w>":6506,"ìŀĲë¦¬ìĹĲìĦľ</w>":6507,"ìĬ¤íĤ¬</w>":6508,"ìĨĮìĿĺ</w>":6509,"êµŃìĹĲ</w>":6510,"ìºĲë¦ŃíĦ°</w>":6511,"ëª¨ëĭĪ":6512,"ìĬ¤íģ¬</w>":6513,"ë§ĪìłĢ</w>":6514,"ê°Ħëĭ´":6515,"woman</w>":6516,"ìĤ¬ì§ĦìĿĦ</w>":6517,"ëĤĺìĺ¬</w>":6518,"íģ´ë¦¬":6519,"íĻĶìĿ´":6520,"ë§İìķĺëĭ¤</w>":6521,"ìłĦë¶ĢíĦ°</w>":6522,"ìŀ¥ì¹ĺ</w>":6523,"íķĦ</w>":6524,"ìľłê°Ģ</w>":6525,"behind</w>":6526,"ìļ°ë¦¬ëĤĺëĿ¼</w>":6527,"ë§ĲìĿĢ</w>":6528,"comb":6529,"ì¿¨":6530,"energy</w>":6531,"question</w>":6532,"ë§Īê°Ĳ":6533,"ëĲĲê³ł</w>":6534,"ìĺ¤ëŀĺ</w>":6535,"car</w>":6536,"ìłķê¸°":6537,"íĨµìĭł</w>":6538,"ëĤ¨ìķĦ":6539,"ëª¨ë¥´ëĬĶ</w>":6540,"ì¢ģ":6541,"arti":6542,"ãħľ</w>":6543,"ì¢ĭì§Ģ</w>":6544,"ëĭ¹ìŀ¥</w>":6545,"ìĤ¬ìŀ¥</w>":6546,"ìķ¼êµ¬":6547,"ma</w>":6548,"ered</w>":6549,"hand</w>":6550,"ious</w>":6551,"ëĭ¹ì´Ī</w>":6552,"ìĭłìĨį":6553,"ëĮĢì²´</w>":6554,"ìĬ¤ìĹĲìĦľ</w>":6555,"ê´ĢëŀĮ":6556,"ìĭłíķľ":6557,"death</w>":6558,"ëĤĺì§Ģ</w>":6559,"ê³¼ìłķ</w>":6560,"ì£¼ì§Ģ</w>":6561,"ë¯¸ëĭĪ":6562,"ëª©íĳľë¡ľ</w>":6563,"íķľë°ĺ":6564,"fy</w>":6565,"ìŀ¬ëĤľ":6566,"ìķĻ</w>":6567,"ë°ľìłĦ</w>":6568,"ë¬¼ë¦¬":6569,"ë°ľêµ´":6570,"ë¬´ê¸°":6571,"ìĿĮìĹĲëıĦ</w>":6572,"ëķĮë¶ĢíĦ°</w>":6573,"ê²¸":6574,"isra":6575,"ê°Ħëĭ¨":6576,"ë³ĢíĻĶë¥¼</w>":6577,"íĽ¼":6578,"ìŀĳíĴĪ</w>":6579,"ìłģìľ¼ë¡ľëĬĶ</w>":6580,"ìĹĺ</w>":6581,"ì½ĺìĦľ":6582,"adver":6583,"del</w>":6584,"six</w>":6585,"ëĴ¤ìĹĲ</w>":6586,"ìłĦìĿĢ</w>":6587,"ìĹŃìĤ¬</w>":6588,"íĺľíĥĿìĿĦ</w>":6589,"ering</w>":6590,"ëªħê³¼</w>":6591,"development</w>":6592,"ë¬´ëĦĪ":6593,"íĥľëĭ¤</w>":6594,"ëĭĮ</w>":6595,"êµ¬ì²´ìłģìĿ¸</w>":6596,"terr":6597,"squ":6598,"ìłķë¹Ħ":6599,"ìĺ¬ë¦¼íĶ½":6600,"points</w>":6601,"íķłìĿ¸":6602,"ê°ĻìķĦ</w>":6603,"pan":6604,"íŀĺìĿ´</w>":6605,"ised</w>":6606,"front</w>":6607,"ë¼":6608,"bal</w>":6609,"ëıĮíĮĮ":6610,"ì¶Ķ</w>":6611,"ìłģìĸ´ëıĦ</w>":6612,"ëĲĺëıĦë¡Ŀ</w>":6613,"ìĥģíĴĪìĿĦ</w>":6614,"ìĤ¬ëŀĳìĿĦ</w>":6615,"food</w>":6616,"íĿī":6617,"íļĮëĭ´":6618,"ìĦ¸ë¡ľ</w>":6619,"ë²ķìĿ¸</w>":6620,"ìĨĮëĵĿ</w>":6621,"third</w>":6622,"ìĦ¸ìĿ´":6623,"ì²łíķĻ":6624,"ide</w>":6625,"ê°¤ëŁŃ":6626,"ìĭľë¯¼</w>":6627,"sex":6628,"everything</w>":6629,"ê°ĢëĬ¥ìĦ±ìĿĦ</w>":6630,"ê°Ģë¡ľ":6631,"ss":6632,"ê³µíĻĶ":6633,"ìĹ¬íĸī</w>":6634,"ëĸ¨ìĸ´ì§Ħ</w>":6635,"ëıĻìĽĲ":6636,"ìĥĿì¡´":6637,"íĭĪ":6638,"ì°©</w>":6639,"ìŀ¡ìķĦ":6640,"discus":6641,"íĽĦë°ĺ":6642,"due</w>":6643,"blo":6644,"di</w>":6645,"ì°¸ìĹ¬</w>":6646,"ìķ±":6647,"ìķĦëŀĺ</w>":6648,"ìĺ¤íĶ¼":6649,"studi":6650,"ãĢĭ</w>":6651,"ference</w>":6652,"ë°©íĸ¥ìľ¼ë¡ľ</w>":6653,"ëĵľìĻĢ</w>":6654,"ì¹ĺê²Į</w>":6655,"someone</w>":6656,"ë°©ìĹĲ</w>":6657,"ëĸ¡":6658,"ìĨĮë¦¬ê°Ģ</w>":6659,"ë§ĲìĿ´ëĭ¤</w>":6660,"ìĥģê³¼</w>":6661,"ì°¨ë¡ľ</w>":6662,"ì¶©</w>":6663,"ìĨĮìĹĲìĦľ</w>":6664,"ëĤĺë©´</w>":6665,"ìĦłìĹĲìĦľ</w>":6666,"ì±ĶíĶ¼ìĸ¸":6667,"exec":6668,"saying</w>":6669,"ì»¤íĶ¼":6670,"ëĦĺìĸ´</w>":6671,"ê´ĳìĹŃ":6672,"ë¹ł</w>":6673,"ìĿ¸ê¸°</w>":6674,".âĹİ</w>":6675,"ìĭ¬ì§Ģìĸ´</w>":6676,"ìĥģê´Ģ":6677,"tax</w>":6678,"effor":6679,"ìĿ¸ì¦Ŀ":6680,"ëħ¸ëł¥ìĿĦ</w>":6681,"cham":6682,"ë°ķë¬¼":6683,"ingly</w>":6684,"ë¬¼ìĿĢ</w>":6685,"ëĶĶìĺ¤":6686,"ìĦłì§Ħ":6687,"ìķĦë¬´</w>":6688,"ained</w>":6689,"ì·¨ìķ½":6690,"ìĸ¼ë§Ī</w>":6691,"chall":6692,"true</w>":6693,"ìĹ¬ìĦľ</w>":6694,"ìłĲëıĦ</w>":6695,"ìħī":6696,"lg</w>":6697,"spor":6698,"defin":6699,"ëĤ´ìļ©ìĿĢ</w>":6700,"ìķĮê²Į</w>":6701,"clint":6702,"ham":6703,"ìĦłë°ľ</w>":6704,"ä»":6705,"ìĹĪì§Ģë§Į</w>":6706,"wanted</w>":6707,"remain":6708,"íĬ¸ëŀ":6709,"íķ¨ìĿ´</w>":6710,"uses</w>":6711,"ì¶°":6712,"íĺ¸ëĬĶ</w>":6713,"rest</w>":6714,"íĻĺìŀĲ</w>":6715,"ì§ĢëĤĺ</w>":6716,"ë¶ĦìĦĿ</w>":6717,"íĨµìĿ¼":6718,"ê³µìĹ°</w>":6719,"ë®¤ì§Ģ":6720,"ap</w>":6721,"íķ´ìĨĮ":6722,"ë¬¸ìŀ¬ìĿ¸</w>":6723,"ëĥĦ":6724,"ìĿ´ë¡ł":6725,"íģ´</w>":6726,"ìĿ´ìķ¼ê¸°</w>":6727,"ä¹":6728,"ì¦Ĳê¸¸</w>":6729,"mess":6730,"ëĤ´ìļ©ìĿ´</w>":6731,"íħĮíģ¬":6732,"ëį®":6733,"ê°ĢìĬ¤</w>":6734,"ìľłëıĦ":6735,"ëıĦìĻĢ":6736,"ëĮĢê¸°":6737,"ê°ģìĿĦ</w>":6738,"ìľłìłĢ":6739,"ìĭ¬ìĿ´</w>":6740,"rap":6741,"infl":6742,"ë°Ł":6743,"ê´Ģê³Ħê°Ģ</w>":6744,"ìĦłê³ł":6745,"ìĺģìĥģìĿĦ</w>":6746,"íĿĶëĵ¤":6747,"ëĨĢëĿ¼":6748,"ê·Ģ</w>":6749,"ìĪĺë¹Ħ":6750,"ìłĦê°ľ":6751,"ìĨĮíĻĺ":6752,"ìłĦëĤ¨</w>":6753,"êµŃíļĮìĿĺ":6754,"ë¯¸ìĦ¸ë¨¼":6755,"nific":6756,"ìĦłìĿĢ</w>":6757,"ê³µì§ģ":6758,"ìĭĿìĿĺ</w>":6759,"ìľĦìĽĲìŀ¥</w>":6760,"ë²ķìĿ´</w>":6761,"ê²Ģì°°ìĿĢ</w>":6762,"kbs</w>":6763,"ëĵ±ê¸ī</w>":6764,"íļįëĵĿ":6765,"ìĺĪì¸¡":6766,"ìłĪëĮĢ</w>":6767,"ìĿ´ìłľëĬĶ</w>":6768,"ìŀĳìĹħìĿĦ</w>":6769,"ols</w>":6770,"docum":6771,"ìŀĪëĬĶì§Ģ</w>":6772,"ë§ĮìĿĢ</w>":6773,"ë§Įëĵ¤ê¸°</w>":6774,"ì¹Ļ</w>":6775,"êµ¬ìĦ±ëĲľ</w>":6776,"gress</w>":6777,"åĲ":6778,"ëĽ°ìĸ´ëĤľ</w>":6779,"ë¯¹":6780,"ë°ĶìĿ´ëŁ¬ìĬ¤</w>":6781,"ê°ĢìĿ´":6782,"turned</w>":6783,"bad</w>":6784,"íĮĢìĿĺ</w>":6785,"ë°Ľê²Į</w>":6786,"ê²½ìļ°ëĬĶ</w>":6787,"íĬ¹ì§ķìľ¼ë¡ľ</w>":6788,"ë¨¸ë¦¬ë¥¼</w>":6789,"ê°ĸì¶ĺ</w>":6790,"ë§ĮëĤľ</w>":6791,"ëıĮëł¤":6792,"ìķĦì§ģëıĦ</w>":6793,"educ":6794,"probably</w>":6795,"ìĭľê°ĦìĹĲ</w>":6796,"mit":6797,"cir":6798,"ëĲĺìĸ´ìķ¼</w>":6799,"initi":6800,"ìłĦìļ©":6801,"ëĮĢíķĺìĹ¬</w>":6802,"ì²ĺë¥¼</w>":6803,"ì¢ĭìķĦíķĺëĬĶ</w>":6804,"ëŁīìĿĺ</w>":6805,"ë¶Ģê³¼":6806,"ë´Ĳìķ¼</w>":6807,"ìĨĮëħĢ":6808,"ãĢĪ</w>":6809,"ëķĮë¬¸</w>":6810,"ê²°ì½Ķ</w>":6811,"ëª©ìłģ":6812,"ìķĺê³ł</w>":6813,"ê¸°ê¸°</w>":6814,"ìķĪìłĦ</w>":6815,"ëł¥ìĹĲ</w>":6816,"íķĺëł¤</w>":6817,"ì§ĢìĪĺëĬĶ</w>":6818,"stom":6819,"íİĺ</w>":6820,"ìĺĪìļĶ</w>":6821,"ê°Ģì¹ĺ</w>":6822,"ption</w>":6823,"ë§Įíģ¼":6824,"ê·¸ëŀ¬":6825,"ìĪŃ":6826,"although</w>":6827,"ìĹĨìĸ´":6828,"sat":6829,"ì¹ľêµ¬</w>":6830,"íĬ¸ìĹĲìĦľ</w>":6831,"ìŀĲëıĦ</w>":6832,"ê³¨ìĿĦ</w>":6833,"ë³´ëĭ¤ëıĦ</w>":6834,"ì§Ģë©°</w>":6835,"ì±Ħê¶Į":6836,"ëĳĲëł¤":6837,"pap":6838,"íĬ¸ìľĦ":6839,"ë°©ì§Ģ":6840,"pes</w>":6841,"ga</w>":6842,"íĸ¥ìĿ´</w>":6843,"tries</w>":6844,"ë¶Ħë¦¬":6845,"ection</w>":6846,"ìķīìķĦ</w>":6847,"íĬ¹ìĦ±":6848,"further</w>":6849,"building</w>":6850,"ìĪ²":6851,"íĻķìŀ¥":6852,"ìĤ´ê³ł</w>":6853,"ìļ´ëıĻìĿĦ</w>":6854,"êµ¬ë¶Ħ":6855,"ì¼ĵ</w>":6856,"ith</w>":6857,"ìĬ¤ë§ĪíĬ¸íı°</w>":6858,"ê·ľìłľ</w>":6859,"ìĪ«":6860,"íĿ¬ìĥĿ":6861,"ìĺ¤íĶĪ":6862,"ìłķíĻķíķľ</w>":6863,"stop</w>":6864,"ê¸°ìŀĲíļĮê²¬":6865,"íĤ¬":6866,"either</w>":6867,"ë¶ĢëıĻìĤ°":6868,"clinton</w>":6869,"ì²ĺë¦¬</w>":6870,"ìĵ°ëŁ¬":6871,"ìĦ¸íĬ¸</w>":6872,"ëĪĪ</w>":6873,"ê¸°ìĨĮ":6874,"ëıĻìķĦ":6875,"liber":6876,"ìĪĺì¤ĢìĿĺ</w>":6877,"ê¸°ì¡´ìĿĺ</w>":6878,"ìĿ´ìĿµ</w>":6879,"íĻĪíİĺìĿ´ì§Ģ</w>":6880,"ribu":6881,"termin":6882,"ada</w>":6883,"ë°ĺëıĦì²´</w>":6884,"ãĪ":6885,"ì£¼ìłľë¡ľ</w>":6886,"ìĪĺìĹĲ</w>":6887,"value</w>":6888,"ìĿ´ëıĦ</w>":6889,"ìŀĪìĹĪê³ł</w>":6890,"washington</w>":6891,"ì¹ľëĭ¤</w>":6892,"ëĵ±ìĿ´ëĭ¤</w>":6893,"ë¶Īë²ķ</w>":6894,"ìĺĪìłķ</w>":6895,"ì£¼ìĹĲ</w>":6896,"ê´ĢìĿĺ</w>":6897,"ìłľìŀĳ</w>":6898,"êµ°ìĿĦ</w>":6899,"eu</w>":6900,"ìĥĮ":6901,"thy</w>":6902,"íķĻìĥĿëĵ¤ìĿ´</w>":6903,"ë°ĺë°ľ":6904,"ëı¼ìķ¼</w>":6905,"ëº":6906,"final</w>":6907,"ìłĦëħĦ":6908,"ì¶Ķêµ¬":6909,"ìĭľë¡ľ</w>":6910,"ë¬´ë¥¼</w>":6911,"olog":6912,"scen":6913,"ìĤ¬ìĿ¸</w>":6914,"êµ°ìļĶ</w>":6915,"ëĮĢìĦł</w>":6916,"row</w>":6917,"êµŃìłľ</w>":6918,"attem":6919,"ìĸ¼êµ´ìĿĦ</w>":6920,"create</w>":6921,"**":6922,"ë¦Ń</w>":6923,"ìŀĦê¸Ī":6924,"ëĲĺ</w>":6925,"ìĭ¤ìłģ</w>":6926,"ìĸ´ëł¤ìĽĢìĿĦ</w>":6927,"ê°ľíİ¸":6928,"deli":6929,"cept</w>":6930,"ìĪĺíķľ</w>":6931,"ëĶ±</w>":6932,"ëĤ´ìĦ¸":6933,"fire</w>":6934,"bru":6935,"ëıĻìĿĺ":6936,"ãħĭãħĭãħĭãħĭãħĭãħĭãħĭãħĭãħĭãħĭãħĭãħĭãħĭãħĭãħĭãħĭ":6937,"íĺ¹</w>":6938,"ëĦ¤ê°Ģ</w>":6939,"ë¹Ħìĥģ":6940,"íĳľì¤Ģ":6941,"ìľĦë°ĺ</w>":6942,"íĮĢìĿĦ</w>":6943,"aver":6944,"íĥģ</w>":6945,"ê²½ìĺģ</w>":6946,"ìŀ¥ë¹Ħ</w>":6947,"ê²½ìłľìłģ</w>":6948,"íĻĶëł¤":6949,"ìĤ¬ëŀĳ</w>":6950,"ist":6951,"ìķĦê°Ģ</w>":6952,"ê³łê°Ģ</w>":6953,"ìĤ¬ê±´ìĿĦ</w>":6954,"ìĪĺë¦½":6955,"envir":6956,"ëĲ¨":6957,"ê°Ģê¹ĮìĿ´</w>":6958,"ìĺ¤ëŀľ</w>":6959,"ë§Ĳê¹Įì§Ģ</w>":6960,"ìĭľíĹĺ</w>":6961,"ë§Įëĵ¤</w>":6962,"íķłìĿ¸</w>":6963,"everyone</w>":6964,"ìĦ¤ì¹ĺ</w>":6965,"ìĥģë°ĺê¸°</w>":6966,"code</w>":6967,"ê»ı</w>":6968,"music</w>":6969,"ìŀ¬ê°Ģ</w>":6970,"signific":6971,"ë¶ī":6972,"ounds</w>":6973,"ëī´ìļķ":6974,"allow":6975,"ë°ľíľĺ":6976,"ìĪĺìĻĢ</w>":6977,"ìĨĮëħĦ":6978,"ìĦĿìĿĦ</w>":6979,"ë§Īì¼ĢíĮħ</w>":6980,"mean":6981,"inve":6982,"íı¬íķ¨íķ´</w>":6983,"ìĺ¬íķ´ëĬĶ</w>":6984,"nei":6985,"íķĺìĹ¬ìķ¼</w>":6986,"ì°¨ìĹĲ</w>":6987,"ìŀ¥ìĿ¸</w>":6988,"ê·¸ëłĩì§Ģ</w>":6989,"ìĥģíĥľëĭ¤</w>":6990,"ê³µê²©ìĿĦ</w>":6991,"environ":6992,"ìļ´ìĺģíķĺëĬĶ</w>":6993,"ëĵľëĿ¼ë§Ī":6994,"ê¸°ê³Ħ":6995,"ìĬ¤íħĮìĿ´":6996,"ì°¨ìĽĲìĹĲìĦľ</w>":6997,"ê½¤</w>":6998,"ìŀĪìľ¼ëĤĺ</w>":6999,"laun":7000,"stern</w>":7001,"ìĳ":7002,"ìłĲìľł":7003,"ìĭľëĮĢ":7004,"ìĪĺìłķ":7005,"ìļ°ëł¤ê°Ģ</w>":7006,"continue</w>":7007,"ìĸµìĽĲìĿĺ</w>":7008,"ëĶĶìŀĲìĿ¸</w>":7009,"ìĿ´ìļ©íķľ</w>":7010,"ìĸ»ìĿĦ</w>":7011,"ì·¨ìĨĮ":7012,"ìłĦë¶ģ":7013,"him":7014,"âĳł</w>":7015,"ëĬĶê±°":7016,"ëª¨ëĳĲê°Ģ</w>":7017,"ë¨¸ë¦¬</w>":7018,"reported</w>":7019,"ges</w>":7020,"ìĺĢê³ł</w>":7021,"ëĤĺì¤ĳìĹĲ</w>":7022,"ì¢ħìĿĦ</w>":7023,"ìĥģìĥģ":7024,"ìĦłëĭ¤</w>":7025,"ìĬ¤ìľĦ":7026,"ìĿ´ìļ©</w>":7027,"ëĮĢìĭł":7028,"ë¶Ģì§Ħ":7029,"ìķĦë²Ħì§Ģ</w>":7030,"íĤ¨</w>":7031,"ëª¨ì§ĳ":7032,"meas":7033,"reco":7034,"ëĵ¤ìĿ´ëĭ¤</w>":7035,"ê·ľìłľ":7036,"íľ´</w>":7037,"ì£¼ê¸°</w>":7038,"ëŀĦ":7039,"town</w>":7040,"íļĮìĿĺìĹĲìĦľ</w>":7041,"ëĬĶê±°</w>":7042,"íĸ¥ìĿĦ</w>":7043,"pped</w>":7044,"ìĤ¬ìłĦ</w>":7045,"ìłľì£¼</w>":7046,"íķ¨ìĹĲ</w>":7047,"íķĺëĤĺë¡ľ</w>":7048,"ìļķ</w>":7049,"ë¬¶":7050,"ë¬´ìĹĩë³´ëĭ¤</w>":7051,"ëĤ´ë¦°</w>":7052,"ìĿ¸ëĵ¤ìĿĢ</w>":7053,"bir":7054,"tell</w>":7055,"íĤ¤ëĬĶ</w>":7056,"ë¬¼ë¡ľ</w>":7057,"jan":7058,"ìĿ¸ë¬¼</w>":7059,"éģ":7060,"ìµľì´Ī</w>":7061,"ë¬¼ìĹĪëĭ¤</w>":7062,"ë§¤ë§¤":7063,"ìĬ¤ìĬ¤":7064,"ë¦¬ë©´</w>":7065,"êµīìŀ¥íŀĪ</w>":7066,"ëĤ´ë¶Ģ</w>":7067,"ìķ¼ì§Ģ</w>":7068,"ëįĶë¶Īìĸ´":7069,"ìĿ´ëŀĳ</w>":7070,"íĥĢìŀĦ":7071,"ê±°ê¸°":7072,"down":7073,"benef":7074,"ìĺĽ":7075,"íĢ´":7076,"photo":7077,"ìŀ¬ìĥĿ":7078,"china</w>":7079,"ëıĻìĥĿ":7080,"mov":7081,"attack</w>":7082,"dist":7083,"ëĭ¥</w>":7084,"êµĲì²´":7085,"ìĻĢìĿ´":7086,"ë¹Ħì¦ĪëĭĪ":7087,"ìķĦíĶĦ":7088,"ë§Īë¥´":7089,"ë°ĿíŀĮ</w>":7090,"ìĹ°ìĿĦ</w>":7091,"ìĪĺìĹħ":7092,"regul":7093,"íĺ¸íĿ¡":7094,"ë§ĿìĿĦ</w>":7095,"íķĺëł¤ë©´</w>":7096,"ëĮĢíĳľê°Ģ</w>":7097,"artic":7098,"ba":7099,"ì¶©ê²©":7100,"democr":7101,"ëĭ¤ë£¨":7102,"below</w>":7103,"ìĿ´ìĿµìĿĦ</w>":7104,"ê±´ë¬¼</w>":7105,"ìª½ìĹĲ</w>":7106,"ëĮĢíķ´ìĦľ</w>":7107,"ìķĦë¹ł":7108,"íĺķíĥľë¡ľ</w>":7109,"protec":7110,"ìĦŀ":7111,"íķ´ë³´":7112,"access</w>":7113,"ë°ĺìĿĳìĿĦ</w>":7114,"ê³¼ìĹ°</w>":7115,"íĻĶë¡ľ</w>":7116,"ê²°ê³¼ê°Ģ</w>":7117,"ëĮĦ":7118,"ëªħíĻķ":7119,"mbc</w>":7120,"far":7121,"íĬ¸ë¡ľ":7122,"ìĨĮë¡ľ</w>":7123,"ìĤ¬ë²ķ":7124,"íĬ¸ëłĮ":7125,"mm</w>":7126,"ê±°ì§ĵ":7127,"ëª»íķł</w>":7128,"ë°į":7129,"ails</w>":7130,"ìŀĲìĦ¸íķľ</w>":7131,"box</w>":7132,"ë´ĲëıĦ</w>":7133,"ê³½":7134,"ìłĦëŀµ</w>":7135,"íķłë¨¸ëĭĪ":7136,"ê³µë¬´ìĽĲ</w>":7137,"special</w>":7138,"íķ´ìĺ¨</w>":7139,"economic</w>":7140,"åĪ":7141,"ê´ĳê³ł</w>":7142,"ì½Ķë¡ľëĤĺ":7143,"ues</w>":7144,"word</w>":7145,"âĶģ":7146,"êµ¬ì²Ń":7147,"ì¹´íİĺ":7148,"street</w>":7149,"ìķĦì¹¨</w>":7150,"íĻľë°ľ":7151,"íķ¸":7152,"ê¹ĥ":7153,"late</w>":7154,"played</w>":7155,"ligh":7156,"ìķłëĭĪë©ĶìĿ´":7157,"ign</w>":7158,"ê°Ĵ</w>":7159,"ãĢı":7160,"ì¦Ŀê°Ģíķľ</w>":7161,"ëĮĢë¦¬":7162,"ìĦłíĺ¸":7163,"ë§Įëĵ¤ê³ł</w>":7164,"wro":7165,"ë°°íĦ°":7166,"ê¸°ìĤ¬":7167,"result</w>":7168,"officials</w>":7169,"ìĥģíĥľìĹĲìĦľ</w>":7170,"them":7171,"cy</w>":7172,"ë³µê·Ģ":7173,"students</w>":7174,"decision</w>":7175,"ëĦĺ</w>":7176,"ëĤĺìĦł</w>":7177,"Â´</w>":7178,"ë¦ī":7179,"ëĲĲëĭ¤ê³ł</w>":7180,"vid</w>":7181,"ê²½ëĤ¨</w>":7182,"ìŀĳê°Ģ":7183,"ìĭľìĦ¤ìĿĦ</w>":7184,"gle</w>":7185,"ìŀĲê·¹":7186,"ê¸°ìĥģ":7187,"ê±°ë¦¬ë¥¼</w>":7188,"ë¹µ":7189,"ìĭľë¶ĢíĦ°</w>":7190,"ë©Ķë¦¬":7191,"ural</w>":7192,"ì§Ħìŀħ":7193,"ê²½íĹĺìĿĦ</w>":7194,"ëļ«":7195,"ì§Ħíĸīíķľëĭ¤</w>":7196,"ë§¹</w>":7197,"íķĺëĬĲ":7198,"íķĺìĦ¸ìļĶ</w>":7199,"êµ¬ê°Ħ":7200,"ê°ĳ</w>":7201,"services</w>":7202,"íĮ¨íĦ´":7203,"ì£¼ìĭĿ</w>":7204,"ìĤ¼ìĦ±ìłĦìŀĲ</w>":7205,"ìķĦìĽĥ":7206,"ê²ĢìĤ¬ë¥¼</w>":7207,"íı¬ë¥¼</w>":7208,"ëĿ¼ìļ´ëĵľ</w>":7209,"ìłģíķ©":7210,"election</w>":7211,"ìĿ¸ê°Ħ</w>":7212,"sters</w>":7213,"ë¨¹ìĿĦ</w>":7214,"issues</w>":7215,"ëĭ·":7216,"gres":7217,"addre":7218,"ìĸ¸ìłľ</w>":7219,"ìĦ°":7220,"ê°ĢëĬ¥</w>":7221,"ë¨¸ë¬¼":7222,"ìĿĮìķħ</w>":7223,"suppor":7224,"ì¹ĺìĹ´":7225,"ì¹ĺë¡ľ</w>":7226,"companies</w>":7227,"ê·¸ëł¤":7228,"ê³µíķŃ</w>":7229,"íĪ¬ìŀĲë¥¼</w>":7230,"ëĿ¼ìĿĺ</w>":7231,"sug":7232,"íĺ¸íħĶ</w>":7233,"matter</w>":7234,"wrote</w>":7235,"return</w>":7236,"íļĮìĤ¬ìĿĺ</w>":7237,"ìķĦìĿ´</w>":7238,"ìĨĲìĹĲ</w>":7239,"ê°ľìµľ</w>":7240,"ê²°ìĬ¹":7241,"ê²½ë¶ģ</w>":7242,"ially</w>":7243,"íŀĮëĭ¤</w>":7244,"pm</w>":7245,"ë³µìŀ¡":7246,"dem":7247,"thin":7248,"sam":7249,"íĺĶëĭ¤</w>":7250,"mind</w>":7251,"ìĿ´ë¥¸":7252,"ëĤĺê°ĢëĬĶ</w>":7253,"ë¬´ëł¤</w>":7254,"isl":7255,"ëĭĺìĿĢ</w>":7256,"âĳ¡</w>":7257,"cop":7258,"ot</w>":7259,"batt":7260,"ëĮĢíıŃ</w>":7261,"íĻľìļ©íķ´</w>":7262,"ìłĢì¶ķ":7263,"ìķ¨ë²Ķ</w>":7264,"whole</w>":7265,"stro":7266,"ëī´</w>":7267,"ìĸ´ëĸł":7268,"ìĤ¬ìĹħìĿ´</w>":7269,"ald</w>":7270,"ë¶Ħëħ¸":7271,"ied</w>":7272,"cost</w>":7273,"ëłģ":7274,"íĬ¸ëłĪìĿ´":7275,"ì¡°ìļ©":7276,"ìľĦìĽĲ</w>":7277,");</w>":7278,"ìĤ¬ìĹħìĿĺ</w>":7279,"ë§Įëĵ¤ìĹĪëĭ¤</w>":7280,"ì¡°ìĭ¬":7281,"ìĺĪê³ł":7282,"ne</w>":7283,"ìĿ´ìļ©íķł</w>":7284,"ìĪĺì¤Ģìľ¼ë¡ľ</w>":7285,"running</w>":7286,"ê³µê°Ħ</w>":7287,"similar</w>":7288,"earli":7289,"ìĹ°êµ¬ìĽĲìĿĢ</w>":7290,"ê¸°ìĤ¬</w>":7291,"ìĿ´ë§Ī":7292,"ì¹ĺìĿĺ</w>":7293,"ê¹Ģìłķ":7294,"ëª¨ëį¸</w>":7295,"ìĹħë¬´ë¥¼</w>":7296,"lea":7297,"ìĽĲìŀĲ":7298,"ì²©":7299,"face":7300,"sources</w>":7301,"outside</w>":7302,"ìĿį":7303,"migr":7304,"ê¸°ë§Į</w>":7305,"reason</w>":7306,"ëıĦì¿":7307,"statement</w>":7308,"ii</w>":7309,"ãģª":7310,"trav":7311,"tically</w>":7312,"released</w>":7313,"ë´Ħ</w>":7314,"ìķĦëĵ¤</w>":7315,"sequ":7316,"talk</w>":7317,"ê²łìĬµëĭĪëĭ¤</w>":7318,"ìĿ´ëĭĪ</w>":7319,"ê·¸ê±´</w>":7320,"ìĪĺìļĶê°Ģ</w>":7321,"ì§ĦíĸīëĲľëĭ¤</w>":7322,"ë²ķìĿĢ</w>":7323,"inc":7324,"role</w>":7325,"photo</w>":7326,"gets</w>":7327,"ìľĦìĽĲíļĮëĬĶ</w>":7328,"êµ¬ìĹŃ":7329,"amoun":7330,"íĺķìĿĺ</w>":7331,"ìµľìĨĮ</w>":7332,"ìŀĲê³ł</w>":7333,"cat":7334,"íķľëĤĺëĿ¼":7335,"íķµ</w>":7336,"ëķĮê°Ģ</w>":7337,"execu":7338,"ê¶ĮìĿĢ</w>":7339,"ford</w>":7340,"ëĭ¤ìĭľ":7341,"ë¹Ľ</w>":7342,"ìĹ°íķ©</w>":7343,"ìķ½ê°Ħ</w>":7344,"íĶĦë¥¼</w>":7345,"íİ¸ìĿ´ëĭ¤</w>":7346,"ìĭ¤ìĹĲ</w>":7347,"hit</w>":7348,"ìķĦíĶĦë¦¬":7349,"arch":7350,"ì§ĦìĿĺ</w>":7351,"desp":7352,"ìŀ¬ëĭ¨</w>":7353,"ìĿ¸ìĹĲê²Į</w>":7354,"playing</w>":7355,"ëªħìĺĪ":7356,"ending</w>":7357,"ì´Īê¸°</w>":7358,"íķ´ê°Ģ</w>":7359,"ê³³ìľ¼ë¡ľ</w>":7360,"technology</w>":7361,"ë¹ĦëĮĢ":7362,"enter":7363,"ëĮĢì±ħ</w>":7364,"ë¸Ķë¡Ŀ":7365,"ìķĦì¹´":7366,"íŀĺ</w>":7367,"ëģĶ</w>":7368,"short</w>":7369,"ê¸°ìĺ¨":7370,"chr":7371,"release</w>":7372,"ìĭľìķĦ</w>":7373,"ìłĪì°¨ë¥¼</w>":7374,"ìłĢì§Ģ":7375,"ìĿĺë¯¸ê°Ģ</w>":7376,"ìĹĨì§Ģë§Į</w>":7377,"ìłĦë¬¸ê°Ģ</w>":7378,"ë¬¸ìłľìĹĲ</w>":7379,"ëıĻìĿ´</w>":7380,"ìķĦëĭĮê°Ģ</w>":7381,"ìłķì²´":7382,"ì½ĺíħĲì¸ł</w>":7383,"pus":7384,"ëĳĲìĤ°":7385,"ëĮĢê²°":7386,"ì¡°ìĦ±</w>":7387,"page</w>":7388,"ë¹Ĺ":7389,"seems</w>":7390,"share</w>":7391,"mur":7392,"hours</w>":7393,"ìĹĲê²ĮìĦľ</w>":7394,"ì¡Įê³ł</w>":7395,"ì·Ħ":7396,"ë¦¬ê²Į</w>":7397,"ìĦ±ìľ¼ë¡ľ</w>":7398,"condi":7399,"gam":7400,"íĨµíķ©</w>":7401,"ìĿ´ìŀ¬":7402,"íĻķì§ĦìŀĲ</w>":7403,"êµ¬ë§¤</w>":7404,"usi":7405,"ìĭ¬ê°ģíķľ</w>":7406,"ê°ĲìĤ¬íķ©ëĭĪëĭ¤</w>":7407,"online</w>":7408,"ìľłëªħíķľ</w>":7409,"ìķĦíĶ":7410,"watch</w>":7411,"ìķĦëĭĪìĹĪëĭ¤</w>":7412,"ë¥Ń":7413,"above</w>":7414,"spir":7415,"ìļ¸ìĤ°</w>":7416,"by":7417,"ìĨįëıĦ</w>":7418,"progr":7419,"ìĽ¨ìĿ´":7420,"reas":7421,"foot":7422,"science</w>":7423,"ëıĻìĿĺ</w>":7424,"ê·¸ë§Įíģ¼</w>":7425,"ëĭ¹ê³¼</w>":7426,"ìŀĦìĭľ":7427,"ê±´ìĿ´</w>":7428,"quar":7429,"aìĶ¨ëĬĶ</w>":7430,"´ëĭ¤</w>":7431,"term</w>":7432,"ë°Ģ</w>":7433,"ë¹ĦìĦľ":7434,"ìĥĿê°ģíķĺëĬĶ</w>":7435,"íĲ":7436,"tation</w>":7437,"ìłģê·¹ìłģìĿ¸</w>":7438,"ì½©</w>":7439,"''</w>":7440,"ìķķë°ķ":7441,"ì·¨ëĵĿ":7442,"ê´Ģê´ĳ</w>":7443,"march</w>":7444,"ëĭ¹ìĹĲ</w>":7445,"ìłĢìŀ¥":7446,"director</w>":7447,"ê¸°ìķĦ":7448,"ëĵľìĹĲìĦľ</w>":7449,"sense</w>":7450,"ê¸°ë°ĺ</w>":7451,"ìŀ¬ë¬´":7452,"mal":7453,"ì§ģíĽĦ</w>":7454,"ë³ĳìĽĲ":7455,"ë³ĳìĿĦ</w>":7456,"ë¬¼ëŁ¬":7457,"ìĹ°êµ¬ìĽĲ</w>":7458,"íİ¸ì§ĳ":7459,"compu":7460,"íĴĢìĿ´":7461,"ë°ľìłĦìĿĦ</w>":7462,"tee</w>":7463,"ë²łë¥´":7464,"event</w>":7465,"ë©´ìłģ</w>":7466,"ë¬¼ì§Ī":7467,"cli":7468,"simply</w>":7469,"ìĩ¼</w>":7470,"íĶĦë¡ľìłĿíĬ¸</w>":7471,"ìłĦíķ´ì¡Įëĭ¤</w>":7472,"road</w>":7473,"ëĭ¬íķĺëĬĶ</w>":7474,"ì¶ķìłľ</w>":7475,"íķ´ì¡Įëĭ¤</w>":7476,"ìłĲì°¨</w>":7477,"ì°¨ëĭ¨":7478,"ê²Ł":7479,"æĿ":7480,"ì£¼ìĹĪëĭ¤</w>":7481,"espec":7482,"ly":7483,"ëį°ë·Ķ":7484,"ëŃĶê°Ģ</w>":7485,"super":7486,"íŀĲ</w>":7487,"íĺĦëĮĢ</w>":7488,"http</w>":7489,"ì·¨ê¸ī":7490,"ê³µê¸ī</w>":7491,"ìĤ¬ìļ°":7492,"ì¡°ìłĪ":7493,"íĤ¤ë¡ľ</w>":7494,"ë°©ìķĪ</w>":7495,"íĨµìĥģ":7496,"fig":7497,"lost</w>":7498,"custom":7499,"ìķĪë³´":7500,"ëĤłìķĦ":7501,"ë¶ĦìľĦê¸°ë¥¼</w>":7502,"ëıĮìķĦê°Ģ":7503,"ìĺ¬ë¦°</w>":7504,"ìľłíĬľë¸Į</w>":7505,"nation</w>":7506,"åį":7507,"êµŃë¯¼ìĿĺ":7508,"ìĿ¸êµ¬</w>":7509,"article</w>":7510,"standing</w>":7511,"ëĭ¬ìĿĦ</w>":7512,"mean</w>":7513,"ìĭ¤ìĿ´</w>":7514,"ãħĩ</w>":7515,"ê¶Įíķľ":7516,"ìĿĢíĸīìĿĢ</w>":7517,"dol":7518,"ìŀħì£¼":7519,"ìľ¼ëĭĪê¹Į</w>":7520,"ì£½ìĿĮ":7521,"ëĪĪê¸¸ìĿĦ</w>":7522,"ìĸ´ëĬĲ":7523,"ìĹĲìĦľë§Į</w>":7524,"extr":7525,"lead</w>":7526,"ìĭłì¢ħ</w>":7527,"proper":7528,"changes</w>":7529,"ìĤ¬ëŀĮëĵ¤</w>":7530,"ìĭĿìĹĲ</w>":7531,"ìŀĪìĹĪì§Ģë§Į</w>":7532,"ê·¸ìłĢ</w>":7533,"ìłľëª©":7534,"ìłķíķĺëĬĶ</w>":7535,"ìĹ°ê¸Ī":7536,"especially</w>":7537,"record</w>":7538,"ÃĹ</w>":7539,"ê¸°ê´ĢìĿĺ</w>":7540,"ìł¸ìĦľ</w>":7541,"ê¿ĪìĿĦ</w>":7542,"religi":7543,"ìŀĦê¸Ī</w>":7544,"ìĿ´íĸī":7545,"ë°ĺëĮĢ</w>":7546,"'ll</w>":7547,"ìľĦìĻĢ</w>":7548,"ãĢī</w>":7549,"ê¸´ëĭ¤</w>":7550,"shot</w>":7551,"ites</w>":7552,"sw":7553,"ìĸ´ëĳ":7554,"despite</w>":7555,"éĩ":7556,"figh":7557,"tou":7558,"abl":7559,"'âĢ¦</w>":7560,"moder":7561,"ë¶Ģì²ĺ":7562,"ìĿ´ê²ĥìĿ´</w>":7563,"ky</w>":7564,"words</w>":7565,"ìĺģìĸ´":7566,"ìŀĪìĿĮìĿĦ</w>":7567,"ê´ĢìĹĲ</w>":7568,"ìĪĺìĽĲ</w>":7569,"ìĭ¤ë¡ľ</w>":7570,"íķ´ëĭ¹íķĺëĬĶ</w>":7571,"scienti":7572,"ì§ģíķľ</w>":7573,"ìĥģëĭ¹íķľ</w>":7574,"institu":7575,"ìľ¡ìĦ±":7576,"ê³łëĵ±íķĻêµĲ</w>":7577,"flo":7578,"ìĨĮíĶĦíĬ¸":7579,"ì¡°ìĽĲ</w>":7580,"ëªħìĿ´ëĭ¤</w>":7581,"ë²¤ì²ĺ":7582,"ìĿ¼ê°Ħ</w>":7583,"ì§Ħë³´":7584,"ê±´ìĿĺ</w>":7585,"ë¶Ģë¶ĦìĿ´</w>":7586,"industry</w>":7587,"ë²ķë¥ł</w>":7588,"ë¬¸ìłľë¡ľ</w>":7589,"ì§ģìĿĦ</w>":7590,"íĥĢë¥¼</w>":7591,"shoo":7592,"graph":7593,"ì¢ħíķ©</w>":7594,"ê¹Ģìĺģ":7595,"provide</w>":7596,"ëĿ¼ìĦľ</w>":7597,"ë¥ĺê°Ģ</w>":7598,"phys":7599,"ìķĦë¬´ëŁ°</w>":7600,"himself</w>":7601,"multi":7602,"cred":7603,"ì¤ĳê³µ":7604,"ê¾¹":7605,"ëıĦëĤ´</w>":7606,"êµ¬íĺĦ":7607,"ë¬´ìĦľ":7608,"ìĿ´ëĵł</w>":7609,"ëĭ¨ìĪľíŀĪ</w>":7610,"began</w>":7611,"ìĮĢ":7612,"site</w>":7613,"íĶĦë¦¬ë¯¸ìĹĦ</w>":7614,"ì²´íĹĺ</w>":7615,"ë¡ľìį¨</w>":7616,"ê¹Ĳ</w>":7617,"ì¤ĳê°Ħ":7618,"groups</w>":7619,"ìĭłìĦ¤":7620,"ìĿ´ìĥģìĿĦ</w>":7621,"tun":7622,"ìĦ¸ìĹĲ</w>":7623,"ìĦłìłķ</w>":7624,"ê°Ģêµ¬":7625,"ìĹ¬ë¦Ħ</w>":7626,"ë³´ë©´ìĦľ</w>":7627,"(-</w>":7628,"evidence</w>":7629,"ê¸°íļĮê°Ģ</w>":7630,"global</w>":7631,"ìĺĽ</w>":7632,"ìľłëĭĽ":7633,"ëĬ¥ëł¥ìĿ´</w>":7634,"strong</w>":7635,"ì§ĢìĹŃìĿĦ</w>":7636,"ìĿ¸ìĤ¬</w>":7637,"ê±°ë¦¬ê°Ģ</w>":7638,"ë¬´ê¸°</w>":7639,"kt</w>":7640,"ì¹ľíĻĺê²½</w>":7641,"ìŀĪìľ¼ëĭĪ</w>":7642,"facebook</w>":7643,"suff":7644,"íĻľìĦ±íĻĶ</w>":7645,"countries</w>":7646,"ë§Ĳíķł</w>":7647,"became</w>":7648,"ìĿį</w>":7649,"ëĬĺìĸ´ëĤĺ":7650,"ëª¨ë¥¸ëĭ¤</w>":7651,"ê·¸ë¦°</w>":7652,"ìĵ°ëłĪ":7653,"ination</w>":7654,"mark</w>":7655,"ê·¸ëĵ¤ìĿ´</w>":7656,"ìĭľìŀĳ</w>":7657,"ib":7658,"ëıĦë§Ŀ":7659,"saw</w>":7660,"ëĮĢíļĮ":7661,"pretty</w>":7662,"ëįķ</w>":7663,"ê·¸ë¦°":7664,"ëħ¸ì¶ľ":7665,"imp":7666,"ìĤ¬ëĵ¤ìĿ´</w>":7667,"piec":7668,"ë§Īë¦¬":7669,"ìĿ´ìĬ¤":7670,"ë²Ħë¦°</w>":7671,"situ":7672,"ìĦ¸ìĥģìĿĦ</w>":7673,"clim":7674,"ìĬ¤ë§ĪíĬ¸íı°":7675,"ë°ľë§¤":7676,"ëıĻìĹĲ</w>":7677,"ìĥĿê¸´</w>":7678,"ìĿ¼ëıĦ</w>":7679,"ì¦Ŀëªħ":7680,"íĨµê³Ħ":7681,"ë§Īì¼ĢíĮħ":7682,"zz":7683,"~~":7684,"forward</w>":7685,"ìĿ´ë¥¸ë°Ķ</w>":7686,"od</w>":7687,"itself</w>":7688,"ë¶Īê°ĢëĬ¥":7689,"íķŃê³µ</w>":7690,"sor":7691,"ê·¸ë¦¬ìĬ¤":7692,"ìľłê¸°":7693,"vision</w>":7694,"íķĻìĿĦ</w>":7695,"tter</w>":7696,"crimin":7697,"duce</w>":7698,"ê¸°êµ¬</w>":7699,"ëĭ¤ë¥´ëĭ¤</w>":7700,"build</w>":7701,"diffic":7702,"rely</w>":7703,"ìĹĪëĭ¤ê³ł</w>":7704,"ples</w>":7705,"ëĪĪìĿ´</w>":7706,"ìħ°":7707,"pay":7708,"ì¡°ìłķ</w>":7709,"ê»ĺìĦľ</w>":7710,"ìļ´íĸī":7711,"ëĮĢìĿĳ</w>":7712,"ëıĻë£Į":7713,"ì§ĪíĻĺ":7714,"ë·°</w>":7715,"íĢĺ":7716,"ken</w>":7717,"related</w>":7718,"kore":7719,"å°":7720,"ëª©ìĨĮë¦¬ê°Ģ</w>":7721,"ells</w>":7722,"ìĺ¥</w>":7723,"ì£¼ìļĶ":7724,"via</w>":7725,"ê¸´ê¸ī":7726,"ê³µë¬´ìĽĲ":7727,"movi":7728,"ìĪľíĻĺ":7729,"ë³´ìĥģ":7730,"ìĭ¤íĸī":7731,"ì²łëıĦ</w>":7732,"earlier</w>":7733,"ì£¼ì£¼":7734,"ê·ł</w>":7735,"ê´Ģê´ĳê°Ŀ":7736,"vote</w>":7737,"ref":7738,"'.</w>":7739,"aged</w>":7740,"ìĦĿìľł":7741,"ë£¸":7742,"ìĸ¸ëĭĪ":7743,"iev":7744,"wasn</w>":7745,"ì°¨ì§ĢíĸĪëĭ¤</w>":7746,"íĺĦìŀ¥ìĹĲìĦľ</w>":7747,"ëģĿê¹Įì§Ģ</w>":7748,"íķłì§Ģ</w>":7749,"ìĸ¸ìłľëĤĺ</w>":7750,"ë³´ëıĦíĸĪëĭ¤</w>":7751,"ìĥĪëĪĦë¦¬ëĭ¹</w>":7752,"íĴįë¶Ģ":7753,"ê¸°ìŀĲ</w>":7754,"ë§ŀìĿĢ</w>":7755,"ìĹĶíĦ°":7756,"ê°ľë°©":7757,"gs":7758,"ê²Įìĭľ":7759,"ìłĢëł´":7760,"ìĬµëĭĪê¹Į</w>":7761,"íĴĢ</w>":7762,"needs</w>":7763,"æ°":7764,"windo":7765,"ëĭ¤ìļ´":7766,"anti</w>":7767,"ê²ĢìĿĢ</w>":7768,"ê³łìļĶ</w>":7769,"ìĦĿìĿ´</w>":7770,"ì´ĪìĹĲ</w>":7771,"íĻľìļ©íķľ</w>":7772,"âĢ¦'</w>":7773,"ìľłìĿ¼íķľ</w>":7774,"ìłĳìĪĺ":7775,"ìĿ¼ëŁ¬":7776,"ê·¸ëĤĺë§Ī</w>":7777,"ìŀĪê²ł":7778,"ìĪĺìĪł":7779,"ì¶ľìłĦ":7780,"ë°©ë¬¸</w>":7781,"ëĭ¤ëħĢ":7782,"ëĭµë³Ģ":7783,"ìĤ¬ëł¹":7784,"íķ©ê²©":7785,"ì´Īëĵ±íķĻêµĲ</w>":7786,"ì´Ŀë¦¬ëĬĶ</w>":7787,"forman":7788,"chie":7789,"ê°Ĳìłķ":7790,"ìĹĲìĬ¤":7791,"needed</w>":7792,"ê¸°ë°ĺìľ¼ë¡ľ</w>":7793,"near</w>":7794,"ëį¸":7795,"ê±°ëĵŃ":7796,"íķĺìħ¨":7797,"iter":7798,"ì£¼ìĭľ</w>":7799,"íĮĲìłķìĿĦ</w>":7800,"uk</w>":7801,"themselves</w>":7802,"quite</w>":7803,"ë²ķìłģ</w>":7804,"ë§ŀì¶¤íĺķ</w>":7805,"sh</w>":7806,"ìŀĪìĹĪëĬĶëį°</w>":7807,"ì£¼ê´Ģ":7808,"vers</w>":7809,"ìĭľíĭ°</w>":7810,"ë³´ìĹ¬</w>":7811,"ìĹĲëĦĪì§Ģ":7812,"ëª©ìĨĮë¦¬ë¥¼</w>":7813,"ìĭ¬ìĿĺ":7814,"ìĥģíĥľë¡ľ</w>":7815,"ìĪĺì¤Ģ</w>":7816,"'d</w>":7817,"íĽĮë¥Ń":7818,"power":7819,"ìłł</w>":7820,"ê¹Įì§ĢëıĦ</w>":7821,"ban</w>":7822,"ggest</w>":7823,"ì»¨ìĦ¤":7824,"ëĤ´ëł¸ëĭ¤</w>":7825,"ë¶Ģë¶ĦìĿĦ</w>":7826,"ìĿ´ê°ĻìĿĢ</w>":7827,"ë§İìķĦ</w>":7828,"ì§ĳì¤ĳ</w>":7829,"íĺ¼ëŀĢ":7830,"friends</w>":7831,"shows</w>":7832,"ìŀ¥ëĤľ":7833,"style</w>":7834,"ìłĲê³¼</w>":7835,"ëĿ½ìĿĦ</w>":7836,"íĸīìľĦë¥¼</w>":7837,"google</w>":7838,"na</w>":7839,"finan":7840,"íķľë§Ī":7841,"ìĸ´ì©Į":7842,"ê·¼ë³¸":7843,"ìłĢëħģ":7844,"ìĦ¸ëĬĶ</w>":7845,"ìłľìĻĢ</w>":7846,"ticip":7847,"ê¿Ģ":7848,"bul":7849,"ìĽĮìĦľ</w>":7850,"ì¡°ìĸ¸":7851,"ì°½ìĽĲ":7852,"ë¶Īë¦¬ëĬĶ</w>":7853,"ê°ĢìĪĺ</w>":7854,"ìĿ¸ìĥģ</w>":7855,"include</w>":7856,"ìĺģìĸ´</w>":7857,"ective</w>":7858,"ëĤ´ìĿ¼</w>":7859,"ìłľìķ½":7860,"ìŀ¥íķĻ":7861,"ìķĦìļ°":7862,"ba</w>":7863,"ë¦ĩ":7864,"total</w>":7865,"íĸīìľĦ</w>":7866,"ìľĦíķ´ìĦľ":7867,"midd":7868,"langu":7869,"ê·¸ëłĩëĭ¤ë©´</w>":7870,"ëĭµíĸĪëĭ¤</w>":7871,"êµ¬ìĹŃ</w>":7872,"ë¡ľìŀ¡":7873,"recently</w>":7874,"tivity</w>":7875,"ëĤ´ê¸°</w>":7876,"ìłĦê¹Įì§Ģ</w>":7877,"fight</w>":7878,"ìĺ·ìĿĦ</w>":7879,"ëĬĲëĤĦ</w>":7880,"íĺĲìĿĺë¥¼</w>":7881,"ìłĦëŀµìĿĦ</w>":7882,"ì¤ĳìĿĺ</w>":7883,"ìĭĿìĿĢ</w>":7884,"ì§Ģëĭ¤</w>":7885,"ìĥģìŀ¥":7886,"íıīìĨĮ</w>":7887,"ìķŀ</w>":7888,"ë¬´ë¦":7889,"candi":7890,"íľ´ëĮĢ":7891,"ìĹ´ìĸ´</w>":7892,"ìĿĺìķ½":7893,"ë°ĺëĮĢë¡ľ</w>":7894,"sent</w>":7895,"ëĤĺìĿ´</w>":7896,"ì§ĢìŀĲì²´":7897,"ìķ¡ìĿĦ</w>":7898,"ìłľëıĦë¥¼</w>":7899,"íĦ±":7900,"ìķĮëł¤ì§Ħ</w>":7901,"ëĲĲëįĺ</w>":7902,"ìĺģìĹħìĿ´ìĿµ":7903,"ìĿ´ê¸°":7904,"ê·¸ëŁ¼":7905,"ìĭ¤ìĿĢ</w>":7906,"common</w>":7907,"ìĿ´ìĤ¬</w>":7908,"ìŀĳíĴĪìĿĦ</w>":7909,"ì£½ìĿĢ</w>":7910,"ì§ĢìĽĲíķĺëĬĶ</w>":7911,"ìŃ":7912,"ì¢ħìĿ´</w>":7913,"íļĮìŀ¥ìĿ´</w>":7914,"ì§ľë¦¬</w>":7915,"ì§Ģìĭľ":7916,"cn":7917,"applic":7918,"ë§ĺ":7919,"ìĹ°ìĺĪ":7920,"interest</w>":7921,"ì¢ĭìķĦ</w>":7922,"minister</w>":7923,"ì¡°ìŀĳ":7924,"sle":7925,"ê·¸ëŁ¬íķľ</w>":7926,"promis":7927,"held</w>":7928,"ì¹´ì¹´ìĺ¤":7929,"íļĮê³Ħ":7930,"íĥĦìĥĿ":7931,"íĺ¸ìĨĮ":7932,"ë²Ħëł¸ëĭ¤</w>":7933,"god</w>":7934,"ë¹ĦìĿĺ</w>":7935,"ë§¤ëĭĪ":7936,"ëª©ìłģìľ¼ë¡ľ</w>":7937,"ãħĭãħĭãħĭãħĭãħĭãħĭ</w>":7938,"ìĨĶë£¨":7939,"ston</w>":7940,"ëĵ¤ìĹ¬":7941,"ê°Ģìĭľ":7942,"ë³¸ê²©ìłģìĿ¸</w>":7943,"ì§Ħìłķíķľ</w>":7944,"ëĤ¨ìĦ±":7945,"ì°©ìļ©":7946,"ë¡ľìĦľìĿĺ</w>":7947,"model</w>":7948,"ìĥīìĿĦ</w>":7949,"ë¶ĪìĿĦ</w>":7950,"ê³µìĤ¬":7951,"ëĤ«":7952,"íĶĮëŀĺ":7953,"ë¯¸ê°Ģ</w>":7954,"ìłķë¶ĢìĻĢ</w>":7955,"ì°½ìĿĺ":7956,"dd</w>":7957,"âĹı</w>":7958,"ë°©ìĭĿìĿĦ</w>":7959,"íĮ¨ë¥¼</w>":7960,"ì¢ħìĤ¬":7961,"ëĪĮ":7962,"ê²°ìłķìĿĦ</w>":7963,"ëł¤ìĦľ</w>":7964,"ì¶ľíĮĲ":7965,"ìĥģëĮĢ</w>":7966,"band</w>":7967,"ê¸°ëıħ":7968,"jects</w>":7969,"ë²Īíĺ¸</w>":7970,"ìĤ¬ëŀĮëĵ¤ìĿĦ</w>":7971,"ìĿ´ìłľ":7972,"consum":7973,"network</w>":7974,"ìĦ¬</w>":7975,"ills</w>":7976,"ê¸°ë¡ĿìĿĦ</w>":7977,"ë¹Ħë¡Ŀ</w>":7978,"fran":7979,"ìĿ´ìĹĲìļĶ</w>":7980,"ëĲĺê¸°ëıĦ</w>":7981,"dig":7982,"augh":7983,"íĶĮëŀ«íı¼</w>":7984,"ë¶Ħìķ¼ìĹĲìĦľ</w>":7985,"official</w>":7986,"ror</w>":7987,"ìĭ±</w>":7988,"rate</w>":7989,"ë°°ê°Ģ</w>":7990,"ëıĪìĿ´</w>":7991,"ì§§ìĿĢ</w>":7992,"ìĶ¨ìĻĢ</w>":7993,"ìĿ´ëªħ":7994,"êµ¬ì¶ķ</w>":7995,"tory</w>":7996,"ìĿ´ëŁ°":7997,"ìĺģìĽħ":7998,"ë¡ľë´ĩ":7999,"ìĦ±ìŀ¥ìĿĦ</w>":8000,"ëĭ¹ë¶ĢíĸĪëĭ¤</w>":8001,"ë§ĪìĬ¤íģ¬</w>":8002,"ëĦĵìĿĢ</w>":8003,"ìĿ¸ëł¥</w>":8004,"ìĿĺì¡´":8005,"ë°ľíĳľ</w>":8006,"ëĿ¼ê°Ģ</w>":8007,"ided</w>":8008,"ë©Ķë¥´":8009,"val</w>":8010,"sa</w>":8011,"êµ°ìĹĲ</w>":8012,"ë²ħ":8013,"ì§ĢìĪĺ</w>":8014,"ëĬĺìĸ´ëĤľ</w>":8015,"ë§Ĳíķ´</w>":8016,"ë¶Ģì¡±íķľ</w>":8017,"price</w>":8018,"ê°Ģë©°</w>":8019,"íģ¬ëĬĶ</w>":8020,"ìĦŃ</w>":8021,"ìĪľìľĦ</w>":8022,"ìĦ¹":8023,"ëĮĢì±ħìĿĦ</w>":8024,"add</w>":8025,"ains</w>":8026,"ëıĻê¸°</w>":8027,"íĹ¨":8028,"performan":8029,"expected</w>":8030,"âħ":8031,"ìĭľìĺ¤</w>":8032,"íĻĺê²½ìĿĦ</w>":8033,"==":8034,"ìķ¨ë²Ķ":8035,"lv</w>":8036,"ì§Īë¬¸ìĹĲ</w>":8037,"íģ¬ê°Ģ</w>":8038,"ìŀĲëĵ¤</w>":8039,"sk</w>":8040,"ì¡°ì§ģ</w>":8041,"ìĦ¤ëĵĿ":8042,"anyone</w>":8043,"ì¹ĺê¸°</w>":8044,"ì§ĢìĿ¸</w>":8045,"pose</w>":8046,"ì°¸ì¡°</w>":8047,"else</w>":8048,"ìķķëıĦ":8049,"ê²½ê¸°ëıĦ":8050,"ìĬ¹ë¦¬ë¥¼</w>":8051,"step</w>":8052,"íĴĢìĸ´":8053,"ì¦īìĭľ</w>":8054,"ë°±íĻĶìłĲ</w>":8055,"ê³Ħê¸°ë¡ľ</w>":8056,"ì¤ĳìĭ¬ìĿĺ</w>":8057,"ë³´ìĹ¬ì£¼ëĬĶ</w>":8058,"ìĿ´ìĽĥ":8059,"ìĿ¼ìĥģ":8060,"ëĭ¿":8061,"ìĺ¤ìĹ¼":8062,"easy</w>":8063,"ë²łíĬ¸ëĤ¨</w>":8064,"syst":8065,"emer":8066,"ê±¸ìĸ´":8067,"íķĺëĿ¼ê³ł</w>":8068,"necess":8069,"conserv":8070,"gan</w>":8071,"ëĵľëłĪ":8072,"ì¤ĳìĨĮê¸°ìĹħ</w>":8073,"ë»Ķ":8074,"ê²°ìłķ</w>":8075,"ëĪĦìłģ</w>":8076,"ìĥģìŀĦ":8077,"ìĿ´ìĬĪ":8078,"original</w>":8079,"ë¹Ħì¤ĳìĿ´</w>":8080,"ìµľëĮĢ":8081,"ì§ĢìŀĲ</w>":8082,"íĺķìĿĢ</w>":8083,"lower</w>":8084,"ìļ°ìĬ¹</w>":8085,"ìĹ´ë¦°ëĭ¤</w>":8086,"ì£¼ìĦ¸ìļĶ</w>":8087,"believ":8088,"ë²ł</w>":8089,"opport":8090,"ê°Ģë§¹":8091,"ìµľëĮĢíķľ</w>":8092,"ë§ŀê²Į</w>":8093,"mental</w>":8094,"íĭ´</w>":8095,"em</w>":8096,"ë¬¸íĻĶë¥¼</w>":8097,"ìĿ´ê°ĻìĿ´</w>":8098,"ê²ĮìŀĦìĿĦ</w>":8099,"actions</w>":8100,"ìħľ":8101,"íĿĺëŁ¬":8102,"follow</w>":8103,"íĨµìłľ":8104,"ìłĦê³¼</w>":8105,"ì¡°ìĹĲ</w>":8106,"ë°ĶëŀĮìĹĲ</w>":8107,"ê´Ģëł¨íķľ</w>":8108,"design</w>":8109,"gun</w>":8110,"ony</w>":8111,"ë¯¼ìĿĺ</w>":8112,"ì¢ĭê²łëĭ¤</w>":8113,"webs":8114,"ìĹ°êµ¬ìĨĮ</w>":8115,"ê°Ģë¦¬":8116,"ê°ĻìĿĢ":8117,"ëĭ¤ëĭĪ</w>":8118,"ìĹĦë§Ī</w>":8119,"],</w>":8120,"inten":8121,"ë¯¸ìķĪ":8122,"ëĭ¤ìĿĮëĭ¬</w>":8123,"íķľêµŃìĿĢ</w>":8124,"jap":8125,"pc</w>":8126,"íĸĪìĸ´ìļĶ</w>":8127,"ë¦¬ìĬ¤</w>":8128,"aug":8129,"ëķĲ</w>":8130,"íĶĮëŀ«íı¼":8131,"ìĪĻ</w>":8132,"ê°ĻìķĦìļĶ</w>":8133,"heav":8134,"mee":8135,"ì§ĳìľ¼ë¡ľ</w>":8136,"ì²ŃìĨĮëħĦ</w>":8137,"ìłľìĸ´":8138,"mission</w>":8139,"invest":8140,"ë°Ń":8141,"ìĿ¸ê·¼":8142,"ë¸Įëŀľëĵľ":8143,"higher</w>":8144,"tan":8145,"ê°Ģìķ¼</w>":8146,"ì¦ĺ":8147,"ëĭ¹ìĤ¬":8148,"íķľìłķ":8149,"ë§¤ê°ģ":8150,"june</w>":8151,"ìĬ¤ë§ĪíĬ¸</w>":8152,"íķĺëĬĶì§Ģ</w>":8153,"ì°Į</w>":8154,"ë³´ìĻĦ":8155,"larg":8156,"indic":8157,"ëĭ®":8158,"ìĻ¸ë¶Ģ</w>":8159,"ìĸĳìĿĦ</w>":8160,"ìŀĪìĿĦê¹Į</w>":8161,"íķĦìĪĺ":8162,"íĮ¨ìħĺ":8163,"wide</w>":8164,"ë§ĪìĿĮ</w>":8165,"ê³µíı¬":8166,"ìĦ¸ìĿĺ</w>":8167,"ìĦ¤ìĿĦ</w>":8168,"ìºĶ":8169,"ëłĪë²¨":8170,"ëª¸ìĿ´</w>":8171,"ê°ĻìĿĢëį°</w>":8172,"æŃ":8173,"íĲģ":8174,"ë©Ķëī´":8175,"inj":8176,"ê°ķìłľ":8177,"ê³µê°ĦìĿĦ</w>":8178,"ëĮĢìĥģìĿ´</w>":8179,"ëħ¸ìĿ¸":8180,"ìĤ¬ìĿ´ìĿĺ</w>":8181,"ìĿ´ëıĻ</w>":8182,"ìĽĮíģ¬</w>":8183,"ëª¨ìľ¼":8184,"soon</w>":8185,"ë¶ĦëªħíŀĪ</w>":8186,"ë³µì§Ģ</w>":8187,"íĻķìĿ¸</w>":8188,"íĹĮë²ķ":8189,"ëħ¸ëŀĺ</w>":8190,"sign</w>":8191,"ìłĦëł¥":8192,"ìŀĦìĿ´</w>":8193,"ìĦ¼</w>":8194,"ìĽĶìĹĲëĬĶ</w>":8195,"park</w>":8196,"wers</w>":8197,"private</w>":8198,"chur":8199,"íĥķ</w>":8200,"ì¹ĺë©°</w>":8201,"ë¶Ģìŀ¥":8202,"ë§ĲëıĦ</w>":8203,"íı¬ì§Ģ":8204,"íħĮë§Ī":8205,"ìľĦê¸°":8206,"weeks</w>":8207,"ì¹ĺë£Į</w>":8208,"results</w>":8209,"ê²ĥìĿ´ê³ł</w>":8210,"ëª°</w>":8211,"ìł¸ìķ¼</w>":8212,"íĬ¹íĹĪ":8213,"ëĭ¨ê³¼</w>":8214,"colle":8215,"ë¸Ķë£¨":8216,"ì¦ĿìĿ´</w>":8217,"distr":8218,"ìĦľìļ¸ìĭľ</w>":8219,"ìŀ¬ëĬĶ</w>":8220,"ìĨĲíķ´":8221,"ê¸°ì¤ĢìĿĦ</w>":8222,"certain</w>":8223,"ê·¸ëŁ¬ë©´</w>":8224,"eg":8225,"ëĭ¤ëĭĪëĬĶ</w>":8226,"strate":8227,"íıĲê¸°":8228,"ëª¬</w>":8229,"fa</w>":8230,"ì§ĢëĭĮ</w>":8231,"ìĺ¬ëĿ¼</w>":8232,"ì²ŃëħĦ</w>":8233,"íı¬ë¥´":8234,"ìŀ¬ë¡ľ</w>":8235,"esses</w>":8236,"íĩ´</w>":8237,"ìĪĺìĺģ":8238,"êµĲíĨµ</w>":8239,"ìĭľëĭ¤</w>":8240,"ëĭĲ":8241,"ê½ĥ</w>":8242,"child</w>":8243,"ì²´ëĬĶ</w>":8244,"ìĤ°ìĹħìĿĺ</w>":8245,"ìıł":8246,"íĽĦë³´ê°Ģ</w>":8247,"ëĤ´ëĤ´</w>":8248,"ì»¬ëŁ¬":8249,"ë¶Ģì§Ģ":8250,"stra":8251,"ìĿ´ë¦ĦìĿ´</w>":8252,"ì¹´ëĵľë¥¼</w>":8253,"fem":8254,"ìķĦìĿ´ê°Ģ</w>":8255,"increas":8256,"ìłģìłĪíķľ</w>":8257,"ëĴ¤ë¥¼</w>":8258,"ê³łê¸°</w>":8259,"dr</w>":8260,"hope</w>":8261,"content</w>":8262,"íķĺë°ĺê¸°</w>":8263,"ëį°ìļĶ</w>":8264,"ë¹Ħìļ©ìĿĦ</w>":8265,"ê°Ģê²Į</w>":8266,"ìĽĶëĵľì»µ</w>":8267,"moved</w>":8268,"ëĬ¦ê²Į</w>":8269,"ê¸°ëĮĢëĲľëĭ¤</w>":8270,"ë³´íĺ¸</w>":8271,"ades</w>":8272,"ëķĮìĹĲëĬĶ</w>":8273,"ëħ¸ì¡°</w>":8274,"corpor":8275,"ë¡ľëĵľ":8276,"hold</w>":8277,"ìļ°ìĪĺíķľ</w>":8278,"ë¶Ģëĭ´ìĿĦ</w>":8279,"ì¤Ģë¹Ħ</w>":8280,"ol</w>":8281,"ê°ĸëĬĶ</w>":8282,"ë¹ĦêµĲìłģ</w>":8283,"ëª©íĳľë¥¼</w>":8284,"íĪ¬ëªħ":8285,"ìłĢëħģ</w>":8286,"prote":8287,"acked</w>":8288,"republican</w>":8289,"ë³´ê¸ī":8290,"íķłê¹Į</w>":8291,"êµĲíĻĺ":8292,"syri":8293,"ìĻ¸ìĿĺ</w>":8294,"ìŀłìŀ¬":8295,"íĮĮíĬ¸ëĦĪ":8296,"ìłĦìľ¼ë¡ľ</w>":8297,"ë°ľìĥĿíķĺëĬĶ</w>":8298,"ëĮĢíĻĶë¥¼</w>":8299,"ìĦ¸ìĽĶíĺ¸</w>":8300,"extre":8301,"ëıĻìĿ¼íķľ</w>":8302,"ny</w>":8303,"ê³Ħì¸µ":8304,"ë§ĪìĿĮìĹĲ</w>":8305,"íİ¸ë¦¬":8306,"ëĭ¤ë¥´ê²Į</w>":8307,"tiz":8308,"foreign</w>":8309,"ìŀĲëĵ¤":8310,"ì¤ĳìĹĲëĬĶ</w>":8311,"ìµľì´ĪìĿĺ</w>":8312,"longer</w>":8313,"ê²½ìŁģëł¥ìĿĦ</w>":8314,"ìĿ´ìľł</w>":8315,"ìķ¼êµ¬</w>":8316,"tom</w>":8317,"âĻ":8318,"íķľë²Ī":8319,"ë³´ìķĪ":8320,"ìĸ´ê¹¨":8321,"ë¦¬ê·¸":8322,"ìĤ¬ìľł":8323,"ìĤ´ìĿĦ</w>":8324,"ì¹ĺë£Įë¥¼</w>":8325,"ìĥģìĹħ":8326,"ìħĶìĦľ</w>":8327,"ëĵ±ìŀ¥</w>":8328,"ëĿ¼ë¥¼</w>":8329,"íıĲ</w>":8330,"ê°ľìĿ¸ìĿĺ</w>":8331,"íĸ¥ìĥģ":8332,"íĥĳìŀ¬":8333,"cm</w>":8334,"ë²Ķíķľ</w>":8335,"íĽĦìĿĺ</w>":8336,"ìĿ¼ì£¼":8337,"ìľłëıĻ":8338,"ka</w>":8339,"ìŀ¥ë©´":8340,"ë§Įëªħ</w>":8341,"ë°ľìĤ¬":8342,"ê±°ë¡ł":8343,"ìĤ¬ê±´ìĿ´</w>":8344,"administration</w>":8345,"íĻĢ</w>":8346,"austr":8347,"ìºĲëĤĺ":8348,"ãİ¡":8349,"ìłĪë°ĺ":8350,"inside</w>":8351,"ìĨĲìľ¼ë¡ľ</w>":8352,"mater":8353,"ë²Įìį¨</w>":8354,"email</w>":8355,"billion</w>":8356,"ë£¬</w>":8357,"ry":8358,"ëģĹ":8359,"ìĦ¸ëĮĢ":8360,"ê¸°ë¡Ŀíķľ</w>":8361,"ìĦĿìĿĢ</w>":8362,"club</w>":8363,"ëĤ´ë¦¬":8364,"ì§Ģë°©ìŀĲì¹ĺ":8365,"ê¸īì¦Ŀ":8366,"ê¸°ìĹħìĹĲ</w>":8367,"intro":8368,"íķĦìļĶ</w>":8369,"nh":8370,"ê³łëł¹":8371,"refer":8372,"lon":8373,"potential</w>":8374,"ì¶©ëĤ¨":8375,"ìĿĺíķĺë©´</w>":8376,"ë³´ì¡°":8377,"ëģĿëĤľ</w>":8378,"un</w>":8379,"\".</w>":8380,"ìĹĲíĶ¼":8381,"ê°ĲìĨĮ</w>":8382,"ìĺ¤ë©´</w>":8383,"?'</w>":8384,"ëĤ´ëĭ¤":8385,"workers</w>":8386,"ìĿ´ìľłê°Ģ</w>":8387,"íħĲëį°</w>":8388,"created</w>":8389,"ë³¸ê²©ìłģìľ¼ë¡ľ</w>":8390,"íĽĦë°ĺ</w>":8391,"ê·¸ë¦¬</w>":8392,"ì¶ķíķĺ":8393,"ë³µìĿĦ</w>":8394,"cali":8395,"ìĤ¬íķŃìĿĦ</w>":8396,"íķĺëĤĺê°Ģ</w>":8397,"yed</w>":8398,"ìľĦìķĪ":8399,"ìĿ´ìĹĪê³ł</w>":8400,"ìĥģíĥľ</w>":8401,"íĻľìļ©</w>":8402,"ë¬´ì¡°ê±´</w>":8403,"ìĭľìĽĲ":8404,"cut</w>":8405,"ê°Ģì¹ĺê°Ģ</w>":8406,"ëĭ´ëĭ¹</w>":8407,"ìĿĺì§Ģë¥¼</w>":8408,"ëª°ìķĦ":8409,"ìĿ´íķľ</w>":8410,"metho":8411,"ëį°ìĿ´</w>":8412,"ìĤ¬ìłĦ":8413,"ëĵ¤ìĸ´ê°Ģ</w>":8414,"ë¶ĦìĿĢ</w>":8415,"ë³ĢíĻĶ</w>":8416,"íĶ¼ê³ł":8417,"ì¶ľìŀħ":8418,"íĭ°ë¸Į":8419,"wle":8420,"tish</w>":8421,"íħĮìĿ¸":8422,"íĮ¨íĤ¤":8423,"understand</w>":8424,"íĶĦë¡ľ</w>":8425,"ìłľê³µ</w>":8426,"ë°©ìĿ´</w>":8427,"íĻľìĦ±íĻĶ":8428,"july</w>":8429,"ëĤ´ìļ©</w>":8430,"ìłĪëĮĢ":8431,"ëĤ¨ìĦ±</w>":8432,"radi":8433,"ãĪľ</w>":8434,"bring</w>":8435,"êµĲìĤ¬</w>":8436,"ëĵ±ìŀ¥íķĺëĬĶ</w>":8437,"wel":8438,"ê·¸ë¦¼</w>":8439,"internet</w>":8440,"íĺĦìŀ¬ê¹Įì§Ģ</w>":8441,"íķĺìĹĲ</w>":8442,"ìĿĳìĽĲ":8443,"ached</w>":8444,"ie</w>":8445,"ìĭľìĹĲëĬĶ</w>":8446,"ìĨĮìĥģê³µ":8447,"êº¾":8448,"ìĺģêµŃ":8449,"âĢ¦âĢ¦.\"</w>":8450,"íĮĮìĽĮ":8451,"íĤ¤ìĽĮ":8452,"ìķĮëł¤ìł¸</w>":8453,"minutes</w>":8454,"ìŀĳê°Ģ</w>":8455,"australi":8456,"ì²´ê³Ħ</w>":8457,"trade</w>":8458,"ìŀ¥ê¸°</w>":8459,"èĢ":8460,"free":8461,"íİ¸ìķĪ":8462,"ëł·":8463,"cru":8464,"ìĻĦìłĦ</w>":8465,"mak":8466,"ë¶ĢìĿ¸":8467,"int</w>":8468,"ê·¸ë§Į":8469,"ìŀĲê¸ĪìĿĦ</w>":8470,"middle</w>":8471,"ìĹ´ìĹĪëĭ¤</w>":8472,"íķĺìĺĢê³ł</w>":8473,"ë°Ķë¥´":8474,"ê²¸</w>":8475,"ìļ´ìĺģíķĺê³ł</w>":8476,"ìłĦë¬¸ê°Ģëĵ¤ìĿĢ</w>":8477,"ril</w>":8478,"ìĻĦíĻĶ":8479,"íİĻ":8480,"ì°¸ìĦĿíķľ</w>":8481,"financial</w>":8482,"ê²Ģìĥī":8483,"ëĭ´ê¸´</w>":8484,"ëª»íķľëĭ¤</w>":8485,"ê±°ë¦¬ëĬĶ</w>":8486,"ìĿ´ëŀĺ</w>":8487,"íħĮìĿ¸ë¨¼":8488,"ìłģì§Ģ</w>":8489,"ì§ķìĹŃ</w>":8490,"ìķ½íķľ</w>":8491,"ìŀī</w>":8492,"ì§ĢìĨįìłģìĿ¸</w>":8493,"ëĴ¤ë¡ľ</w>":8494,"ìĿ¼ìłľ":8495,"íı¬íķ¨</w>":8496,"âĸ·</w>":8497,"living</w>":8498,"ëĤ¨ìĿĦ</w>":8499,"ëĦ¤íĬ¸ìĽĮíģ¬":8500,"ê°ķìĿĺ</w>":8501,"íĮĮíģ¬</w>":8502,"ê¸´ìŀ¥":8503,"nearly</w>":8504,"ëĤ¸":8505,"ê³µíĨµ":8506,"ë²ķìĿ¸":8507,"mary</w>":8508,"ëĵľëĿ¼ìĿ´":8509,"íķľíĻĶ":8510,"ìĿ¸ê³µì§Ģ":8511,"ìĺĢì§Ģë§Į</w>":8512,"ëĤĺë¦¬":8513,"bat":8514,"êµĲíļĮ</w>":8515,"ìĭłì²Ń</w>":8516,"ë³´ê°Ģ</w>":8517,"ê¼´":8518,"ìĥĿê°ģíķĺê³ł</w>":8519,"ìĤ¬ëŀĮëĵ¤":8520,"kets</w>":8521,"ìĤ¬íķŃ</w>":8522,"ê°ĢìĻĢ</w>":8523,"ìŀĲëĤĺ</w>":8524,"users</w>":8525,"íıīìĿĦ</w>":8526,"ë°©ë²ķìĿĢ</w>":8527,"ê³łë§Ī":8528,"ìĹ°ëł¹":8529,"ëıĻë°ĺ":8530,"ì¹´ìļ´":8531,"ì½Ķë¦¬ìķĦ":8532,"êµ¬ìĦ±</w>":8533,"personal</w>":8534,"ìĹ¬ê¸°</w>":8535,"ë§ĮìĽĲìľ¼ë¡ľ</w>":8536,"ìĭ¸ìĽĢ":8537,"ìĦłëıĦ":8538,"ê°ĲëıħìĿ´</w>":8539,"íĭ´":8540,"ëĲľëĭ¤ë©´</w>":8541,"contribu":8542,"phil":8543,"society</w>":8544,"ëĳĲëĬĶ</w>":8545,"ëģĦëŁ¬":8546,"ok":8547,"ëª¸ìĹĲ</w>":8548,"chief</w>":8549,"ãħĭãħĭãħĭ":8550,"gri":8551,"ê²½ì°°ìĹĲ</w>":8552,"ìĤ¬ìĿ´ìĹĲìĦľ</w>":8553,"ì§Īë³ĳ":8554,"audi":8555,"íĻķì§ĦìŀĲê°Ģ</w>":8556,"íģ´ëŁ½</w>":8557,"ê±¸ë¡ľ</w>":8558,"note</w>":8559,"ìĸĳìĿĺ</w>":8560,"ëª©ìĿ´</w>":8561,"leave</w>":8562,"ìĿ¸ìĤ¬ë¥¼</w>":8563,"íķĢ</w>":8564,"dy":8565,"cc</w>":8566,"ëŀĢíŀĪ</w>":8567,"ê·ľëª¨ê°Ģ</w>":8568,"íĥĦìĿĦ</w>":8569,"argu":8570,"average</w>":8571,"ê¸°íļĮ":8572,"sen</w>":8573,"ëĵ¤ìĹ¬</w>":8574,"íĥĵìĹĲ</w>":8575,"establ":8576,"ë§µ":8577,"íķľëĭ¤":8578,"íķĻêµĲìĹĲ</w>":8579,"ìĪĺì¹ĺ":8580,"íķ´ìļ´":8581,"ë¯¸ëĶĶìĸ´</w>":8582,"ë¶ģíķľìĿ´</w>":8583,"ìĤ¼</w>":8584,"æķ":8585,"ëĿł":8586,"ìłĦë©´</w>":8587,"ë§Ĳíķľ</w>":8588,"nia</w>":8589,"college</w>":8590,"bank</w>":8591,"è¨":8592,"ìĿ´ìĬ¹":8593,"ê²½ê¸°ê°Ģ</w>":8594,"ìĭľíĭ°":8595,"ê²©íķľ</w>":8596,"allow</w>":8597,"ìķĦìķĦ":8598,"âĹĭ":8599,"you":8600,"ìŀ¥ì°©":8601,"ë§Ĳìķĺëĭ¤</w>":8602,"ìĨĮìĻĢ</w>":8603,"pati":8604,"ìĿĺëıĦ":8605,"ìĭľëĮĢìĿĺ</w>":8606,"ìłĦê¸°</w>":8607,"íķĺì§ĢëĬĶ</w>":8608,"ì£¼ìĿĺë¥¼</w>":8609,"indepen":8610,"ìłĦìĹĲëĬĶ</w>":8611,"íĪ¬ìĸ´</w>":8612,"ê´Ģë¦¬ë¥¼</w>":8613,"micro":8614,"ìĥģíĺ¸":8615,"ëĭ¹êµŃìĿĢ</w>":8616,"ê³ģ":8617,"justice</w>":8618,"ìĿ´ìľłë¥¼</w>":8619,"ìŀħíķĻ":8620,"ë°©ë²ķìľ¼ë¡ľ</w>":8621,"ë°©íĸ¥ìĿĦ</w>":8622,"questions</w>":8623,"ìĪĺíķĻ":8624,"ìĨįìĿĦ</w>":8625,"risk</w>":8626,"ëĤ´ìļ©ìĿĺ</w>":8627,"ì§Ģíĳľ":8628,"íİł":8629,"ë³´ëĤ¸</w>":8630,"å¾":8631,"ëģ¼</w>":8632,"íĦ°ê°Ģ</w>":8633,"ê·¸ëŁ´</w>":8634,"ê±´ì¶ķ</w>":8635,"ìĿĺê²°":8636,"competi":8637,"ê³ĦìĹĲ</w>":8638,"ìĹĨìĸ´ìĦľ</w>":8639,"oil</w>":8640,"mp":8641,"geor":8642,"íĨ¨":8643,"ê·¸ëħĢê°Ģ</w>":8644,"app</w>":8645,"ìĥģìľĦ</w>":8646,"cover</w>":8647,"tradi":8648,"published</w>":8649,"ì±ĦíĥĿ":8650,"pun":8651,"problems</w>":8652,"april</w>":8653,"íķŃìĿĦ</w>":8654,"covered</w>":8655,"ê³µìĤ°":8656,"gni":8657,"ands</w>":8658,"ë§Īì£¼":8659,"ìķ¡ìĿ´</w>":8660,"íĸīìľĦ":8661,"ìĭłê³ł</w>":8662,"ior</w>":8663,"ìĤ½":8664,"ë³´ìľłíķľ</w>":8665,"ìĤ¬ìĿ´íĬ¸</w>":8666,"weap":8667,"ê³¡ìĿĦ</w>":8668,"ê¸°ìŀ¬":8669,"íĴĪì§Ī":8670,"ê°ķíķĺê²Į</w>":8671,"ëĭ¬ëŁ¬ë¥¼</w>":8672,"reve":8673,"mas":8674,"ì°¸ìĹ¬íķľ</w>":8675,"ìĦ±íıŃ":8676,"friend</w>":8677,"ê¸°ìĹħìĿĦ</w>":8678,"ë¼Ī":8679,"ìĭłìĿĢ</w>":8680,"ëĸ¨ìĸ´ìł¸</w>":8681,"ë°©ìĿĺ</w>":8682,"ìĹ°ì£¼":8683,"maybe</w>":8684,"êµŃê°ĢìĿĺ</w>":8685,"ëĦĺê²Į</w>":8686,"ìłķìŀĳ</w>":8687,"ê²°ê³¼ìĹĲ</w>":8688,"sugge":8689,"ìŀ¥ëıĦ</w>":8690,"ìĿ´ìĹĪì§Ģë§Į</w>":8691,"ëĮĢíĻĶ</w>":8692,"ìľµíķ©":8693,"ìĨįìĿĺ</w>":8694,"ìłĦíĺķ":8695,"ì±ĦëĦĲ</w>":8696,"cj":8697,"tures</w>":8698,"íķĻìĥĿëĵ¤ìĿĺ</w>":8699,"ê°ĲìĿĢ</w>":8700,"ëĲĺê²Į</w>":8701,"ì£¼ëł¥":8702,"ë°±ìĭł</w>":8703,"imag":8704,"íĥĢëĬĶ</w>":8705,"lows</w>":8706,"received</w>":8707,"íĨ±":8708,"ìĤ¬ê³łê°Ģ</w>":8709,"ìĦ±ìłģ</w>":8710,"ìłĦë¶ģ</w>":8711,"ìľĮ":8712,"currently</w>":8713,"íĺ¸ìĦł</w>":8714,"ê²½ìŁģëł¥</w>":8715,"ê²ĥìĿ¸ê°Ģ</w>":8716,"ê·ľëª¨ë¡ľ</w>":8717,"ë¶ĢìĹĲìĦľ</w>":8718,"ëķĮìĿĺ</w>":8719,"ê¸°ëĬ¥</w>":8720,"check</w>":8721,"ëģĬìŀĦ":8722,"ìłķì°©":8723,"ê³µì²ľ":8724,"ìĥģìľĦ":8725,"ath":8726,"ê°Ļìķĺëĭ¤</w>":8727,"ìĶ»":8728,"ëĭ¨ìĿ¼":8729,"ê°ģìĿĺ</w>":8730,"ëıĦëįķ":8731,"explo":8732,"ìķĦìĿ´ë¥¼</w>":8733,"ì§ĢìĤ¬</w>":8734,"green</w>":8735,"response</w>":8736,"david</w>":8737,"ì¡°ê°Ģ</w>":8738,"ë©´ìĦ¸":8739,"ê·¸ê±¸</w>":8740,"ìĻĶëįĺ</w>":8741,"ìŀĦëªħ":8742,"ë§Īì§Ģë§īìľ¼ë¡ľ</w>":8743,"ìħĺìĿ´</w>":8744,"ìĭľì²Ń</w>":8745,"ìĭľìŀĳëĲľ</w>":8746,"adverti":8747,"ouldn</w>":8748,"size</w>":8749,"ìŀĲë£Į</w>":8750,"ë§İìķĦ":8751,"ìĤ¬ë§Ŀ</w>":8752,"ì²´ìĹĲ</w>":8753,"defense</w>":8754,"staf":8755,"americans</w>":8756,"ê°±":8757,"ìĺ¤ë°Ķ":8758,"perf":8759,"bb":8760,"reports</w>":8761,"ê·¸ê²ĥ":8762,"ë¹łì§Ħ</w>":8763,"ìĨĮë¹ĦìŀĲ</w>":8764,"ëį°ìĿ´íĦ°ë¥¼</w>":8765,"unity</w>":8766,"ê°ľë°ľìĿĦ</w>":8767,"increase</w>":8768,"ê³łëł¤íķ´</w>":8769,"ëĮĢë³ĢìĿ¸ìĿĢ</w>":8770,"ë¬´íķľ":8771,"ìĦ¸ëĭ¤</w>":8772,"ì¨":8773,"ìĦ¤ëªħìĿ´ëĭ¤</w>":8774,"ìķĦë¬´ëıĦ</w>":8775,"ìĹĨìĹĪëįĺ</w>":8776,"ìĭ¬ìĿĺ</w>":8777,"ëıĦìŀħ</w>":8778,"bloo":8779,"isis</w>":8780,"ë§¤ìĪĺ":8781,"ìķķ</w>":8782,"ses":8783,"ë°©ìĤ¬":8784,"íİ¸ìĦ±":8785,"inte":8786,"ìķħìĿĺ</w>":8787,"ìĺ¤ë¹ł":8788,"ried</w>":8789,"fans</w>":8790,"ì¦Īë¥¼</w>":8791,"ìłĲìĿĺ</w>":8792,"ìĸ´ë¦°ìĿ´</w>":8793,"ë§ĳ":8794,"ì§Ħíĸīíķĺê³ł</w>":8795,"ìĺ¤ì§Ģ</w>":8796,"ìĽĲìłĦ</w>":8797,"íĪ¬ìŁģ":8798,"ê°ĢëıĻ":8799,"ê±´ê°ķ</w>":8800,"ìĥĺ":8801,"aul</w>":8802,"ìĭ¶ìĸ´</w>":8803,"haps</w>":8804,"ìĤ¬ëŀĮëıĦ</w>":8805,"friday</w>":8806,"ê´Ģê³¼</w>":8807,"ìĺ¤ë¥´ëĬĶ</w>":8808,"lines</w>":8809,"inci":8810,"íĺģìĭł</w>":8811,"ìłĦê³µ":8812,"íĻĪëŁ°":8813,"sett":8814,"ì·¨</w>":8815,"won":8816,"ìĪĺìĤ¬ë¥¼</w>":8817,"ê±´ìľ¼ë¡ľ</w>":8818,"ìŀ¥ìķłìĿ¸</w>":8819,"ëĭī</w>":8820,"ìĿĺê°Ģ</w>":8821,"ê°Ģìķ¼":8822,"pd":8823,"Â·":8824,"ì¿¼":8825,"effect</w>":8826,"ë°Ķë¥¸</w>":8827,"íĤ¬</w>":8828,"ìĺĪìĤ°ìĿĦ</w>":8829,"ë§ĪìĬ¤íģ¬":8830,"amount</w>":8831,"ê°ĢìĿĦ":8832,"ìĻķìĿĺ</w>":8833,"ìħľ</w>":8834,"ëĵ¤ëł¤":8835,"coo":8836,"íĨłì§Ģ":8837,"ìĹ¬ëªħìĿ´</w>":8838,"íĸĪëĭ¤ê°Ģ</w>":8839,"ìĹ°íŀĪ</w>":8840,"ëª¨ìķĦ</w>":8841,"ê¸°ìĹħìĿĢ</w>":8842,"ë¶ĢíĻľ":8843,"ê³§ë°Ķë¡ľ</w>":8844,"ì§ĢìĹŃìĿĢ</w>":8845,"exten":8846,"ì§Ģìłķ</w>":8847,"active</w>":8848,"ìĨĲê°Ģ":8849,"cle</w>":8850,"ëĤ´ë©°</w>":8851,"europe":8852,"íĸīëıĻìĿĦ</w>":8853,"ë°ķëŀĮ":8854,"ìłĦíĻĶë¥¼</w>":8855,"ë°©íĸ¥</w>":8856,"mac":8857,"ì²ŃìĿ´</w>":8858,"performance</w>":8859,"cannot</w>":8860,"certain":8861,"bab":8862,"ery</w>":8863,"ê¹¨ëģĹ":8864,"father</w>":8865,"announced</w>":8866,"conn":8867,"ëĤ´ê²Į</w>":8868,"perhaps</w>":8869,"ë¬´ê²Į":8870,"ì¶ķêµ¬</w>":8871,"ê¸ĭ":8872,"committee</w>":8873,"ìĺĨìĹĲ</w>":8874,"ìĭľê°ĦìĿĢ</w>":8875,"ì°¨ìĿĺ</w>":8876,"ë³Ģê²½</w>":8877,"ë¯¼ê°Ħ</w>":8878,"intel":8879,"cases</w>":8880,"ìķ¼ë§Ĳë¡ľ</w>":8881,"ëģĮê³ł</w>":8882,"ë²ĦìĬ¤":8883,"ì§Ģíķĺ</w>":8884,"íķľêµŃëĭ¹</w>":8885,"elling</w>":8886,"ìĽ¨ìĸ´</w>":8887,"ìī¬ìļ´</w>":8888,"ìĥĿìĦ±":8889,"psy":8890,"ìłĦíĻĶ</w>":8891,"ìĭľê¹Įì§Ģ</w>":8892,"ëĭ¤ë³´ëĭĪ</w>":8893,"ëĭ´ë³´":8894,"ìļ°ìĪĺ</w>":8895,"mach":8896,"ë§¤ìŀħ":8897,"determin":8898,"ceo</w>":8899,"íĽĪëł¨</w>":8900,"íģ´ëĿ¼ìļ°":8901,"íĨµíķ´ìĦľ</w>":8902,"ëĨįíĺĳ":8903,"ions</w>":8904,"ëį±":8905,"sex</w>":8906,"medical</w>":8907,"ì§ģìŀ¥":8908,"ìĿ¸ê¸°":8909,"relation":8910,"ë§Īë¬´":8911,"ê°ľíĺģ</w>":8912,"ãħİãħİ":8913,"hic":8914,"store</w>":8915,"ìĹĶíĦ°íħĮìĿ¸ë¨¼":8916,"ì£¼ë©´</w>":8917,"russia</w>":8918,"ìķĬì§Ģë§Į</w>":8919,"ë²Ħë¦¬":8920,"ìĿĺê²¬ìĿ´</w>":8921,"east</w>":8922,"chris":8923,"ë¬¸ìĦľ</w>":8924,"cratic</w>":8925,"leader</w>":8926,"connec":8927,"ìĨŁ":8928,"________":8929,"ëĭ¹ìĭłìĿ´</w>":8930,"ë¯¸ëĬĶ</w>":8931,"ê²ĢíĨł</w>":8932,"ë§¡ìĿĢ</w>":8933,"ìĭ¤ìĹħ":8934,"ë°ĸìľ¼ë¡ľ</w>":8935,"ë¶Ħìķ¼ìĿĺ</w>":8936,"ë¶Ģê°Ģ":8937,"æĪ":8938,"ëŀľëĵľ":8939,"ëĤłìĿ´</w>":8940,"ê°ĲìĹ¼</w>":8941,"jer":8942,"ê³¼íķĻê¸°ìĪł":8943,"ëª¨ìĹ¬</w>":8944,"ì¦ĪëĬĶ</w>":8945,"íķ´ìĦł</w>":8946,"ê³¼ëıĦ</w>":8947,"ê¹Įì§ĢìĿĺ</w>":8948,"ëĦĪëĬĶ</w>":8949,"ram":8950,"ë³ĢíĻĶê°Ģ</w>":8951,"ê¸Īìľ¼ë¡ľ</w>":8952,"ë¹ĦíĮĲíĸĪëĭ¤</w>":8953,"impl":8954,"ëį°ë·Ķ</w>":8955,"íĶĦëĿ¼ìĿ´":8956,"êµŃëĤ´ìĻ¸</w>":8957,"ìĥģíĺ¸</w>":8958,"íı¼":8959,"dates</w>":8960,"union</w>":8961,"production</w>":8962,"ë§ĽìĿĦ</w>":8963,"ëĨ¨ëĭ¤</w>":8964,"ê±´ë¦½":8965,"ë¯¸ëŀĺë¥¼</w>":8966,"ê°ľë§ī":8967,"ìľĦê¸°ë¥¼</w>":8968,"æĺ":8969,"ìĹĨê²Į</w>":8970,"ìĪĺì¤ĢìĿ´ëĭ¤</w>":8971,"íĸ¥íķľ</w>":8972,"íĺĲìĿĺ</w>":8973,"ëĵľë¦½":8974,"íĻľëıĻìĹĲ</w>":8975,"íĺ¼ìŀĲ":8976,"ë°©ë²ķìĿ´</w>":8977,"ìĺģìĽĲ":8978,"ìĶ©":8979,"ì£¼ìĿ¸ê³µ</w>":8980,"ìĥĿê¸°":8981,"íĬ¹ìľłìĿĺ</w>":8982,"êµ³ìĿ´</w>":8983,"âĢķ</w>":8984,"camer":8985,"quick":8986,"ìłĦìĦ¸":8987,"county</w>":8988,"ë¶Ħìĸĳ</w>":8989,"ê°Ĳíķľ</w>":8990,"ë²Ħë¦¬ê³ł</w>":8991,"ìĽĥìĿĮìĿĦ</w>":8992,"ìĬ¤íĬ¸ë¦¬":8993,"finally</w>":8994,"ëŃī":8995,"ëĶľ</w>":8996,"ê²ģëĭĪëĭ¤</w>":8997,"íĮ¨ë°°":8998,"ì¯¤":8999,"ë»Ĳ":9000,"ìŀĲìĤ°</w>":9001,"íģ´ëŁ½":9002,"íĻĶìĹĲìĦľ</w>":9003,"ìĭľë²Ķ":9004,"stop":9005,"wrong</w>":9006,"involved</w>":9007,"ìķĦë¥¼</w>":9008,"íıĲìĩĦ":9009,"ë¡ľë§Į</w>":9010,"ëĮĢìĤ¬":9011,"ê²ªê³ł</w>":9012,"ì§Ģê¸ĪëıĦ</w>":9013,"æ³":9014,"ìķĦë§Ī</w>":9015,"íļĮìĤ¬ê°Ģ</w>":9016,"ì´Ŀë¦¬</w>":9017,"ë³´ìĹ¬ì¤Ģëĭ¤</w>":9018,"ë¶Ģì±Ħ":9019,"ë¹¼ìķĹ":9020,"ëıħíĬ¹":9021,"ëĤĺìģľ</w>":9022,"vil":9023,"âĢĿ.</w>":9024,"ìĭĿíĴĪ</w>":9025,"Ã©":9026,"ë¹ĦìĻĢ</w>":9027,"ìĺ¬ëŀĲ":9028,"ìĨĶì§ģ":9029,"ìŀĲë¬¸":9030,"ê°ĢëĵĿ</w>":9031,"ëĤ´ìĿĺ</w>":9032,"ëĮĢì²ĺ":9033,"ë¦¬ìĸ´</w>":9034,"ìĹŃëŁīìĿĦ</w>":9035,"ìľłìŀħ":9036,"ëĶ°ëľ»íķľ</w>":9037,"ê·¸ìĹĲê²Į</w>":9038,"immedi":9039,"ë§Ľ</w>":9040,"íĺĳìķ½":9041,"skíħĶëłĪ":9042,"ä½":9043,"ìĹŃìĤ¬ë¥¼</w>":9044,"ì¶ľë§Ī":9045,"ìĹĲê²Ĳ</w>":9046,"íĺĦìŀ¬ëĬĶ</w>":9047,"ì¸¡ìĹĲ</w>":9048,"ip</w>":9049,"gol":9050,"ë²Ķì£Ħ</w>":9051,"arg":9052,"ìĭľì¼°":9053,"ìĹĨìĬµëĭĪëĭ¤</w>":9054,"ìĬ¤íĬ¸ë¥¼</w>":9055,"race</w>":9056,"ex</w>":9057,"íķĺëĤĺëĬĶ</w>":9058,"acking</w>":9059,"ê·ĢìĹ½":9060,"ìķĦëĭĲ":9061,"ì¸¡ìĿĺ</w>":9062,"bi</w>":9063,"worked</w>":9064,"ìŀ¡ìĿĢ</w>":9065,"ì²łëıĦ":9066,"monday</w>":9067,"ìĿ´ëĭĿ</w>":9068,"ìĸ»ìĿĢ</w>":9069,"ê±°ëĮĢíķľ</w>":9070,"fall</w>":9071,"ëļ±":9072,"ìĪľìľ¼ë¡ľ</w>":9073,"bud":9074,"donald</w>":9075,"terms</w>":9076,"ìĹŃìľ¼ë¡ľ</w>":9077,"construc":9078,"please</w>":9079,"ì¶Ķì§Ħíķĺê³ł</w>":9080,"ë¯¸ìĦ¸ë¨¼ì§Ģ</w>":9081,"sometimes</w>":9082,"ìĿ¼ë³´</w>":9083,"atten":9084,"ìĭľíĤ¨ëĭ¤</w>":9085,"íķ¨ê³¼</w>":9086,"ë©´ìľ¼ë¡ľ</w>":9087,"cast</w>":9088,"user</w>":9089,"repe":9090,"ìķĦíĭ°":9091,"ìĤ¬ìĭ¤ìĿĢ</w>":9092,"san</w>":9093,"ìķĦìĿ´ëĵ¤ìĿ´</w>":9094,"ìĪĺì¤ĢìĿĦ</w>":9095,"ìĥĿê°ģíķ´</w>":9096,"ìķĪíĥĢ</w>":9097,"íķĻë¶Ģëª¨":9098,"ëª©íĳľ</w>":9099,"âĢĿ,</w>":9100,"ìĦ¸ê³Ħë¥¼</w>":9101,"ëľ¨ê±°ìļ´</w>":9102,"ìĸ´ìłľ</w>":9103,"ìĬ¤íĥĢìĿ¼":9104,"ì§Ħë£Į":9105,"lives</w>":9106,"íĻķìĭ¤íŀĪ</w>":9107,"ëĭĮ":9108,"ê³¼ëıĦ":9109,"ê°ľë´ī":9110,"constitu":9111,"nature</w>":9112,"norm":9113,"amaz":9114,"ë¶Īë¦¬":9115,"ìĭ«ìĸ´":9116,"ì£¼ëħĦ</w>":9117,"ìĽĲìŀ¥ìĿĢ</w>":9118,"ìĬ¤íĤ¤":9119,"ëĶĺ":9120,"killed</w>":9121,"??":9122,"ë²ĶìľĦ</w>":9123,"ê¸°ëĮĢíķľëĭ¤</w>":9124,"ê°ĢëĬ¥ìĦ±ëıĦ</w>":9125,"ê²°ê³¼ëĬĶ</w>":9126,"ê²½ê³Ħ":9127,"ëª¨ìĬµìľ¼ë¡ľ</w>":9128,"christi":9129,"ëĭ¤ìĪĺ</w>":9130,"ëĤ¨ìĿĺ</w>":9131,"ë¯¸ëĶĶìĸ´":9132,"success":9133,"plat":9134,"education</w>":9135,"íļĮìŀ¥ìĿĺ</w>":9136,"ì°½ìĹħ</w>":9137,"served</w>":9138,"ìĹħì¢ħ":9139,"êµŃíļĮìĿĺìĽĲ</w>":9140,"íĶĮëŁ¬ìĬ¤</w>":9141,"ê°ĢìĬ¤":9142,"ìĸ´ë¥¸":9143,"ë¶ĦìĦĿíĸĪëĭ¤</w>":9144,"ì¦Ĳê±°":9145,"ì¡°ìłľ</w>":9146,"êµĲìľ¡ì²Ń</w>":9147,"ìº¡":9148,"ìĭ¬íĮĲ":9149,"ëĭ¤ìĪĺìĿĺ</w>":9150,"ÂŃ</w>":9151,"íļĮëĭ´</w>":9152,"tuesday</w>":9153,"íķ©ë¥ĺ":9154,"ëŀ©":9155,"íķľë°ĺëıĦ</w>":9156,"ì°¾ìĿĦ</w>":9157,"ê²½ê³ł":9158,"sbs</w>":9159,"nel</w>":9160,"commis":9161,"ì¤ĳíķĻêµĲ</w>":9162,"ë§ĮìĽĲìĿĺ</w>":9163,"íĭ¸":9164,"ê±´ì¡°":9165,"ìĽĥ</w>":9166,"itten</w>":9167,"becom":9168,"íķĺê¸°ìĹĲ</w>":9169,"íĶĦëĬĶ</w>":9170,"íı¬íķŃ":9171,"ìłĸ":9172,"ë¬´ëĬĶ</w>":9173,"ìĦ¸ìĥģ</w>":9174,"åĮ":9175,"ì²Ńë¬¸":9176,"ë¶Ģëĭ´ìĿ´</w>":9177,"ê²ĥìĿ´ëŀĢ</w>":9178,"ë¶Ģëª¨</w>":9179,"forces</w>":9180,"ë¨¹ìĸ´":9181,"ê°¤ëŁ¬":9182,"ë¬¼ê³¼</w>":9183,"ìĪĺìĿµìĿĦ</w>":9184,"ìĦ¸íı¬":9185,"ì§Ģìĥģ":9186,"alist</w>":9187,"ì£¼ìĸ´":9188,"ë¶ĢíĴĪ":9189,"ë¯¸ì¹ĺëĬĶ</w>":9190,"âĢ¢</w>":9191,"íĻķìĿ¸ëĲĲëĭ¤</w>":9192,"ê²ĥìĿ´ë©°</w>":9193,"ì§Ģë°©</w>":9194,"nar":9195,"íĺĦìŀ¬ìĿĺ</w>":9196,"íĽĦìĽĲ":9197,"influ":9198,"ë§ĪìĿĺ</w>":9199,"goes</w>":9200,"built</w>":9201,"ëģĦëĬĶ</w>":9202,"ì§Ħì§ľ":9203,"ìłķìĭłìĿĦ</w>":9204,"ãĢį":9205,"ê³łìĥĿ":9206,"nu":9207,"mother</w>":9208,"ëĤĺëĿ¼ìĿĺ</w>":9209,"ëĭµ</w>":9210,"íĮĮìĿ¼</w>":9211,"ìĭľëĮĢìĹĲ</w>":9212,"ê°ĪìĪĺë¡Ŀ</w>":9213,"worth</w>":9214,"ë°ľëĭ¬":9215,"uary</w>":9216,"ìŀĲë§ĪìŀĲ</w>":9217,"íİ¸ìĿĺ</w>":9218,"histor":9219,"ë©Ķìĭľì§Ģë¥¼</w>":9220,"ê¾¼</w>":9221,"íĻķìĤ°</w>":9222,"ê°ĲìĹ¼ì¦Ŀ</w>":9223,"ìĿ´ëĵ¤ìĿĦ</w>":9224,"ìĿ´ìłĦìĹĲ</w>":9225,"intellig":9226,"takes</w>":9227,"ë°©ë¬¸íķ´</w>":9228,"íĮĮëĬĶ</w>":9229,"ìĪĺê¸ī":9230,"ìĿ¸íķĺ":9231,"ìĸ¸ìĸ´":9232,"ìĦłë°ķ":9233,"ì°¸ìĹ¬íķĺëĬĶ</w>":9234,"sav":9235,"ìĹ¬ë¶Ģ</w>":9236,"station</w>":9237,"ìĹĦì²Ń</w>":9238,"serve</w>":9239,"ìķĬìķĦëıĦ</w>":9240,"ê²½ìĥģ":9241,"advertise":9242,"paul</w>":9243,"ê°Ģìĥģ":9244,"ists</w>":9245,"ì²´ìĿ¸</w>":9246,"ìĸĳìĦ±":9247,"thro":9248,"íĥĳ</w>":9249,"arri":9250,"base</w>":9251,"ìĨĮìĭĿìĿĦ</w>":9252,"ê°Ģê¸°</w>":9253,"ìĹħëį°ìĿ´":9254,"íĺķíĥľìĿĺ</w>":9255,"ì§ĦíĸīëĲľ</w>":9256,"ëĭ¹ìĹĲìĦľ</w>":9257,"ë¦¿</w>":9258,"ìłĦíĪ¬</w>":9259,"ìĤ¬íļĮìĹĲ</w>":9260,"communic":9261,"ì¤ĳìĭ¬</w>":9262,"ìłľê³µíķĺê³ł</w>":9263,"simple</w>":9264,"íģ¬ìĿĺ</w>":9265,"goal</w>":9266,"tel":9267,"ëĭ¤ëŀĢ</w>":9268,"íŀĪê³ł</w>":9269,"][</w>":9270,"ìłķìĭĿ</w>":9271,"ë°©ìĨ¡ìĿĦ</w>":9272,"ìĦ±ê³µ</w>":9273,"ëĵľëŁ¬ëĤ¬ëĭ¤</w>":9274,"íķĻìłģ</w>":9275,"ìĨįëıĦê°Ģ</w>":9276,"staff</w>":9277,"ê¹Ģì¢ħ":9278,"ë¬´ìĹĩìĿĦ</w>":9279,"ìłģìĿĳ":9280,"popular</w>":9281,"ëĬĲê¼":9282,"ìĿĢíĸīìĿĺ</w>":9283,"íĺķìĤ¬":9284,"ìĹĪëĭ¤ëĬĶ</w>":9285,"mit</w>":9286,"ized</w>":9287,"ê³µê²©ëł¥</w>":9288,"ê°ĢëĵĿ":9289,"íħĮëŁ¬":9290,"ë¹ĽìĿĦ</w>":9291,"particip":9292,"ìĿ´ìķ¼ê¸°ê°Ģ</w>":9293,"ê´Ģì°°":9294,"ëĵ¤ìĸ´ê°Ķëĭ¤</w>":9295,"ological</w>":9296,"ëĬĶëį°ëıĦ</w>":9297,"ëĶ¸</w>":9298,"ìĨĮë¹ĦìŀĲ":9299,"octo":9300,"ë¹Ħë¡ľ</w>":9301,"ë§¤ì£¼</w>":9302,"ê³µëŀµ":9303,"ë¶Ģìĥģ":9304,"ìļ°ê°Ģ</w>":9305,"moment</w>":9306,"ìľłëªħ</w>":9307,"ì¢ħë£Į":9308,"thous":9309,"ê³¼íķĻ</w>":9310,"confir":9311,"alism</w>":9312,"ê²Ģì¦Ŀ":9313,"è¡":9314,"ë©ķ":9315,"meeting</w>":9316,"ìĩ¼íķĳ</w>":9317,"ìĦ¸ê³ĦìłģìĿ¸</w>":9318,"thur":9319,"ìķ±</w>":9320,"difficult</w>":9321,"ê·ľì¹Ļ":9322,"íĸīë³µíķľ</w>":9323,"ëĲĲì§Ģë§Į</w>":9324,"ê³µê°ľíĸĪëĭ¤</w>":9325,"ilities</w>":9326,"ìĭ¤ë¬´":9327,"period</w>":9328,"ë§ĮëĤł</w>":9329,"íĶ¼ë¥¼</w>":9330,"ì´Īì²Ń":9331,"ìĻ¸ë¡ľ</w>":9332,"citiz":9333,"ì¶©ëıĮ":9334,"january</w>":9335,"íħľ</w>":9336,"ê¸°ìĹħëĵ¤ìĿ´</w>":9337,"ìĭľê¸°":9338,"ê·¸ëŁ¼ìĹĲëıĦ</w>":9339,"blue</w>":9340,"grow":9341,"ìĭ¤íķľ</w>":9342,"ìĤ¬íĥľ</w>":9343,"ëĲĲëĭ¤ëĬĶ</w>":9344,"ìĹ°ê¸Ī</w>":9345,"range</w>":9346,"character</w>":9347,"ìĦłìĤ¬":9348,"ê·¸ëłĩëĭ¤ê³ł</w>":9349,"chance</w>":9350,"ìĺ¤ëŀ«":9351,"ì°¸ê³łë¡ľ</w>":9352,"ìĽ¨ìĿ´</w>":9353,"ë¸Ķë¡ľ":9354,"thern</w>":9355,"central</w>":9356,"ìłģëıĦ</w>":9357,"ìĥĿê°ģ</w>":9358,"events</w>":9359,"swe":9360,"ë²ĪìĹŃ":9361,"ìĿĺìĤ¬ë¥¼</w>":9362,"ë¶Ħê°Ħ</w>":9363,"ì§Ħì¶ľ</w>":9364,"íĺ¹ìĭľ</w>":9365,"ëį°ëł¤":9366,"pon":9367,"ë©Ķëª¨":9368,"ê³°":9369,"ìłĳíķľ</w>":9370,"ê²ĥìĿ¸ì§Ģ</w>":9371,"sept":9372,"ìĤ¬íļĮë¥¼</w>":9373,"morning</w>":9374,"ì¶©ë¶ģ":9375,"ìĿĺë¢°":9376,"ìĦłìŀĦ":9377,"ìĭľìĥģ":9378,"ëĲĺì§Ģë§Į</w>":9379,"ëĴ¤ì§ĳ":9380,"ìĽĶëĵľ</w>":9381,"ìĥĿê°ģíĸĪëĭ¤</w>":9382,"ìŀĲìĹ°ìĬ¤ëŁ½ê²Į</w>":9383,"fle":9384,"íĸĪìĸ´</w>":9385,"íķĻêµĲë¥¼</w>":9386,"ëĤĺìĺ¤ì§Ģ</w>":9387,"ìĸ´ëĸłíķľ</w>":9388,"ìķĦë¬´ê²ĥëıĦ</w>":9389,"íĶĦë¦°":9390,"ìĿµìĪĻ":9391,"íĨłë¡Ŀ</w>":9392,"entire</w>":9393,"ìķĦëĭĪì§Ģë§Į</w>":9394,"ì²´ê³Ħë¥¼</w>":9395,"ê³µìĹ°ìĿĦ</w>":9396,"ìĦłìľ¼ë¡ľ</w>":9397,"ham</w>":9398,"ìĥĿê²¨":9399,"dg":9400,"views</w>":9401,"european</w>":9402,"ìĹĨìĿĮ</w>":9403,"language</w>":9404,"íĮĮê²¬":9405,"ê²łì§Ģ</w>":9406,"ëĳĳ":9407,"images</w>":9408,"ê³µìķ½":9409,"ìŀĲìĿ´":9410,"mp</w>":9411,"ê²½íĹĺìĿ´</w>":9412,"september</w>":9413,"ï¼ļ</w>":9414,"broad":9415,"gas</w>":9416,"ìĭłê·ľ":9417,"íĻĪ</w>":9418,"pro</w>":9419,"ê°ĲëıħìĿĺ</w>":9420,"å±":9421,"ë°©íķ´":9422,"ê¸°ê´ĢìĿ´</w>":9423,"ìķĬê¸°</w>":9424,"ëĨįìĤ°":9425,"ãģĹ":9426,"tioned</w>":9427,"ëĭĺìĿĦ</w>":9428,"ì¦ĪìĿĺ</w>":9429,"november</w>":9430,"sand":9431,"ìĽĲìĿ¸</w>":9432,"ìķ¼ë§Į</w>":9433,"reading</w>":9434,"beha":9435,"ë¯¸êµŃê³¼</w>":9436,"íĽĪëł¨ìĿĦ</w>":9437,"kin":9438,"ë§Īì¹ľ</w>":9439,"pass</w>":9440,"ë¶ĢíĴĪ</w>":9441,"âī":9442,"ìĹĲíĶ¼ìĨĮ":9443,"íķĺìĸ":9444,"ìļ°ìĬ¹ìĿĦ</w>":9445,"ìĹĨê¸°</w>":9446,"ì²´íı¬":9447,"ë³´ìķĺ":9448,"op</w>":9449,"ê²Ĳ":9450,"ì§ģë¬´":9451,"bert</w>":9452,"ìĥģíĥľë¥¼</w>":9453,"íĶ¼ë¶Ģ</w>":9454,"ì¹´íİĺ</w>":9455,"íĶ¼íķ´ê°Ģ</w>":9456,"ads</w>":9457,"ìĹĲìĦľë¶ĢíĦ°</w>":9458,"agency</w>":9459,"ë³´ìĪĺ</w>":9460,"íİ¸ìĿ´</w>":9461,"ë³´ìĬ¤":9462,"íĻķì§Ħ</w>":9463,"ìĥĿê²¼":9464,"íķ´ì¤Ģëĭ¤</w>":9465,"democratic</w>":9466,"ëĮĢìŀ¥":9467,"íĶ¼ìķĦ":9468,"alized</w>":9469,"ì§Ĳ</w>":9470,"ìĤ¬ìŀ¥":9471,"hur":9472,"ìĬ¤íĥĢíĬ¸":9473,"êµ¬ë¡ľ</w>":9474,"website</w>":9475,"iso":9476,"ëĭĪìķĦ</w>":9477,"movement</w>":9478,"ìľłíĸī":9479,"ëĬĺê³ł</w>":9480,"ê¶Įê³¼</w>":9481,"ì¹ĺë©´</w>":9482,"oud</w>":9483,"íı¬ìĬ¤ì½Ķ":9484,"ëĦ¤íĬ¸ìĽĮíģ¬</w>":9485,"ëª¬ìĬ¤íĦ°":9486,"ëĸłëĤĺ":9487,"íĶĦê°Ģ</w>":9488,"ë¡±</w>":9489,"ìĺ¤ë¸Į</w>":9490,"ìĨįëıĦë¥¼</w>":9491,"ë§Īì¹¨":9492,"ëª¸</w>":9493,"ëĶĶìŀĲìĿ¸":9494,"figure</w>":9495,"ordin":9496,"alter":9497,"economy</w>":9498,"ë¶Ģë¶ĦìĿĢ</w>":9499,"smo":9500,",,</w>":9501,"teams</w>":9502,"ìŀħì¦Ŀ":9503,"ìĿ¸ë¯¼":9504,"ìļĶë¦¬":9505,"training</w>":9506,"ìķĦë²Ħì§Ģê°Ģ</w>":9507,"ëĤĺìĦ¤</w>":9508,"career</w>":9509,"ìľłìĿ¼íķĺê²Į</w>":9510,"buy</w>":9511,"ìĤ¬ìĹħìľ¼ë¡ľ</w>":9512,"ê·ľëª¨ëĬĶ</w>":9513,"happened</w>":9514,"expres":9515,"ëª¨ìĬµ</w>":9516,"íĨłëĮĢë¡ľ</w>":9517,"ìĬ¤íĬľ":9518,"ì¹ĺìĹĲ</w>":9519,"ëĮĢíķĻêµĲ":9520,"ìŀ¡ìķĺëĭ¤</w>":9521,"ìĤ´ìĿ´</w>":9522,"israel</w>":9523,"ê°Ŀê´Ģ":9524,"enjo":9525,"ìĤ°ìĿ´</w>":9526,"ì£¼ìĻĢ</w>":9527,"ë°°ìłľ":9528,"ì²ľìķĪ":9529,"ëª¨ëĭĪíĦ°":9530,"gave</w>":9531,"âĶģ.</w>":9532,"ìĿ´ë¥´ëĬĶ</w>":9533,"file</w>":9534,"ê·¸ìĻĢ</w>":9535,"ëĲĲìľ¼ë©°</w>":9536,"ìĺģìĿĢ</w>":9537,"ì²ŃìĹĲ</w>":9538,"ìĬ¤ì½Ķ</w>":9539,"ìŀĺëª»ëĲľ</w>":9540,"promo":9541,"ier</w>":9542,"ëĦī":9543,"plans</w>":9544,"ëĭ¨ëıħ</w>":9545,"ìĿĺë£Į</w>":9546,"ë²Īì§¸ë¡ľ</w>":9547,"íĮ¨ìħĺ</w>":9548,"decided</w>":9549,"round</w>":9550,"ìĸ¸ëĭĪ</w>":9551,"ìĿ¼ë°©":9552,"íĭ±":9553,"ìĤ¬ë¡Ģê°Ģ</w>":9554,"upon</w>":9555,"ìĦ¸ìĥģìĹĲ</w>":9556,"estim":9557,"stage</w>":9558,"âĺħ</w>":9559,"afric":9560,"ëĤ¨ë¶ģ</w>":9561,"stoc":9562,"ìļĶêµ¬íķĺëĬĶ</w>":9563,"íķľì¸µ</w>":9564,"ãģŁ":9565,"systems</w>":9566,"ì§ĢìĨį</w>":9567,"whose</w>":9568,"íļĮë³µ</w>":9569,"fast</w>":9570,"ì§ĦìĪł":9571,"focus</w>":9572,"ìĦ¸ê³ĦìĿĺ</w>":9573,"week":9574,"reduc":9575,"ë³¸ìĿ¸ìĿ´</w>":9576,"ë¯¸ìĤ¬ìĿ¼</w>":9577,"ãĥ¼":9578,"ìĤ¬ë¡ľìŀ¡":9579,"ë¡¯ëį°</w>":9580,"written</w>":9581,"ì»´íĵ¨íĦ°</w>":9582,"íķ´ì§Ħëĭ¤</w>":9583,"ê²½ìŁģ</w>":9584,"ìķĬìĿĦê¹Į</w>":9585,"kes":9586,"ìĭłì²ŃìĿĦ</w>":9587,"satur":9588,"possib":9589,"ê¶ģ</w>":9590,"ìĹħê·¸ëłĪìĿ´":9591,"ë°°ëĭ¹":9592,"october</w>":9593,"ëĤ®ìķĦ":9594,"congress</w>":9595,"ì°¨ì§ĢíķĺëĬĶ</w>":9596,"ìĭľëĮĢë¥¼</w>":9597,"ê²½ìĿ´</w>":9598,"vehic":9599,"ìĻĦ</w>":9600,"íĻĶíķĻ</w>":9601,"tax":9602,"ê¹ĬìĿ´</w>":9603,"ìĥīìĿ´</w>":9604,"ê·¸ëŁ¬ë¯Ģë¡ľ</w>":9605,"ê¶¤":9606,"ì´Īë°ĺ</w>":9607,"ëĭ¤ë¥¼</w>":9608,"ê³³ìĿĺ</w>":9609,"ìĺ¤ëŀ«ëıĻìķĪ</w>":9610,"ìĽ°":9611,"acti":9612,"ë³´ìľłíķĺê³ł</w>":9613,"situation</w>":9614,"ìħĺìĿĢ</w>":9615,"electr":9616,"ë³´ê´Ģ":9617,"!!!</w>":9618,"ìĹ°ë°©":9619,"ë§īê¸°</w>":9620,"signed</w>":9621,"ê°ľêµŃ</w>":9622,"ê¸°ê°ĦìĿĦ</w>":9623,"íĮĲìĹĲ</w>":9624,"ãģ¦":9625,"natural</w>":9626,"ìŀĲê¸°ê°Ģ</w>":9627,"break</w>":9628,"ìĹĪìĿĦ</w>":9629,"ìĤ¬ëŀĮëĵ¤ìĹĲê²Į</w>":9630,"ìĿ´íĥĪë¦¬ìķĦ</w>":9631,"íĬ¹ì§ķìĿ´ëĭ¤</w>":9632,"ì°¾ê¸°</w>":9633,"ë²Ĺìĸ´ëĤĺ":9634,"ëıĦìĹĲìĦľ</w>":9635,"summer</w>":9636,"íķ´ì§Ģê³ł</w>":9637,"ëįľ</w>":9638,"fall":9639,"entation</w>":9640,"ì¤Ģë¹Ħë¥¼</w>":9641,"ë¶Īê°ĢíĶ¼":9642,"sday</w>":9643,"íĮĮíĭ°":9644,"russian</w>":9645,"ìĿ´ë¯Ģë¡ľ</w>":9646,"ê²¨ìļ°</w>":9647,"ê²½ìĿĢ</w>":9648,"significant</w>":9649,"ê·¸ëŁ¬ìŀĲ</w>":9650,"cause</w>":9651,"ìĹ°ìŀ¥</w>":9652,"ãħĭãħĭãħĭãħĭãħĭãħĭãħĭ</w>":9653,"growth</w>":9654,"ë§İê³ł</w>":9655,"ìľĦê¸°ìĹĲ</w>":9656,"ì§ĢìĹ°":9657,"ëĭ´ìĿĦ</w>":9658,"ë³ĢëıĻ":9659,"que":9660,"heard</w>":9661,"íĹĪê°Ģ</w>":9662,"ì£¼ê°Ħ</w>":9663,"ìłĢíķŃ":9664,"cil</w>":9665,"ê°ľìŀħ":9666,"ìĭľê¸°</w>":9667,"ê²°ìłľ":9668,"ì§Ģíĸ¥":9669,"ëĭ¨ìĪľíķľ</w>":9670,"ìĿ¸íĦ°ë·°ìĹĲìĦľ</w>":9671,"solution</w>":9672,"ìĸ´ëĳĲ":9673,"moun":9674,"canada</w>":9675,"íķĺëĦ¤</w>":9676,"\"(</w>":9677,"ëĭµê²Į</w>":9678,"ech</w>":9679,"ìĺ³":9680,"ìĭľíĤ¤ê¸°</w>":9681,"felt</w>":9682,"ë¬´ë£Į</w>":9683,"íĽĦìĹĲëĬĶ</w>":9684,"ìĺĪë°©</w>":9685,"smar":9686,"separ":9687,"ëĭ¤ë¦¬</w>":9688,"califor":9689,"ëĨįì´Į":9690,"mid":9691,"íĻįì½©</w>":9692,"ëıĻìŀĳ":9693,"ëĭ¹ìĭłìĿĢ</w>":9694,"ìĥĿë¬¼":9695,"ì¢ĭìĿĢ":9696,"conduc":9697,"numbers</w>":9698,"ê°ĲìĤ¬</w>":9699,"neigh":9700,"íıŃìĿ´</w>":9701,"ëĤ®</w>":9702,"ê¹ĢìĦ±":9703,"ëł¸ê³ł</w>":9704,"ë§Īì³¤ëĭ¤</w>":9705,"ê¸°ê°ĦìĿ´</w>":9706,"ì¶©ì¡±":9707,"ë³´ëĥĪëĭ¤</w>":9708,"íĺĳìĥģ</w>":9709,"dential</w>":9710,"ê°ĢëģĶ</w>":9711,"íķĦë¦¬":9712,"ëĭĪê°Ģ</w>":9713,"ìĭłë¬¸</w>":9714,"êµ¬ì¡°ë¥¼</w>":9715,"ìĸ´ì§Ģ":9716,"aliz":9717,"ì°¾ìĿĢ</w>":9718,"ê°ľë°ľìĹĲ</w>":9719,"ìĬ¤íĥł":9720,"ë¸Ĳ":9721,"ìķĦëĿ¼":9722,"ìľĦìĽĲìĿĢ</w>":9723,"ì§ĳê³ĦëĲĲëĭ¤</w>":9724,"êµŃìĹĲìĦľ</w>":9725,"wedn":9726,"ì¶Ķìĸµ":9727,"ì¥¬":9728,"ì¼Ħ":9729,"hosp":9730,"íķ´ì§Ī</w>":9731,"ìľłë¥¼</w>":9732,"ë¹Ħìľ¨ìĿ´</w>":9733,"ë¯¿ê³ł</w>":9734,"ìĿĢíĸīìĿ´</w>":9735,"ê³±":9736,"ìĺģíĺ¼":9737,"heart</w>":9738,"sea</w>":9739,"ìĹ¬íĸīìĿĦ</w>":9740,"ì¤ĦìĹĪëĭ¤</w>":9741,"ìłĪìĿĦ</w>":9742,"ê³łìľĦ":9743,"ìļĶìĨĮ":9744,"ìĬ¬íĶ":9745,"å¤§":9746,"ê³łë°ľ":9747,"ìķĪíĮ":9748,"ìĪĺì§ĳ":9749,"íĿĶíŀĪ</w>":9750,"ìĦ¤ë¦½</w>":9751,"ëĭ¤ìĦ¯</w>":9752,"eling</w>":9753,"ì´Īê³¼":9754,"ë§ŀìĿ´":9755,"âĢ¦âĢ¦.</w>":9756,"ê°¤ëŁŃìĭľ":9757,"ì¡°ìĤ¬ëĲĲëĭ¤</w>":9758,"ì´Ŀìŀ¥</w>":9759,"ì£¼íĸī":9760,"leav":9761,"ëģ¼ë¦¬</w>":9762,"íĺĳëł¥ìĿĦ</w>":9763,"ìĤ¬ê¸°</w>":9764,"areas</w>":9765,"ìĥģíĥľê°Ģ</w>":9766,"íĮ¡":9767,"ëħķ</w>":9768,"íĻ©ìĿĦ</w>":9769,"conven":9770,"ìłģìļ©</w>":9771,"ê·¼ì²ĺ":9772,"ìĺ¤íĨł":9773,"grad":9774,"ìĿ¸íĶĦ":9775,"ìķĪìĭ¬":9776,"íĻĶëł¤íķľ</w>":9777,"usion</w>":9778,"ìĭ¤ìłľ":9779,"ë°ľìĥĿíĸĪëĭ¤</w>":9780,"vels</w>":9781,"verse</w>":9782,"ë°©ìĭĿ</w>":9783,"ìĻ¸íĻĺ":9784,"itor</w>":9785,"ê°ĢìŀĲ</w>":9786,"ì¤ĳìĹĲìĦľëıĦ</w>":9787,"ìĪĺë¡Ŀ":9788,"ë³´ê²Į</w>":9789,"ìĹĲëĭ¤</w>":9790,"ëıĻíĺĦ":9791,"cau":9792,"ìļķìĿĦ</w>":9793,"ìĪĺëĭ¨":9794,"íĨ±</w>":9795,"ra</w>":9796,"treat":9797,"ìŀ¥íķľ</w>":9798,"dead</w>":9799,"ê²½ìļ°ìĹĲ</w>":9800,"ì°½ìŀĳ":9801,"wednesday</w>":9802,"ë¶Ħê¸°":9803,"ëĭ¬ë¦¬":9804,"âĳ¢</w>":9805,"dang":9806,"ìĺģíĻĶë¥¼</w>":9807,"ì´ĿìĦł</w>":9808,"íĺĦìĭ¤</w>":9809,"ì´¬ìĺģ</w>":9810,"achi":9811,"ë¦¬ì¡°":9812,"âĢ¦.</w>":9813,"obvi":9814,"pit":9815,"church</w>":9816,"avo":9817,"ìĽ¨ìĸ´":9818,"surve":9819,"stance</w>":9820,"ë³į":9821,"ìĤ¬ëŀĳìĿĺ</w>":9822,"europe</w>":9823,"ìļĶê¸Ī":9824,"{{":9825,"ì©į</w>":9826,"ìĿ¼ë°ĺìłģìľ¼ë¡ľ</w>":9827,"behavi":9828,"ìĿ¼ìľ¼ì¼":9829,"íķ©ìĿĺ</w>":9830,"ì¸¡ìłķ":9831,"sional</w>":9832,"ugg":9833,"ë°Ķê¿Ķ":9834,"ìĦ±ëĤ¨":9835,"wall</w>":9836,"ì¶©ì²Ń":9837,"ë¯¸êµŃìĿĢ</w>":9838,"ìķĦëĵ¤":9839,"ìłĦëĤł":9840,"ê°ĲìĨĮíĸĪëĭ¤</w>":9841,"íķĺë¯Ģë¡ľ</w>":9842,"hood</w>":9843,"dail":9844,"couple</w>":9845,"correc":9846,"ëĥĦìĥĪ":9847,"ê²½ê¸°ìĹĲ</w>":9848,"account</w>":9849,"ìŀĲìķĦ":9850,"ìĤ¬ìļ©íķľ</w>":9851,"íıīê°ĢíĸĪëĭ¤</w>":9852,"íĮ¨ëŁ¬":9853,"ìĤ¬ê³łë¥¼</w>":9854,"ãħľãħľ</w>":9855,"ëĲĺìĹĪìľ¼ë©°</w>":9856,"íķ´ì§ĢëĬĶ</w>":9857,"ëĭ¹ìĭłìĿĺ</w>":9858,"ìĸ¼êµ´</w>":9859,"íĻľìļ©íķł</w>":9860,"íķľë¯¸":9861,"thursday</w>":9862,"anti":9863,"ê±°ëŀĺë¥¼</w>":9864,"ê´Ģì¸¡":9865,"ìĥģìĬ¹íĸĪëĭ¤</w>":9866,"ìłķíĻķíŀĪ</w>":9867,"ìĺģìĿ´</w>":9868,"ìĺģìĸĳ":9869,"ëŁ¬ìĭľìķĦ":9870,"íļĮìĤ¬ëĬĶ</w>":9871,"ìĹħê³ĦìĹĲ</w>":9872,"ìĤ°ë¦¼":9873,"ìĭ¬ìľ¼ë¡ľ</w>":9874,"ë¡ľìĹĲ</w>":9875,"ìĿĮìĭĿìĿĦ</w>":9876,"ìĺ¤íĶĪ</w>":9877,"immigr":9878,"ah":9879,"ìľłë°ľ":9880,"illing</w>":9881,"seven</w>":9882,"structure</w>":9883,"there":9884,"ëĮĵê¸Ģ":9885,"ìĭľê¸°ìĹĲ</w>":9886,"íļŁ":9887,"ìĿĺë¯¸</w>":9888,"ìĿĺìĽĲìĿĺ</w>":9889,"happy</w>":9890,"rules</w>":9891,"ìłĬìĿĢ":9892,"stay</w>":9893,"ê±´ëĦĪ":9894,"british</w>":9895,"ê°Ģê¹Ŀ":9896,"íķĺëĤĺë¥¼</w>":9897,"spi":9898,"ì§Ģìĥģ</w>":9899,"ê°Ģê²©ìĿĦ</w>":9900,"ë©´ìĿĺ</w>":9901,"ê°ľë°ľíķľ</w>":9902,"êµŃíļĮìĹĲìĦľ</w>":9903,"ìĦľìĦľ</w>":9904,"sof":9905,"ëħ¸ë¬´":9906,"sunday</w>":9907,"ì¢ĭìķĦìļĶ</w>":9908,"ëıĻì°¸":9909,"íĸĪìĹĪëĭ¤</w>":9910,"bey":9911,"climate</w>":9912,"ìĪĺìļĶ</w>":9913,"writ":9914,"ìĹĨìķł":9915,"ëħ¸ìĦł</w>":9916,"ìŀĪìľ¼":9917,"ìĤ°ìĿĺ</w>":9918,"íķĺì§Ģ":9919,"ë°ľìĥĿíķł</w>":9920,"ë¹Ħë¡Ģ":9921,"ìĦłê³¼</w>":9922,"onto</w>":9923,"ê¸°ê°ĦìĹĲ</w>":9924,"ë¡ľëĵľ</w>":9925,"ì¶©ëĤ¨</w>":9926,"ë°Ģìĸ´":9927,"ê·¸ë£¹ìĿĺ</w>":9928,"ê·¸ê±°</w>":9929,"population</w>":9930,"bom":9931,"ìĿ´ë²¤íĬ¸ë¥¼</w>":9932,"lic":9933,"ëĨĴìĿ´</w>":9934,"erous</w>":9935,"review</w>":9936,"list":9937,"previous</w>":9938,"ë³¸ê²©</w>":9939,"ëĴĢëĭ¤</w>":9940,"ìĦľìĻĢ</w>":9941,"ëĵ¤ìĸ´ê°Ħ</w>":9942,"ìķĦëĭĪëĥĲëĬĶ</w>":9943,"hen":9944,"ìĭľìŀĳíķľëĭ¤</w>":9945,"paper</w>":9946,"íĥĪì¶ľ":9947,"california</w>":9948,"ëıħìĿ¼":9949,"ìĦľêµ¬</w>":9950,"ìĿ´ëĦ¤</w>":9951,"ìĤ¬ëĥ¥":9952,"ìķħíĻĶ":9953,"ìłĦíĻĺ</w>":9954,"å¯":9955,"ìĤ¬ëŀĳíķĺëĬĶ</w>":9956,"íĥĢëĭ¹":9957,"ìĬ¤íĮĮ":9958,"ëĤĺìķĦê°Ģ</w>":9959,"ìĸµìĽĲìĹĲ</w>":9960,"ë¯¸êµŃìĿ´</w>":9961,"êµĲë¥ĺ":9962,"ì²łìłĢíŀĪ</w>":9963,"rol":9964,"vil</w>":9965,"books</w>":9966,"ìĦľìļ¸ëĮĢ</w>":9967,"ë¬¸ìĿĢ</w>":9968,"ê²¨ì§Ħ</w>":9969,"ëĬĲëĤĮìĿĦ</w>":9970,"abor":9971,"ì¡°ì¹ĺ</w>":9972,"ãģ£":9973,"âĦ":9974,"wish</w>":9975,"ti</w>":9976,"ì§Ģì¶ľ":9977,"ë©ķìĭľ":9978,"ê¸Īë¦¬":9979,"august</w>":9980,"im</w>":9981,"ê·¸ë§Į</w>":9982,"ì²ĺë¶Ħ":9983,"ëĭ¬ìķĦ</w>":9984,"ìĬ¤íĨłë¦¬</w>":9985,"eth":9986,"ìłĦë§ĿíĸĪëĭ¤</w>":9987,"ëĤ¯":9988,"demon":9989,"ìĿ´ìĬ¬":9990,"ê±°ëĳĲ":9991,"introduc":9992,"ê°Ģë³į":9993,"ì¸µìĿĺ</w>":9994,"paid</w>":9995,"sns</w>":9996,"ê¸°ìĹħê³¼</w>":9997,"analys":9998,"ìĹ°íķľ</w>":9999,"ìŀħìĸ´</w>":10000,"ìĿ¼ì¢ħìĿĺ</w>":10001,"ê³³ìĿ´ëĭ¤</w>":10002,"shor":10003,"ìºłíį¼":10004,"forms</w>":10005,"íģ¬ë£¨":10006,"ì§Ģíķĺì²ł</w>":10007,"ìĻģ":10008,"ë§İìķĺ":10009,"aging</w>":10010,"ì²´ë¡ľ</w>":10011,"acts</w>":10012,"quality</w>":10013,"ault</w>":10014,"ìĦ±íķľ</w>":10015,"ì§ĢìĤ¬ëĬĶ</w>":10016,"allowed</w>":10017,"tives</w>":10018,"ë¸ĶëŀĻ</w>":10019,"ìľłìĤ¬":10020,"ê³µê°ľëĲľ</w>":10021,"offen":10022,"ë²ĪìĿĺ</w>":10023,"íķĺëĿ¼ëĬĶ</w>":10024,"ëĮĢê±°</w>":10025,"ê°ĴìĿ´</w>":10026,"íĻķë³´</w>":10027,"ìĿ¸ìļ©":10028,"ìĪĺìĨĮ":10029,"oh</w>":10030,"íĿ¥</w>":10031,"ìĭľëıĦ</w>":10032,"ìĿĺìĤ¬</w>":10033,"ìĿ´ëĤ´</w>":10034,"ëįĶë¶Īìĸ´ë¯¼ì£¼ëĭ¹</w>":10035,"ëĦĮ</w>":10036,"ìĨĮìĦ¤</w>":10037,"complete</w>":10038,"ë¬¼ë¥ĺ":10039,"íī":10040,"ìŀ¬ëĬ¥":10041,"ê³µëĭ¨</w>":10042,"ì¡°ëĬĶ</w>":10043,"ëĭ¬ìķĦ":10044,"ë°©ìķĪ":10045,"quickly</w>":10046,"looks</w>":10047,"ìĿ¸ëĭ¹</w>":10048,"ìķĪìłķìłģìĿ¸</w>":10049,"micha":10050,"ì¡°ê¸°</w>":10051,"ë§Īë¦¬</w>":10052,"bon":10053,"ìĿ¸ìŀ¬":10054,"íķĻìĬµ</w>":10055,"ëķĢ":10056,"íļĮìŀ¥":10057,"íĦ°ìĹĲ</w>":10058,"sort</w>":10059,"ëŀĺëıĦ</w>":10060,"wood</w>":10061,"íŀĪë¡ľ":10062,"interview</w>":10063,"alli":10064,"ê²ĥìĿ¸":10065,"ë§¡ê³ł</w>":10066,"present</w>":10067,"ìŀ¥ë¥´":10068,"ëįĺëį°</w>":10069,"earth</w>":10070,"ìĨĮëª¨":10071,"ìĺģìŀħ":10072,"ë¬¸íķĻ</w>":10073,"ê°ĵ":10074,"ìķĬëĬĶëĭ¤ëĬĶ</w>":10075,"ìĿ´ëģĮìĸ´":10076,"ìį¼ëĭ¤</w>":10077,"ì¡°ê¸ĪìĶ©</w>":10078,"íĥľíıī":10079,"ëª¨ìĥī":10080,"ì£¼ìµľ":10081,"ëª¨ëĵ":10082,"ì¹ĺëªħ":10083,"huge</w>":10084,"spent</w>":10085,"ìĿ´ëªħë°ķ</w>":10086,"ë°°ëĭ¬":10087,"êµ¬ìĻĢ</w>":10088,"ëĵ¯íķĺëĭ¤</w>":10089,"ìļ´ìĿ´</w>":10090,"various</w>":10091,"êµŃíĨłêµĲíĨµ":10092,"ëĤĻ</w>":10093,"ìŀ¬ê°ľ":10094,"fix</w>":10095,"gor":10096,"dan":10097,"íķĺëŁ¬</w>":10098,"ê²°ë¡ł":10099,"¬ëĭ¤</w>":10100,"council</w>":10101,"bun":10102,"íĶĦíĬ¸</w>":10103,"ìĸ´ëĶĶ</w>":10104,"ì¢ħì¢ħ</w>":10105,"ìĺ·</w>":10106,"ìĦ¼íĦ°ë¥¼</w>":10107,"ìĨįìĦ±</w>":10108,"ëī´ìļķ</w>":10109,"ì§ĢìĽĲíķľëĭ¤</w>":10110,"stly</w>":10111,"ë³Ħë¡ľëĬĶ</w>":10112,"ìķĦë¦¬":10113,"ê°Ĳê³¼</w>":10114,"ë°Ķëĭ¤</w>":10115,"ëª©ìĹĲ</w>":10116,"impact</w>":10117,"ë§ĪíĬ¸</w>":10118,"ðŁ":10119,"ìľ¼ë¡ľìĦľìĿĺ</w>":10120,"ë§ŀì§Ģ</w>":10121,"ìŀ¬ë£Į":10122,"ìĭłìĦł":10123,"ìĿ´ìĸ´ì§ĢëĬĶ</w>":10124,"ìķĪëı¼</w>":10125,"included</w>":10126,"å·":10127,"ìĦ¸ê³ĦìĹĲìĦľ</w>":10128,"ì¹¸</w>":10129,"ë¥ľ":10130,"ë©´ìłĳ":10131,"ê¸°ìĪłìĿ´</w>":10132,"fal":10133,"ìĤ¬ëŀĮìĹĲê²Į</w>":10134,"ë©¤ë²Ħ</w>":10135,"ìľ¼ë¡ľë§Į</w>":10136,"fc":10137,"fication</w>":10138,"ìĿ´ìĬ¤ëĿ¼":10139,"ì¶©ë¶Ħíķľ</w>":10140,"íİĺìĬ¤íĭ°":10141,"ëĵľë¦°ëĭ¤</w>":10142,"ìŀĺëª»</w>":10143,"var":10144,"ì¹¨ìĿĦ</w>":10145,"ëĤĺìĹĲê²Į</w>":10146,"ãĥ»</w>":10147,"ìķĬìľ¼":10148,"match</w>":10149,"ê°ľìĦ¤":10150,"london</w>":10151,"ìĹ¬ìĦ±ìĿĺ</w>":10152,"ë©Īì¶Ķ":10153,"susp":10154,"ee</w>":10155,"ê¸įìłķìłģìĿ¸</w>":10156,"offer</w>":10157,"ps":10158,"ìĿ´ë²ĪìĹĲëĬĶ</w>":10159,"éĽ":10160,"ìłķê³¼</w>":10161,"ìľłìļ©":10162,"ìĹ°ìĿ´</w>":10163,"ì¹´ìĿ´":10164,"ëĶĶì§ĢíĦ¸":10165,"wants</w>":10166,"ì§Ħíĸīíķł</w>":10167,"ë°©ìĹĲìĦľ</w>":10168,"sound</w>":10169,"ì¤ĺìķ¼</w>":10170,"ìľłì¶ľ":10171,"ì§ĢìłģìĿ´</w>":10172,"ìĭłíĺ¸":10173,"function</w>":10174,"writing</w>":10175,"knew</w>":10176,"ìŀ¥ê´ĢìĿ´</w>":10177,"íĺĳìķ½ìĿĦ</w>":10178,"ìľĦìĽĲíļĮë¥¼</w>":10179,"ë³´íĨµ":10180,"uck</w>":10181,"íĻįë³´</w>":10182,"ìĵ°ì§Ģ</w>":10183,"december</w>":10184,"scho":10185,"ìŀĲìĭłìĹĲê²Į</w>":10186,"aren</w>":10187,"ìłľíĴĪìĿĢ</w>":10188,"ì±Ħìļ©</w>":10189,"ì§Ħê³¼</w>":10190,"ìĭ±ê°Ģ":10191,"íķĺê¸°ëĬĶ</w>":10192,"ìłĦíĮĮ":10193,"ìķŀëĳĶ</w>":10194,"nc":10195,"ìĸ´ì©Ķ</w>":10196,"íĹĲ</w>":10197,"ìĸ´ìł¸</w>":10198,"met</w>":10199,"ey":10200,"ìĸ´ë¨¸ëĭĪ</w>":10201,"ëĸ¨ìĸ´ì§ĢëĬĶ</w>":10202,"ëĮĢì²´ë¡ľ</w>":10203,"ìĦłì¶ľ":10204,"jobs</w>":10205,"address</w>":10206,"íļĮìłĦ":10207,"å¿":10208,"ìĹī</w>":10209,"ìµľê·¼ìĹĲëĬĶ</w>":10210,"íĦ°ë¯¸":10211,"ëĮĢë¯¸":10212,"culture</w>":10213,"ìĿ´ìłķ":10214,"ìĿ¸ì¦Ŀ</w>":10215,"ìĦłë³´ìĺĢëĭ¤</w>":10216,"êµĲìĤ¬":10217,"ìĦłìĪĺëĵ¤ìĿ´</w>":10218,"ìĿ´ìĸ´ì§Ī</w>":10219,"leading</w>":10220,"conference</w>":10221,"xim":10222,"attention</w>":10223,"ìĿ´ë¦Ħìľ¼ë¡ľ</w>":10224,"ê°Ĳìĭľ":10225,"pain":10226,"aled</w>":10227,"ì»¤ëĭ¤ëŀĢ</w>":10228,"ìĹ¿":10229,"pping</w>":10230,"êµ°ê³¼</w>":10231,"ìłķëĭ¹</w>":10232,"confi":10233,"íļ¨</w>":10234,"ìĿ´ìĥģìĿ´</w>":10235,"ë¶ĦìŁģ":10236,"ê·¸ë£¹ìĿĢ</w>":10237,"ìķħíķľ</w>":10238,"êµ¬ëıħ":10239,"ëĤĺìĦłëĭ¤</w>":10240,"ìĹ¬ê²¨":10241,"cement</w>":10242,"ê±´ê°ķíķľ</w>":10243,"ëŀĢëĵľ</w>":10244,"chin":10245,"íĦ¸ìĸ´":10246,"íĥĢìĿ´íĭĢ":10247,"ìĭľíĸī</w>":10248,"ìĻ¸ë¶Ģ":10249,"ì¶©ë¶ģ</w>":10250,"ëĮĢë¦½":10251,"tried</w>":10252,"sexual</w>":10253,"moving</w>":10254,"ìĿ¸íĶĦëĿ¼":10255,"century</w>":10256,"ê²°íĺ¼</w>":10257,"ëĵ±ë¡Ŀ</w>":10258,"ëĤĺìģĺ":10259,"ê±´ë¬¼":10260,"ì°į</w>":10261,"ê³Ħì¢Į":10262,"dings</w>":10263,"ìĻķìĿ´</w>":10264,"track</w>":10265,"kg</w>":10266,"ef</w>":10267,"ìĿ´ëĤł":10268,"ê·¸ê²ĥëıĦ</w>":10269,"íĺĦìĥģìĿ´</w>":10270,"card</w>":10271,"ìĸ´ë¦¬":10272,"íķĻìĥĿìĿ´</w>":10273,"tely</w>":10274,"ë®¤ì§ģ":10275,"latest</w>":10276,"ìĭ¬ìĤ¬</w>":10277,"ëĭ¬íķľëĭ¤</w>":10278,"die</w>":10279,"ê±´ìĹĲ</w>":10280,"ìĿ´ìŀĲ":10281,"ê³ĦìĨįíķ´ìĦľ</w>":10282,"íĸĪëĬĶì§Ģ</w>":10283,"ëªħì¹Ń":10284,"ê³łêµ¬":10285,"ê¹Ģíĥľ":10286,"íĽĮë¥Ńíķľ</w>":10287,"gn":10288,"ë¦¬íı¬":10289,"gd":10290,"ê±°ê¸°ìĹĲ</w>":10291,"íĻľìĦ±íĻĶë¥¼</w>":10292,"íĨµìĿĦ</w>":10293,"ëį°ëĬĶ</w>":10294,"ìĨĮìļĶ":10295,"daily</w>":10296,"íķĺë°ĺ":10297,"ëĨĴê²Į</w>":10298,"standard</w>":10299,"inning</w>":10300,"íĦ°ëĬĶ</w>":10301,"guy</w>":10302,"learn</w>":10303,"survi":10304,"ìłĦëł¥</w>":10305,"ë¡ľìĦľëĬĶ</w>":10306,"ë°Ģíķľ</w>":10307,"ë°į</w>":10308,"íĮĶ</w>":10309,"ë¸ĮëłĪìĿ´":10310,"tary</w>":10311,"ëĤĺëĿ¼ëĬĶ</w>":10312,"ìĺĪìĪł</w>":10313,"ëĵ¤ìĸ´ê°ĢëĬĶ</w>":10314,"ìłľê³µíķł</w>":10315,"giving</w>":10316,"ì·Ħëĭ¤</w>":10317,"ìĿ¸ìĭĿ</w>":10318,"ìĭľê³ł</w>":10319,"emy</w>":10320,"ìĻĢëıĦ</w>":10321,"san":10322,"ìķĬìķĺì§Ģë§Į</w>":10323,"talking</w>":10324,"ì»¤íĶ¼</w>":10325,"ser</w>":10326,"íĬ¸ëłĪ":10327,"ìłľì¡°</w>":10328,"ì§ĳìĿ´</w>":10329,"regar":10330,"ê³Ħê¸°ê°Ģ</w>":10331,"íĭ°ë¸Į</w>":10332,"ê²¨ìļ¸</w>":10333,"happen</w>":10334,"hous":10335,"musli":10336,"ìĦ¼íĦ°ëĬĶ</w>":10337,"âĶĢ</w>":10338,"pa</w>":10339,"ìĥģë°ĺ":10340,"íĶĦìĿĺ</w>":10341,"ëĵľëĶĶ":10342,"ë§¤ìŀ¥</w>":10343,"ëĤļ":10344,"ëħ¹ìĥī":10345,"ìĺģíĸ¥ìľ¼ë¡ľ</w>":10346,"gm":10347,"changed</w>":10348,"ëĮĢíķ´ìĦł</w>":10349,"ìĸĺê¸°ë¥¼</w>":10350,"canc":10351,"ë¶Ģë¶ĦìĹĲ</w>":10352,"íĻĶìŀ¬</w>":10353,"ë¹łìł¸</w>":10354,"leaders</w>":10355,"features</w>":10356,"born</w>":10357,"ìĤ´ìķĦ</w>":10358,"aching</w>":10359,"ëĮĢíļĮìĹĲìĦľ</w>":10360,"ìĦłë³´ìĿ¸ëĭ¤</w>":10361,"ìłĢëŁ°</w>":10362,"ìĭłë¶Ħ":10363,"ëĨĴìĺĢëĭ¤</w>":10364,"ë°ķìĬ¤</w>":10365,"ë¬¼ë¡ł":10366,"ìĹĪìĬµëĭĪëĭ¤</w>":10367,"movie</w>":10368,"named</w>":10369,"åī":10370,"íĸĪëĭ¤ë©´</w>":10371,"india</w>":10372,"ëħ¸ëŀĺë¥¼</w>":10373,"parents</w>":10374,"ìĤ¬ìĥģ":10375,"seem</w>":10376,"ì¢Į</w>":10377,"ishing</w>":10378,"íķĻìĽĲ</w>":10379,"porters</w>":10380,"ìĦłë°°":10381,"beyond</w>":10382,"ì¶ķìĨĮ":10383,"ë²ķìĿĺ</w>":10384,"drug</w>":10385,"ëĭ¤ëĵ¤</w>":10386,"ì°¨ê¸°</w>":10387,"ê¸°íĽĦ":10388,"psych":10389,"employe":10390,"mel":10391,"ë¶ĦìľĦê¸°ê°Ģ</w>":10392,"doll":10393,"ëĭ¤ë¥¸":10394,"ìĥĿëªħ</w>":10395,"ê¹İ":10396,"pp</w>":10397,"ê·¼ìľ¡":10398,"limited</w>":10399,"íĺĳìķ½</w>":10400,"gun":10401,"äºº":10402,"ê·łíĺķ":10403,"au</w>":10404,"syn":10405,"ìĤ°ìĹĲ</w>":10406,"ìĽĲìŀ¥</w>":10407,"ë§ŀê³ł</w>":10408,"ìĪĺìŀħ</w>":10409,"depen":10410,"ëķħ</w>":10411,"ê¸ĪìĿĺ</w>":10412,"ëĸ¨ìĸ´ì¡Įëĭ¤</w>":10413,"íķ´ì§Ģ":10414,"senate</w>":10415,"ìľ¤ë¦¬":10416,"ray</w>":10417,"ìĦłìĪĺê°Ģ</w>":10418,"ëĳĺëŁ¬ìĭ¼</w>":10419,"ëĳĺì§¸</w>":10420,"ë¦¬ëĿ¼</w>":10421,"ì¤Į":10422,"ì¡°ë¡Ģ":10423,"ê°Ħíĺ¸":10424,"íķĺìŀĲëĬĶ</w>":10425,"what":10426,"ìł¤</w>":10427,"íģ¬ê³ł</w>":10428,"íĻĶíķľ</w>":10429,"bt</w>":10430,"ë§¤ì¶ľìĿ´</w>":10431,"investigation</w>":10432,"parts</w>":10433,"ìĹħì²´ê°Ģ</w>":10434,"êµ¬ì²´ìłģìľ¼ë¡ľ</w>":10435,"ìļĶì¦ĺ":10436,"íĮĮë¡ľ</w>":10437,"write</w>":10438,"ì£½ìĿĦ</w>":10439,"ë£¡</w>":10440,"ëĮĢìĤ¬</w>":10441,"ëıĻë§¹":10442,"ê°Ħíİ¸":10443,"ì¦Īê°Ģ</w>":10444,"íĨµë³´":10445,"chan":10446,"brought</w>":10447,"ëĨĢìĿ´":10448,"ì¶ķìĤ°":10449,"ìĺ¤ëŀľ":10450,"ìĺĪìķ½":10451,"íĪ¬íĳľ</w>":10452,"hands</w>":10453,"orities</w>":10454,"ê·¸ê°Ħ</w>":10455,"lions</w>":10456,"exac":10457,"title</w>":10458,"ëĦĪë¬´ëĤĺ</w>":10459,"ê²°ìłķíĸĪëĭ¤</w>":10460,"íķľêµŃìĹĲ</w>":10461,"willi":10462,"ëıĮìŀħ":10463,"ê³łìĿĺ</w>":10464,"qui":10465,"product</w>":10466,"message</w>":10467,"ira":10468,"íķĻêµĲìĹĲìĦľ</w>":10469,"nuc":10470,"ym":10471,"ëĭ¹íĻ©":10472,"native</w>":10473,"ì¿ł</w>":10474,"ëıĻë¶Ģ":10475,"load</w>":10476,"michael</w>":10477,"ëĮĢë§Į</w>":10478,"ê³łìĨįëıĦë¡ľ</w>":10479,"ë§Īì¹ĺê³ł</w>":10480,"ë©ĶìĿ¸</w>":10481,"ë³ĳìĿ´</w>":10482,"mari":10483,"ë¬¸ìĹĲ</w>":10484,"text</w>":10485,"ëĮĢíļĮë¥¼</w>":10486,"ìĦľìķ¼</w>":10487,"å¥":10488,"atic</w>":10489,"ìľĦì¹ĺ</w>":10490,"profes":10491,"ê¸°ìģ":10492,"ìĿ´ìĥģìľ¼ë¡ľ</w>":10493,"istic</w>":10494,"ìłģë°ľ":10495,"mob":10496,"ìĬ¬</w>":10497,"ë§ĪëĬĶ</w>":10498,"éŁ":10499,"ìĭ¸ìļ°":10500,"íĻĶíķĺëĬĶ</w>":10501,"cies</w>":10502,"ëīĺ":10503,"ì¹´ë©ĶëĿ¼</w>":10504,"ëĦ·</w>":10505,"particular</w>":10506,"ìĭ¤ìłģìĿĦ</w>":10507,"alleg":10508,"ë°°ëł¤":10509,"ìĺ®ê²¨":10510,"event":10511,"ìĥģìĥĿ":10512,"ìŀ¬íĮĲë¶ĢëĬĶ</w>":10513,"ìĿ¼ìĭľ":10514,"ê³¼ìłķìĹĲ</w>":10515,"ëĵ±ìŀ¥íķľëĭ¤</w>":10516,"apple</w>":10517,"ìĿĺíķĺìĹ¬</w>":10518,"roc":10519,"ê³łíĸ¥":10520,"ì§ĦíĸīíĸĪëĭ¤</w>":10521,"ten</w>":10522,"ìľłì§Ģ</w>":10523,"era</w>":10524,"ìĺ¤ëĬĺìĿĢ</w>":10525,"ìĸ»ê³ł</w>":10526,"ìĦ¸ë¯¸":10527,"laws</w>":10528,"favor":10529,"íĺĦíĸī</w>":10530,"unities</w>":10531,"ìĿ´ìĸ´ì¡Įëĭ¤</w>":10532,"fer</w>":10533,"ì§±":10534,"modern</w>":10535,"remember</w>":10536,"ë£°</w>":10537,"football</w>":10538,"ëļľëł·":10539,"ë¶ĪìĿ´</w>":10540,"army</w>":10541,"specific</w>":10542,"drive</w>":10543,"ê¸°ìŀĲíļĮê²¬ìĿĦ</w>":10544,"ë³´ì¡´":10545,"ìĹ¬ìĿĺ":10546,"majority</w>":10547,"western</w>":10548,"ë§Īì¹¨ëĤ´</w>":10549,"ëħ¼ëŀĢ</w>":10550,"ë§Įëĵ¤ìĸ´ì§Ħ</w>":10551,"ë°ĽìķĦìķ¼</w>":10552,"ìĹ°ë§¹</w>":10553,"íĸīìłķ</w>":10554,"íķĺê³łëĬĶ</w>":10555,"ë§Ļ":10556,"ìĹ´ìĿĦ</w>":10557,"bm":10558,"ê±°ìłĪ":10559,"ìĸ¼êµ´ìĿ´</w>":10560,"ë§Īíģ¬</w>":10561,"ëĦĪìĬ¤</w>":10562,"ìŀ¡ìĿĦ</w>":10563,"ìĿ¸íĶĦëĿ¼</w>":10564,"ë°Ľê¸°</w>":10565,"íĪ¬ìĪĺ</w>":10566,"ë¹Ħìłķê·ľ":10567,"ì§ĪìĿĺ</w>":10568,"nic":10569,"violence</w>":10570,"individual</w>":10571,"revol":10572,"occu":10573,"advertisement</w>":10574,"ìĤ¬ê±´ìĿĺ</w>":10575,"ì²ĺìĿĮë¶ĢíĦ°</w>":10576,"ìķĦì£¼":10577,"ì§Ģë¶Ħ</w>":10578,"safety</w>":10579,"ì´īì§Ħ":10580,"ëģĬìŀĦìĹĨìĿ´</w>":10581,"strugg":10582,"ê´´</w>":10583,"ìķĦíĬ¸":10584,"íĩ´ì§ģ":10585,"íķ´ìł¸</w>":10586,"íľ©":10587,"íĸīíķľ</w>":10588,"ì§Ģê¸ĪìĿĺ</w>":10589,"íķĺìĿĺ</w>":10590,"ë°©ìľ¼ë¡ľ</w>":10591,"pack":10592,"íĦ°ìĿĺ</w>":10593,"ë¶ĪíĻķìĭ¤":10594,"ìĸĳìĿ´</w>":10595,"usually</w>":10596,"íĺĳìĿĺíļĮ</w>":10597,"ìłĢë¥¼</w>":10598,"ë¦¬ìļ°":10599,"ì¹¨íķ´":10600,"sports</w>":10601,"ìĭľëĤĺë¦¬":10602,"ê°ľë³Ħ":10603,"ëª©ìĪ¨ìĿĦ</w>":10604,"chers</w>":10605,"ëĤ´ìķ¼</w>":10606,"ê°Ģê²Į":10607,"ë§¤ëł¥":10608,"kr</w>":10609,"ëıħíĬ¹íķľ</w>":10610,"ì¶ľë²Ķ":10611,"ëŀ¨":10612,"particul":10613,"):</w>":10614,"ìķĬìķĺëįĺ</w>":10615,"ĶìĿĦ</w>":10616,"ë§ĽìĿ´</w>":10617,"íĨµíķĺìĹ¬</w>":10618,"ìłľìĿ¼":10619,"ì°¨ëıĦ</w>":10620,"james</w>":10621,"ìŀħìŀ¥ìĿ´ëĭ¤</w>":10622,"stories</w>":10623,"ê°ķìĽĲ</w>":10624,"intelligence</w>":10625,"~~</w>":10626,"success</w>":10627,"ë¶Ħëªħ</w>":10628,"ê¸°ëĬ¥ìĿ´</w>":10629,"core</w>":10630,"ìĭ¬ìĿĢ</w>":10631,"ìĽĲìŀĳ":10632,"officer</w>":10633,"ê¾¸</w>":10634,"medic":10635,"íıĲì§Ģ":10636,"ìłķë¶ĢìĹĲ</w>":10637,"ìķĪíĮİ":10638,"starting</w>":10639,"ë°ĺë°ķ":10640,"ìĪ²</w>":10641,"íķ´ìĪĺ":10642,"ì§Ħìłķ":10643,"ìĦ±ê³µíĸĪëĭ¤</w>":10644,"ì²Ńìķ½":10645,"ìĿ´ë¦ĦìĿĢ</w>":10646,"ìĪĺë¦¬":10647,"íĽĶ":10648,"ë¬´ìĥģ":10649,"ìĦ¸ìĽĮ":10650,"ets</w>":10651,"ì£¼ë¯¼ëĵ¤ìĿĺ</w>":10652,"recogni":10653,"ê¸Īë©Ķ":10654,"she":10655,"ë¦¼ìĿĦ</w>":10656,"íļĮìĤ¬ë¥¼</w>":10657,"accep":10658,"ì§Ģê¸ī</w>":10659,"gger</w>":10660,"íĿ¡ìĪĺ":10661,"íĤ¤ê°Ģ</w>":10662,"ì¶ľê·¼":10663,"ìłľìĿ´":10664,"continued</w>":10665,"ë¬´ëĮĢ</w>":10666,"xed</w>":10667,"ìĺ¬ë¦¬ëĬĶ</w>":10668,"predic":10669,"ë¯¼ìĿ´</w>":10670,"ìľłì¹ĺ</w>":10671,"ë°Ķë¥¸":10672,"ìķĪìłĦíķľ</w>":10673,"íĶ¼ë¶Ģ":10674,"ìĽĲíĻľ":10675,"ìŀĳëıĻ":10676,"ìľĦìĽĲíļĮê°Ģ</w>":10677,"ìĽĮëĤĻ</w>":10678,"coin</w>":10679,"approach</w>":10680,"ìĿ¼íķĺëĬĶ</w>":10681,"ìŀİ":10682,"ë¹ĦìķĦ</w>":10683,"ìĦ¯":10684,"ìĿ¼ê°ģ":10685,"ìĹĦë§Īê°Ģ</w>":10686,"ëıĦìĦľê´Ģ</w>":10687,"sns":10688,"ships</w>":10689,"ë°ĶëŀĮìĿ´</w>":10690,"íĻĪëŁ°</w>":10691,"ìľĦìĽĲíļĮìĿĺ</w>":10692,"considered</w>":10693,"ì¡°ëĭ¬":10694,"ìĹ°ìĿĺ</w>":10695,"éĿ":10696,"lp":10697,"ì§ĢëĤĺì¹ĺê²Į</w>":10698,"ì¸¡ë©´ìĹĲìĦľ</w>":10699,"practice</w>":10700,"ìŀĶ</w>":10701,"web</w>":10702,"piece</w>":10703,"ëªħíĸĪëĭ¤</w>":10704,"ìĦłë¬¼</w>":10705,"ê·¸ëħĢë¥¼</w>":10706,"ëĦ£ê³ł</w>":10707,"ìĺģìĿĺ</w>":10708,"answer</w>":10709,"insi":10710,"ë°ľëıĻ":10711,"ê¹ľì§Ŀ</w>":10712,"aks</w>":10713,"ê°Ģë©´ìĦľ</w>":10714,"ê¸°ëĮĢë¥¼</w>":10715,"ëª¨ìĬµìĿĢ</w>":10716,"íķĺëĿ½</w>":10717,"ìĤ´ìĿ¸":10718,"ëĬĶëĭ¤ëĬĶ</w>":10719,"episo":10720,"ëĮĢíĨµëł¹ê³¼</w>":10721,"cles</w>":10722,"ë¶ĢëĶ":10723,"ìĭľìĦłìĿĦ</w>":10724,"ìĿ¸ê¸°ê°Ģ</w>":10725,"íĿ¬ëĬĶ</w>":10726,"ìłķëıĦê°Ģ</w>":10727,"ì¶©ìłĦ":10728,"ë¹ĦìłĦ</w>":10729,"ë¶Ħìķ¼ìĹĲ</w>":10730,"pick</w>":10731,"ëª¬ìĬ¤íĦ°</w>":10732,"ìľłë¡ľ":10733,"ìĭľëĦĪ":10734,"anced</w>":10735,"ê°Ģê³µ":10736,"ìĤ¬íĩ´":10737,"ìĭłìŀħ":10738,"ì£Ħë¥¼</w>":10739,"ìĿ¸êµ¬":10740,"ìĦ¼íĦ°ìĹĲìĦľ</w>":10741,"ìķĬìķĺê³ł</w>":10742,"ml</w>":10743,"ë§Įëĵłëĭ¤</w>":10744,"ê°ľë³Ħ</w>":10745,"ë¦ĦìĿ´</w>":10746,"êµŃëĤ´ìĹĲìĦľ</w>":10747,"!âĢĿ</w>":10748,"ì½Ķë¡ľëĤĺë°ĶìĿ´ëŁ¬ìĬ¤</w>":10749,"ìĺ¤ëĬĺëıĦ</w>":10750,"ê³łìļ©</w>":10751,"ki</w>":10752,"lad":10753,"ê²ī":10754,"ê¸°ë³¸ìłģìľ¼ë¡ľ</w>":10755,"ìŀĳê³¡":10756,"íķľìĿĺ</w>":10757,"ê±°ëĵł</w>":10758,"íķĻìĥĿëĵ¤ìĿĢ</w>":10759,"credit</w>":10760,"ê°Ģì¡Įëĭ¤</w>":10761,"ëªħìĹĲê²Į</w>":10762,"ì²¨ëĭ¨</w>":10763,"ê°Ħìłĳ":10764,"ëł¸ëįĺ</w>":10765,"ë°ķìłķ":10766,"ìľ¼ë¡ľìĿĺ</w>":10767,"íĥĢê²©":10768,"officers</w>":10769,"ë§Īëł¨íĸĪëĭ¤</w>":10770,"ì¢ħë£Į</w>":10771,"ìĻľëĥĲ":10772,"ìĿ´íķĺìĿĺ</w>":10773,"ë§Īê°Ģ</w>":10774,"certainly</w>":10775,"íĻįì½©":10776,"ê°ľìĦłìĿĦ</w>":10777,"ë¦¬ìĬ¤íĬ¸</w>":10778,"ê³łê°ĿìĿ´</w>":10779,"ìĿ¼ë°ĺìłģìĿ¸</w>":10780,"ê¸¸ìĹĲ</w>":10781,"å¹":10782,"ì¶ľìĹ°</w>":10783,"placed</w>":10784,"speed</w>":10785,"].</w>":10786,"ì¤ĳê°Ħ</w>":10787,"ìĿĮìĭĿ</w>":10788,"sv":10789,"organization</w>":10790,"ìĨįíķľ</w>":10791,"ì§ĢìĹŃìľ¼ë¡ľ</w>":10792,"ëĶ°</w>":10793,"guar":10794,"ìĿ¸ê³µì§ĢëĬ¥</w>":10795,"ì»¤ì§Ģê³ł</w>":10796,"ìľĹ":10797,"ëĭ¹íĸĪëĭ¤</w>":10798,"non":10799,"ì·¨ìŀ¬":10800,"distri":10801,"cd</w>":10802,"ãģ«":10803,"íļĮë¡ľ</w>":10804,"ìĸ´ë¥´":10805,"ì³ĲìĦľ</w>":10806,"asse":10807,"ìłķì±ħìĹĲ</w>":10808,"ìĿĺë¯¸íķľëĭ¤</w>":10809,"details</w>":10810,"ëŃĺ</w>":10811,"íĬ¹ìłķ":10812,"ì¡°ê°ģ":10813,"prime</w>":10814,"ì§ĳëĭ¨</w>":10815,"seem":10816,"ìĿĺíĺ¹ìĿĦ</w>":10817,"beau":10818,"ëħķ":10819,"distribu":10820,"ìķĦë©Ķë¦¬":10821,"ì²´ìłľ</w>":10822,"ë³¶":10823,"comments</w>":10824,"íĺķìľ¼ë¡ľ</w>":10825,"ologi":10826,"ìĺĪìĥģ</w>":10827,"ì¹Ńì°¬":10828,"ëıĦì¿Ħ":10829,"ë°°íĦ°ë¦¬</w>":10830,"ê·¸ìķ¼ë§Ĳë¡ľ</w>":10831,"wise</w>":10832,"ìķĮë¦¬":10833,"ì¡´ì¤ĳ":10834,"tin":10835,"through":10836,"ë²ķìłķ":10837,"ê°ĢìĨį":10838,"kids</w>":10839,"ê±°ìĺĪìļĶ</w>":10840,"ìĤ¬íķŃìĿĢ</w>":10841,"ìłĦì²´ìĿĺ</w>":10842,"ì¤ĳêµŃìĿĢ</w>":10843,"ìĭľìĹĲìĦľ</w>":10844,"ìľłíĨµ</w>":10845,"ê·¸ëĿ¼":10846,"ìĹŃìĤ¬ìłģ</w>":10847,"mou":10848,"ìłľíĴĪìĿĺ</w>":10849,"ìłĦê¸°ì°¨</w>":10850,"ì¡Įëįĺ</w>":10851,"ê°ĢëĤľ":10852,"ê²°ìłľ</w>":10853,"íķĺìŀĲë©´</w>":10854,"ì¡°ê±´ìĿĦ</w>":10855,"deep</w>":10856,"ê°Ĳê°ģ":10857,"ë¦¬ìĬ¤íĬ¸":10858,"ê²ĥë³´ëĭ¤</w>":10859,"ìĨĮìĨ¡ìĿĦ</w>":10860,"ìĿ´ëŀĢ":10861,"ìŀ¬ìłķ</w>":10862,"attacks</w>":10863,"eight</w>":10864,"êµ¬ìļĶ</w>":10865,"ê³µìĤ¬ëĬĶ</w>":10866,"ìĦ¸ìļ°":10867,"ìĿ¸ê°ĦìĿ´</w>":10868,"ë©Ģë¦¬</w>":10869,"íħĮíģ¬</w>":10870,"ê¸Īíĺ¸":10871,"ëĭ¬ì½¤":10872,"íķĻê³¼":10873,"levels</w>":10874,"ëıĦìłĦ</w>":10875,"ìĤ°íĻĶ":10876,"ìĭłê¸°":10877,"essor</w>":10878,"íĬ¹ë³Ħ</w>":10879,"plus</w>":10880,"ìĿ´ë¯¸ì§Ģë¥¼</w>":10881,"nucle":10882,"door</w>":10883,"ì²ĺìĿĮìĹĲëĬĶ</w>":10884,"íģ¬ëĿ¼":10885,"alone</w>":10886,"ê¸°ëıĦ":10887,"fun</w>":10888,"softw":10889,"executive</w>":10890,"ëĮĢê¸°ìĹħ</w>":10891,"íĥĢìŀĦ</w>":10892,"ìĹ°ê´Ģ":10893,"ìļ©ìĿ¸":10894,"ë¶Ģê°ģ":10895,"ë¹Ħì¦ĪëĭĪìĬ¤</w>":10896,"ìŀĪëĭ¤":10897,"claims</w>":10898,"ëªĩëªĩ</w>":10899,"ì±ħìĿĢ</w>":10900,"ì§Ħì§Ģ":10901,"ìĥĪë²½</w>":10902,"ë¦¬ìĸ¼":10903,"attemp":10904,"íĽ¼ìĨĲ":10905,"ìĶ¨ìĹĲê²Į</w>":10906,"ë¶Ģë¥´ëĬĶ</w>":10907,"çĽ":10908,"dered</w>":10909,"ëĦĲë¦¬</w>":10910,"ìŀħì°°":10911,"girl</w>":10912,"ìĹĨìľ¼ë©´</w>":10913,"ken":10914,"acted</w>":10915,"particularly</w>":10916,"ìª½ìĿĢ</w>":10917,"ìµľìĨĮ":10918,"crow":10919,"ì»·":10920,"consider</w>":10921,"ìĿ¼ì°į</w>":10922,"growing</w>":10923,"ëĭ´ê³ł</w>":10924,"ìĹ°êµ¬ë¥¼</w>":10925,"ìĹ°ê·¹":10926,"ìļĶêµ¬íĸĪëĭ¤</w>":10927,"products</w>":10928,"ê²½ì°°ìĿ´</w>":10929,"ë§ģìĿĦ</w>":10930,"saturday</w>":10931,"looked</w>":10932,"ìĺ¤ëĬĺìĿĺ</w>":10933,"ìłĦì£¼":10934,"ìķĦëĭĻ":10935,"ëĭ¬ëŁ¬ë¡ľ</w>":10936,"ê¸´ê¸ī</w>":10937,"ìĿĺíĺ¹</w>":10938,"ë§ĪìĬ¤</w>":10939,"ë¬´ë£Įë¡ľ</w>":10940,"tual</w>":10941,"ë¶ĢëĶª":10942,"ë³ĢíĻĶìĹĲ</w>":10943,"super</w>":10944,"ê°ĸì¶Ķê³ł</w>":10945,"ìĿ¸ìĥģìĿĦ</w>":10946,"ë¶ĢëĮĢ":10947,"claim</w>":10948,"ac</w>":10949,"íĨ¡</w>":10950,"ìī¬</w>":10951,"ìĿ´ë¡ľìį¨</w>":10952,"nom":10953,"ëĤĺë¦Ħ":10954,"ì¶Ķì§Ħíķł</w>":10955,"ë¡¬":10956,"bing</w>":10957,"ë²Ħëł¤":10958,"thinking</w>":10959,"ê³ĦëĬĶ</w>":10960,"ì·¨ìŀĦ</w>":10961,"ê¸Ģë¡ľë²Į":10962,"ëĦ£ìĸ´</w>":10963,"secu":10964,"ë¹Ļ</w>":10965,"ë²Ħë¦¬ëĬĶ</w>":10966,"ìĭ¶ìĸ´":10967,"ëĿ¼ìĿ´ë¸Į</w>":10968,"ëĪĪë¬¼ìĿĦ</w>":10969,"êµŃê³¼</w>":10970,"ìĨĮë¹Ħ</w>":10971,"kes</w>":10972,"software</w>":10973,"ìĸ´ìĻĢ</w>":10974,"íķĻëħĦ":10975,"ë§ĪìĬ¤íĦ°":10976,"ìĿ´ëħ¸":10977,"ìĿ¼ìľ¼íĤ¤":10978,"ìķŀìŀ¥":10979,"completely</w>":10980,"íĬ¹ìĪĺ</w>":10981,"ê¸°ëĮĢíķĺê³ł</w>":10982,"ì£ĦìĨ¡":10983,"ëĭ¨ëıħ":10984,"íĮĿ":10985,"died</w>":10986,"ħëĭĪëĭ¤</w>":10987,"activi":10988,"damage</w>":10989,"choice</w>":10990,"ëĵľëĶĶìĸ´</w>":10991,"expen":10992,"èĪ":10993,"zer":10994,"ê°Ģì§Ī</w>":10995,"onic</w>":10996,"éĻ":10997,"ìĭ¤ìĭľê°Ħ</w>":10998,"ìĪĺìĭł":10999,"ìĨĮìĻ¸":11000,"ì£¼ë§Ĳ</w>":11001,"íĺģëªħ</w>":11002,"ëĲĺëĬĶ":11003,"ë¹Ħìļ©ìĿ´</w>":11004,"ìłĲê²Ģ</w>":11005,"edi":11006,"ë°©ìĹŃ</w>":11007,"ê°ķìĿĦ</w>":11008,"ì§ĢìĽĲíķł</w>":11009,"ìĤ¬íļĮìĹĲìĦľ</w>":11010,"ë²Ĺìĸ´ëĤĺ</w>":11011,"ëĭ¦":11012,"ëłĮ</w>":11013,"ë²ķìľ¼ë¡ľ</w>":11014,"ê³łê°ĿìĿĺ</w>":11015,"tab":11016,"ê¸°ê°ĦìĿĢ</w>":11017,"íķĺê¸´</w>":11018,"search</w>":11019,"spokes":11020,"ê³łê¸ī":11021,"íķľëķĮ</w>":11022,"ìĹŃìĹĲìĦľ</w>":11023,"ëª°ëŀĲ":11024,"ëĤĺê°Ķëĭ¤</w>":11025,"ê³µê¸°":11026,"ë§ĪìĤ¬":11027,"ëĤĺíĥĢëĤľ</w>":11028,"ëĺĲëĭ¤ìĭľ</w>":11029,"ëª¨ì§ĳ</w>":11030,"ê¶ĮìĹĲìĦľ</w>":11031,"ëįĶëĿ¼":11032,"ì¹´ë¥´":11033,"ìĥĿê°ģíķ´":11034,"serious</w>":11035,"ì°¨ìĽĲìĿĺ</w>":11036,"ê²łìĸ´</w>":11037,"ìį¸":11038,"ìĬ¤ëŁ°</w>":11039,"ê³łíķľ</w>":11040,"ëł¥ëıĦ</w>":11041,"ê°ĴìĿĦ</w>":11042,"ìķĦëĭĪëĿ¼ëĬĶ</w>":11043,"ë§ĮìĿ¼</w>":11044,"ëł¬íķľ</w>":11045,"ëª«":11046,"ìķĦë²Ħì§Ģ":11047,"ìĤ¬ë¡Ģë¥¼</w>":11048,"ë°±ìĿĦ</w>":11049,"ë§¤ë¥¼</w>":11050,"ëĨĴìĿ´ëĬĶ</w>":11051,"ìĥĿê°ģíķĺë©´</w>":11052,"ìĿ´ë©´ìĦľ</w>":11053,"ìłķëıĦëĬĶ</w>":11054,"ëĵ¤ìĹĲê²ĮëĬĶ</w>":11055,"opportunity</w>":11056,"ìĿĺìĭĿìĿĦ</w>":11057,"biggest</w>":11058,"ìĿ´ëĥĲ</w>":11059,"êµ¿":11060,"ìłĦìĿ¸</w>":11061,"íĬ¹ìĦ±ìĿĦ</w>":11062,"ìĦ¸ìĽĮ</w>":11063,"ê´Ģìľ¼ë¡ľ</w>":11064,"analysis</w>":11065,"íĺĦìĥģ":11066,"ë²ķìĽĲ</w>":11067,"student</w>":11068,"ìļĶìĸĳ":11069,"ìĿĺë¡ľ</w>":11070,"ì°¸ìĹ¬íķł</w>":11071,"ëŀĦ</w>":11072,"ë¸Įë¥¼</w>":11073,"ìĤŃìłľ":11074,"ë³´ìĿ¼</w>":11075,"ëĺĳê°ĻìĿĢ</w>":11076,"íķ´ì£¼ê³ł</w>":11077,"ëĮĢë¡ľ":11078,"ê¸°ëĭ¤</w>":11079,"ëıĻíķ´":11080,"ìĺ¤ì§ģ</w>":11081,"ëĲĺê±°ëĤĺ</w>":11082,"ê±´ìĿĢ</w>":11083,"addition</w>":11084,"ìĥĪë²½":11085,"ìķĪê³ł</w>":11086,"lish</w>":11087,"ë§Įìľ¼ë¡ľëıĦ</w>":11088,"ìķĦìĿ´ëıĮ</w>":11089,"ìĭľë¯¼ëĵ¤ìĿĺ</w>":11090,"ê¸Īê°Ĳ":11091,"reality</w>":11092,"ìĬ¤íİĺìĿ¸</w>":11093,"challeng":11094,"ìĿ´ìĦ±":11095,"ë¬´ëĮĢë¥¼</w>":11096,"ë¯¼ìĿĢ</w>":11097,"ìŀĲë¦¬ê°Ģ</w>":11098,"ì´Ŀê´Ħ":11099,"exactly</w>":11100,"ëĭ¤ìĿ´ìĸ´":11101,"ìŀĲìĭłëĵ¤ìĿĺ</w>":11102,"ì½ľëĿ¼":11103,"ëª¨ëį¸ìĿĦ</w>":11104,"ìļ´ìĨ¡":11105,"ëŁŃ</w>":11106,"ëį¤</w>":11107,"ë¶Ħê»ĺ</w>":11108,"weight</w>":11109,"section</w>":11110,"ëĮĢíĳľìĿĺ</w>":11111,"ìŀĲë°ľ":11112,"region</w>":11113,"ë³´ëıĦ</w>":11114,"ë©ĶìĿ´íģ¬":11115,"íķĺëĭĪê¹Į</w>":11116,"ìĽĲëĵ¤ìĿ´</w>":11117,"enced</w>":11118,"ìļ°ìļ¸":11119,"ê°ĸê²Į</w>":11120,"ê±°ëĿ¼ê³ł</w>":11121,"ìĺ¤ë²Ħ":11122,"ìŀ¬ìĿĺ</w>":11123,"ê³µìĤ¬ê°Ģ</w>":11124,"ê°ĲìĹĲ</w>":11125,"ìĦłíĥĿ</w>":11126,"ìĤ°ìĿĢ</w>":11127,"ìķĦë²Ħì§ĢëĬĶ</w>":11128,"additional</w>":11129,"ë¯¸ìĿĺ</w>":11130,"ì½ĺìĦľíĬ¸</w>":11131,"control":11132,"íĺĳìĥģ":11133,"ëłĪìĿ¸":11134,"ëĬĲëĤĮìĿ´</w>":11135,"cele":11136,"lgìłĦ":11137,"íĻĶìŀ¥íĴĪ</w>":11138,"ìĹ°ê¸°</w>":11139,"ìŀĪìľ¼ë¯Ģë¡ľ</w>":11140,"ìĤ¬íļĮê°Ģ</w>":11141,"íķľêµŃìĹĲìĦľ</w>":11142,"yp":11143,"emo":11144,"febru":11145,"ìª½ìĹĲìĦľ</w>":11146,"è¦":11147,"korea</w>":11148,"ëĤľìĿ´":11149,"ìĿ´ê±°ëĤĺ</w>":11150,"ëģĵ":11151,"ë³¸ìĿ¸ìĿĺ</w>":11152,"êµ¬ë¹Ħ":11153,"ëĮĢíĳľíķĺëĬĶ</w>":11154,"ê²½ìłľìĿĺ</w>":11155,"ì£¼ëħĦìĿĦ</w>":11156,"soft</w>":11157,"multiple</w>":11158,"february</w>":11159,"íĸīìĤ¬ëĬĶ</w>":11160,"shar":11161,"ë¹ĽìĿ´</w>":11162,"interesting</w>":11163,"ìĬĪ</w>":11164,"ìŀ¥ë¹Ħ":11165,"aling</w>":11166,"ê°ĲìłķìĿĦ</w>":11167,"ìĦ±ìłģìĿĦ</w>":11168,"ëĭ¹ìĿ¼</w>":11169,"íĺ¸ì£¼</w>":11170,"ìĿĺê²¬</w>":11171,"ultim":11172,"ìĥģíķĺ":11173,"ë³´ìĿ¸</w>":11174,"ê±°ë¦¬ëĳĲ":11175,"ìķĦìĿ´íħľ</w>":11176,"ìĿ¸ëıĦëĦ¤":11177,"íİĺìĿ´ìĬ¤ë¶ģ":11178,"ãĢı,</w>":11179,"ë¡¤</w>":11180,"ê°ĸ</w>":11181,"district</w>":11182,"ìķĦë²Ħì§ĢìĿĺ</w>":11183,"ë¯¸êµŃìĹĲìĦľ</w>":11184,"ëĭ¬ëĿ¼ëĬĶ</w>":11185,"ëĦ¤ìĿ´ë²Ħ</w>":11186,"ëıĦì¤ĳ</w>":11187,"ëĤĺíĥĢëĥĪëĭ¤</w>":11188,"required</w>":11189,"ìĽĶëĵľì»µ":11190,"ìłĪë°ĺ</w>":11191,"ëĭ¹íķ´</w>":11192,"ëıĻìĸĳ":11193,"rad":11194,"ê²ĥìĿ´ëĿ¼</w>":11195,"ê°Ģë²¼":11196,"ìŀĲìĽĲ</w>":11197,"income</w>":11198,"ìĦłëĳĲ":11199,"ì§Ģë¦¬":11200,"êµ½":11201,"ìĤ¬ìłĦìĹĲ</w>":11202,"ìĿ¼íĸī":11203,"ëł¹ìĿĦ</w>":11204,"ìĦľë¯¼":11205,"choo":11206,"ìķĦëģ¼":11207,"ë¶ĢëŁ¬":11208,"ê³µìĤ¬ë¥¼</w>":11209,"ìķĦíĮĮíĬ¸":11210,"èª":11211,"ìĹŃìĿ´</w>":11212,"ì²´ëł¥</w>":11213,"windows</w>":11214,"ëıĻêµ¬</w>":11215,"ë¶ĢìĿ¸</w>":11216,"ë¶Īê³¼</w>":11217,"ìĽĮìĭ±":11218,"ê¸Īë¦¬ë¥¼</w>":11219,"ìĭ¤ìĭľíķľ</w>":11220,"ìŀĳìĹħ</w>":11221,"ë¶Ģëĭ´</w>":11222,"ìĿ¼ìłķ":11223,"íĶ¼íķ´ìŀĲ</w>":11224,"angel":11225,"domin":11226,"ìĦ¸ìļ´</w>":11227,"ê¸īìĹ¬":11228,"van":11229,"éĢ":11230,"ë³´íİ¸":11231,"íķ´ì¤Ħ</w>":11232,"ê¸°ë¡Ŀíķĺë©°</w>":11233,"ì¤ĦìĿĦ</w>":11234,"ìĭŃìĭľìĺ¤</w>":11235,"ë°Ľìľ¼":11236,"ìĬ¤ìĽ¨":11237,"íĶĦë¡ľëĵĢ":11238,"ìĩĦ</w>":11239,"íĤ¤ìļ°":11240,"ìĤĲ":11241,"ì§ĦíĸīëĲĲëĭ¤</w>":11242,"ìĺ¨ê°ĸ</w>":11243,"íı¬ì¼ĵ":11244,"ìĭľëĤ´":11245,"ê°Ģìłķ</w>":11246,"ë¬ĺìĤ¬":11247,"ìĤ¼ìĦ±ìłĦìŀĲëĬĶ</w>":11248,"ì°Ķ":11249,"ìĿ¼íĻĺ":11250,"ì·¨ìĹħ</w>":11251,"ìĹŃìĹĲ</w>":11252,"ìķłë¥¼</w>":11253,"êµĲë¥¼</w>":11254,"ë¯¼ì£¼ëĭ¹ìĿĢ</w>":11255,"sli":11256,"ì¤ĳêµŃìĿ´</w>":11257,"ì¹ľêµ¬ê°Ģ</w>":11258,"ê²łìĸ´ìļĶ</w>":11259,"coach</w>":11260,"ì§ĦíĸīëĲĺëĬĶ</w>":11261,"ìĺĢëĬĶëį°</w>":11262,"ë°ķíķľ</w>":11263,"ì´Īëŀĺ":11264,"ë§Ĳíķĺê³ł</w>":11265,"ì¹¼</w>":11266,"âĢľ(</w>":11267,"ë°Ľìľ¼ë©°</w>":11268,"ìĿĳê¸ī":11269,"ìķµ":11270,"rang":11271,"gone</w>":11272,"dation</w>":11273,"ë¶ĵ":11274,"ì£¼ë§Ĳ":11275,"íķ´ìĥģ":11276,"capital</w>":11277,"ìłľìĭľíĸĪëĭ¤</w>":11278,"ìĤ´íķ´":11279,"........":11280,"meet</w>":11281,"ìķĦëĭĪëĿ¼ê³ł</w>":11282,"ìļ´ìĺģìĿĦ</w>":11283,"íĹ¤ìĸ´":11284,"ste</w>":11285,"ì²ľì²ľ":11286,"ë§ĪìĿĮìľ¼ë¡ľ</w>":11287,"ë¶ĪëŁ¬</w>":11288,"ìĪĺëĬ¥</w>":11289,"scene</w>":11290,"analy":11291,"()</w>":11292,"êµŃë¯¼ìĿ´</w>":11293,"ha</w>":11294,"autom":11295,"íķľëĤĺëĿ¼ëĭ¹</w>":11296,"described</w>":11297,"ê°ĢìĿĦ</w>":11298,"ãħĭãħĭãħĭãħĭãħĭãħĭãħĭãħĭ</w>":11299,"ìłĦë§ĿëĲľëĭ¤</w>":11300,"íĶ¼ê°Ģ</w>":11301,"ì»¨íĬ¸":11302,"))</w>":11303,"ì£¼ìŀ¥ìĿĦ</w>":11304,"ëĲĺìĹĪëįĺ</w>":11305,"ëĵ¤ë©´</w>":11306,"yer</w>":11307,"ë¦ī</w>":11308,"purch":11309,"ops</w>":11310,"effects</w>":11311,"manu":11312,"íķĺëĿ½íĸĪëĭ¤</w>":11313,"option</w>":11314,"ìĹ¬ìķ¼":11315,"neu":11316,"ë§ģíģ¬</w>":11317,"throughout</w>":11318,"ìĿ¼ì¹ĺ":11319,"ë³´ìĥģ</w>":11320,"ì¶°</w>":11321,"ìķĦê°Ģ":11322,"ëı¼ì§Ģ":11323,"ê°Ģìŀħ</w>":11324,"ë³´ëĤ´ëĬĶ</w>":11325,"ì²ĺìĿĮìĿ´ëĭ¤</w>":11326,"battle</w>":11327,"ê°Ģê³Ħ":11328,"ìĭľìĤ¬":11329,"ìŀĲìĤ´":11330,"ì£¼ê°Ģê°Ģ</w>":11331,"ëĵ±ìŀ¥íķľ</w>":11332,"ìĤ´ì§Ŀ</w>":11333,"êµ¬ìłľ":11334,"ìĺ¬ëł¤</w>":11335,"ìħĢ</w>":11336,"ì¡Įëĭ¤ëĬĶ</w>":11337,"tural</w>":11338,"æĢ":11339,"ì»¨íħĲ":11340,"ìĥģì²ĺ":11341,"íĻĺìŀĲê°Ģ</w>":11342,"ê°ķìĽĲëıĦ</w>":11343,"ëĥīìŀ¥":11344,"republicans</w>":11345,"ê±¸ê³ł</w>":11346,"ë¹Ħìľ¨</w>":11347,"ê·¸ëłĩì§Ģë§Į</w>":11348,"ìĺģìĹħ</w>":11349,"ê´Ģìĭ¬</w>":11350,"ë¶īìĿĢ</w>":11351,"ì§Īë¬¸ìĿĦ</w>":11352,"ìĿ¼ìłķìĿĦ</w>":11353,"íĿĻ":11354,"ê³łê¸°":11355,"ì¶ĶìĦĿ</w>":11356,"êµĲìĿĺ</w>":11357,"íĴįë¶Ģíķľ</w>":11358,"ê´Ģë¦¬ìĹĲ</w>":11359,"ê·¸ì³¤ëĭ¤</w>":11360,"ì°¸ìĹ¬íķ´</w>":11361,"ë§Īë²ķ</w>":11362,"ì·¨ìŀĦ":11363,"safe</w>":11364,"sky</w>":11365,"íľ´ëĮĢìłĦ":11366,"entially</w>":11367,"surpris":11368,"ë°ľìĸ¸ìĿĦ</w>":11369,"ë°©ìĺģ":11370,"ìļ°ìĿĺ</w>":11371,"ëįĶìļ±":11372,"ëĮĢìĥģìĿĢ</w>":11373,"ìłģìĹĲ</w>":11374,"ìĤ¼ìķĦ</w>":11375,"íĺĦìĿĢ</w>":11376,"ëĬĲëģ¼ëĬĶ</w>":11377,"íı¬íķ¨ëĲľ</w>":11378,"ê³łìĹĲ</w>":11379,"íıīë²Ķíķľ</w>":11380,"ëª©ìľ¼ë¡ľ</w>":11381,"ë¦¬ë©´ìĦľ</w>":11382,"update</w>":11383,"ìĬ¤íĥĢìĿ¼</w>":11384,"fren":11385,"ê¸īíķľ</w>":11386,"ì±Ħë¬´":11387,"ê¸°ê¸Ī</w>":11388,"ìĿ¸ìĪĺ</w>":11389,"ìĹ¬ëªħìĿĺ</w>":11390,"ìĦłìłķëĲľ</w>":11391,"ìŀ¥ìķłìĿ¸":11392,"ìĿĢíĩ´":11393,"ì£¼ìĿĺìĿĺ</w>":11394,"expan":11395,"ëª¨ê°Ģ</w>":11396,"ìĦ¤ëªħ</w>":11397,"íķľì§Ģ</w>":11398,"ëıĻê³Ħ":11399,"screen</w>":11400,"ì½ĶìĬ¤íĶ¼</w>":11401,"íķĺëĭ¤":11402,"ìĤ¬íĥľê°Ģ</w>":11403,"íĴĢìĿ´ëĲľëĭ¤</w>":11404,"ìĸ´ì°¨":11405,"effort</w>":11406,"journ":11407,"ëĤĺëĿ¼ë¥¼</w>":11408,"formed</w>":11409,"politics</w>":11410,"ìŀħë²ķ":11411,"ê¹Ģíķ´":11412,"forced</w>":11413,"texas</w>":11414,"computer</w>":11415,"ìľĦì¶ķ":11416,"ì¸µìĿĦ</w>":11417,"íķ¸ëĵľ":11418,"dc</w>":11419,"ìĥģëĭ´</w>":11420,"tionally</w>":11421,"ëĲ¨ìĹĲ</w>":11422,"necessary</w>":11423,"directly</w>":11424,"ê´Ģê³ĦìĹĲ</w>":11425,"ëıĻëĦ¤</w>":11426,"prot":11427,"íĶĦëŀľ":11428,"ëª¨ìķĦ":11429,"ëį°ë¦¬ê³ł</w>":11430,"ìĦłìłľ":11431,"ëĭ¨ë§Ĳ":11432,"ìĤ¬íļĮë³µì§Ģ":11433,"ê±°ëĭ¤</w>":11434,"wife</w>":11435,"voters</w>":11436,".(</w>":11437,"ìĥ·":11438,"ìĪĺìĪł</w>":11439,"ëħ¸íĬ¸</w>":11440,"íķĺëĲĺ</w>":11441,"ìĿ¸ìĬ¤íĥĢ":11442,"íĽĦë³´ë¥¼</w>":11443,"ëĨĴìĿ´ê³ł</w>":11444,"ëıħìŀĲ":11445,"ìĭłì²´":11446,"ë¶Ģëĭ¹":11447,"çļ":11448,"mad":11449,"ìķłëĭĪë©ĶìĿ´ìħĺ</w>":11450,"ë³ĦëıĦìĿĺ</w>":11451,"ek</w>":11452,"ìĿ¼ê´Ģ":11453,"íĺĶ":11454,"ìŀ¡ìķĦ</w>":11455,"ê·¸ëłĩëĭ¤</w>":11456,"bar</w>":11457,"thus</w>":11458,"íĺĦìŀ¥ìĹĲ</w>":11459,"ë³Ģìĭł":11460,"ëĿ¼ë¦¬</w>":11461,"ë¶Ħëĵ¤ìĿ´</w>":11462,"ìĸ´ì¨":11463,"ê³łê¸ī</w>":11464,"ë°©ìĨ¡ëĲľ</w>":11465,"ìĭ¤ì§ĪìłģìĿ¸</w>":11466,"ìłķìĭł</w>":11467,"ëĦĺì¹ĺëĬĶ</w>":11468,"ê°ļ":11469,"los</w>":11470,"ë¬¸íĻĶìĺĪìĪł":11471,"ì´īêµ¬íĸĪëĭ¤</w>":11472,"ì¹ĺëŁ¬":11473,"ë©Ģíĭ°":11474,"ëª¨ë¥´ê³ł</w>":11475,"ëģĿëĤĺ":11476,"íĥĪëĿ½":11477,"íĺĦìŀ¥ìĿĦ</w>":11478,"ë³ĦëıĦë¡ľ</w>":11479,"engine":11480,"ìĽ¬":11481,"sport</w>":11482,"lock</w>":11483,"ãģ¨":11484,"ë³´ìķĪ</w>":11485,"íĹĲ":11486,"ìĤ¬ìļ©íķ´</w>":11487,"expect</w>":11488,"å¸":11489,"va</w>":11490,"íıīìĥĿ</w>":11491,"chinese</w>":11492,"ë¸ĮëĿ¼ì§Ī</w>":11493,"íĺĦëĮĢì°¨</w>":11494,"gen</w>":11495,"ëĦĪë¥¼</w>":11496,"ìĻ¸êµŃ</w>":11497,"ìłĦìĦ¤":11498,"ì£¼ë¯¼ëĵ¤ìĿ´</w>":11499,"argum":11500,"hour</w>":11501,"íĿ¥ë¯¸":11502,"ãģĭ":11503,"ìĦ±ëĬ¥</w>":11504,"ë°©ìľĦ":11505,"map</w>":11506,"ë§Īë¬´ë¦¬</w>":11507,"ê²ĮëĬĶ</w>":11508,"íĻĶíķĺê³ł</w>":11509,"champi":11510,"ìļ©ìľ¼ë¡ľ</w>":11511,"ìŀħëł¥":11512,"ìĬ¤íĭ±</w>":11513,"wledge</w>":11514,"ìĿĮìķħìĿĦ</w>":11515,"ì²ľìĹ°":11516,"ëĮĢìĥģìĿĦ</w>":11517,"provided</w>":11518,"relationship</w>":11519,"ìĭłì¤ĳ":11520,"ìĸµëĭ¬ëŁ¬</w>":11521,"íĻķì§ĦìŀĲëĬĶ</w>":11522,"premi":11523,"dark</w>":11524,"ìĪĺìĹħ</w>":11525,"ìĸ´ëł¤ìļ¸</w>":11526,"íĶĮë¡ľ":11527,"ëªħëł¹ìĿĦ</w>":11528,"ìĹħìĹĲ</w>":11529,"designed</w>":11530,"ìŀĸìķĦìļĶ</w>":11531,"ê²ģê²Į</w>":11532,"ìĸµìĽĲìĿ´</w>":11533,"ca</w>":11534,"ìľ¡ìĦ±</w>":11535,"commer":11536,"management</w>":11537,"ë¶Īìĸ´":11538,"bol":11539,"ìĹ°ìĿĢ</w>":11540,"íıīê°Ģê°Ģ</w>":11541,"ìķĦëĤĺ":11542,"guys</w>":11543,"ê²½ë¹Ħ":11544,"ëįĺê°Ģ</w>":11545,"boy</w>":11546,"tra":11547,"ìĻĦë²½íķľ</w>":11548,"ìĿ´ìłł</w>":11549,"ìĹ¬ê°Ŀ":11550,"ë¹Į</w>":11551,"ë§Įëĭ¬ëŁ¬</w>":11552,"ì§Ģíĺľ":11553,"íİ¸ìĹĲ</w>":11554,"class":11555,"ëĵľëŁ¬ëĥĪëĭ¤</w>":11556,"}}":11557,"fla":11558,"atives</w>":11559,"studies</w>":11560,"ëĤĺìĻĢ":11561,"íķŃìĿĺ</w>":11562,"ê°ķíĻĶë¥¼</w>":11563,"target</w>":11564,"ìĿ´ì£¼":11565,".âĢĻ</w>":11566,"íĥĿìĭľ</w>":11567,"ìļ´ëĵľ</w>":11568,"íĮĲìĿ´</w>":11569,"costs</w>":11570,"ìĦ¸ê³ĦìĹĲ</w>":11571,"ê¶ģê·¹":11572,"ìĦ±ê³µíķľ</w>":11573,"íĶĦë¡ľìĦ¸":11574,"ìķĦë¦Ħëĭ¤":11575,"ë¦¬íĭ°":11576,"ì¡Įì§Ģë§Į</w>":11577,"íĮħìĿĦ</w>":11578,"ê°ĢëıĦ</w>":11579,"ìĿ´íķ´íķł</w>":11580,"block</w>":11581,"ì§ģìĽĲìĿ´</w>":11582,"ìłĳìĨį":11583,"ìłĦë§Ŀ</w>":11584,"ç¥":11585,"ìķĬëĭ¤ëĬĶ</w>":11586,"hard":11587,"ëľ»</w>":11588,"john":11589,"ëª»íķĺê²Į</w>":11590,"ìķĵ":11591,"speech</w>":11592,"ìłķë³´íĨµìĭł":11593,"ìĤ¬ìĭ¤ìĿ´ëĭ¤</w>":11594,"ì»¤ë²Ħ":11595,"ì½ĺíħĲì¸łë¥¼</w>":11596,"ë§¤ëıĦ":11597,"ìŀĲì²´ë¥¼</w>":11598,"(@</w>":11599,"attor":11600,"ëĵ¤ìĸ´ìĦľ":11601,"ìĸĳìĤ°":11602,"ì¦Ĳê¸°ëĬĶ</w>":11603,"ëĤ®ì¶Ķ":11604,"overall</w>":11605,"manager</w>":11606,"ì±ħìĿ´</w>":11607,"aded</w>":11608,"ä¸Ń":11609,"ëļĿ":11610,"appl":11611,"remains</w>":11612,"ìĪĺìĥģ</w>":11613,"ìĹ°ëĮĢ</w>":11614,"ì£¼ë³ĢìĹĲ</w>":11615,"hear</w>":11616,"ì²´íģ¬":11617,"showed</w>":11618,"æĽ":11619,"ìłĦìĭľ</w>":11620,"ë³´ì¢Į":11621,"sym":11622,"ature</w>":11623,"ê²ĮìļĶ</w>":11624,"ë¶ĢëĮĢ</w>":11625,"ms":11626,"ìĦĿìĿĺ</w>":11627,"ì°¸ê³ł</w>":11628,"ìłķíķĺê³ł</w>":11629,"ìľĦíĥģ":11630,"ging</w>":11631,"calls</w>":11632,"ìĬ¹ë¦¬</w>":11633,"ìĹħìĿ´</w>":11634,"íģ¬ëłĪ":11635,"civil</w>":11636,"ìĽĲìĿ´ëĭ¤</w>":11637,"terror":11638,"ì§ļ":11639,"íĻĢë¡ľ</w>":11640,"ãĢģ</w>":11641,"ìĹ¬ìĪĺ":11642,"gal":11643,"ê¸°ê³Ħ</w>":11644,"ë³µìĪĺìĿĺ</w>":11645,"ìª¼":11646,"ìłķìĥģ</w>":11647,"ëĤĺëĪł</w>":11648,"digital</w>":11649,"ìĭľìķĦ":11650,"ë°©íĥĦ":11651,"eventually</w>":11652,"íķĺìļ°ìĬ¤</w>":11653,"stant</w>":11654,"ê±´ëį°</w>":11655,"ë§ŀì¶°":11656,"ìŀĦìĹĲëıĦ</w>":11657,"ë£¨ìĿ´":11658,"ìľłë¡ľ</w>":11659,"nuclear</w>":11660,"your":11661,"ì¢ĢëįĶ</w>":11662,"ìī½ëĭ¤</w>":11663,"ëĵ¤ë¡ľë¶ĢíĦ°</w>":11664,"keep":11665,"ë¡ľë¡ľ</w>":11666,"thom":11667,"ë°¥ìĿĦ</w>":11668,"ì¡°ìĤ¬ìĹĲ</w>":11669,"ë¬¼ì§Ī</w>":11670,"turns</w>":11671,"ìĽĲëĤ´ëĮĢíĳľëĬĶ</w>":11672,"recomm":11673,"ì¶Ķì²ľ</w>":11674,"ì²ľìĭľ</w>":11675,"thousands</w>":11676,"ìłľë°ľ</w>":11677,"vin":11678,"dan</w>":11679,"ë¡ľìĬ¤":11680,"ëª¨ìĶ¨</w>":11681,"increased</w>":11682,"visit</w>":11683,"berg</w>":11684,"ìĥģìĬ¹íķľ</w>":11685,")Â·</w>":11686,"ëĦĪìĿĺ</w>":11687,"ìºĺ":11688,"ìĸ´ëł¤ìĽĮ":11689,"ìľłì§Ģíķĺê³ł</w>":11690,"ê¹¨ëĭ¬":11691,"íı¬íķ¨íķĺê³ł</w>":11692,"ìĤ¬ëıĦ</w>":11693,"ëıĮìķĦìĺ¨</w>":11694,"arre":11695,"lack</w>":11696,"èĩ":11697,"ìĽĲëŀĺ":11698,"ìķĦìĬ¤":11699,"ìĿ´ìĸ´ì§Ģê³ł</w>":11700,"prev":11701,"íİĢëĵľ":11702,"ìĦŃì·¨":11703,"wouldn</w>":11704,"êµĲìľ¡ìĿĺ</w>":11705,"proce":11706,"ì¸µìĹĲ</w>":11707,"fas":11708,"ax":11709,"ìŀĩëĶ°ëĿ¼</w>":11710,"ì§ĦíĸīíķĺëĬĶ</w>":11711,"íİĺë¥´":11712,"ê±°ì§Ģ</w>":11713,"ëĮĢìĦł":11714,"ìŀĲê¾¸</w>":11715,"ê±°ë¥¼</w>":11716,"illed</w>":11717,"ìķĦëĥĲ</w>":11718,"comment</w>":11719,"ìŀĲëĵ¤ê³¼</w>":11720,"ê²½ìłľê°Ģ</w>":11721,"ì³Ĳëĭ¤":11722,"ì´Ŀìŀ¥ìĿĢ</w>":11723,"íĥĢë¡ľ</w>":11724,"ìķĦëĭĺ</w>":11725,"ê¼½íŀĮëĭ¤</w>":11726,"charge</w>":11727,"ê¸°ìĹħëĵ¤ìĿĺ</w>":11728,"íķ´ìłľ":11729,"ìĦ¤ê³Ħ</w>":11730,"ì¤ĳë°ĺ":11731,"freedom</w>":11732,"ë®¤ì§Ģì»¬</w>":11733,"enge</w>":11734,"appeared</w>":11735,"lor":11736,"color</w>":11737,"ãĢĲ</w>":11738,"ë¶ĢìĦľ":11739,"ìĹħìĿĢ</w>":11740,"ì´ĿìĿĦ</w>":11741,"environment</w>":11742,"ìķĦë¬´ëŀĺëıĦ</w>":11743,"liter":11744,"ì°¨ìĦ¸ëĮĢ</w>":11745,"crime</w>":11746,"ëĦ¤ìĿ´ë²Ħ":11747,"ìĨĮì¤ĳíķľ</w>":11748,"ê¸īê²©":11749,"ê³µìĿµ":11750,"oms</w>":11751,"ì¡´ìŀ¬íķľëĭ¤</w>":11752,"ìĪĺíĹĺ":11753,"íĦ°ëľ¨":11754,"ìĬ¬ë¡ľ":11755,"íİ¸ìĿĦ</w>":11756,"ëĭµìĿĦ</w>":11757,"íķĻìĪł":11758,"ìŀĲìľłë¡Ńê²Į</w>":11759,"islam":11760,"senior</w>":11761,"ë³´ê±´ë³µì§Ģ":11762,"ì¡Įëĭ¤ê³ł</w>":11763,"ëĵ¤ê³¼ìĿĺ</w>":11764,"ë¹Ħìľ¨ìĿĢ</w>":11765,"property</w>":11766,"ë£Įê°Ģ</w>":11767,"evol":11768,"íŀĺëĵ¤ëĭ¤</w>":11769,"loss</w>":11770,"sent":11771,"íĺĦê¸Ī":11772,"til":11773,"íĬ¸ëĿ¼":11774,"ëĤ¨ëħĢ":11775,"princi":11776,"ê·¸ëŁ¬ëĭĪê¹Į</w>":11777,"religious</w>":11778,"ìĿ¸ëł¥":11779,"thanks</w>":11780,"íĿĲë¦ĦìĿĦ</w>":11781,"ì¤ĳê³ł":11782,"íı¬ìŀ¥":11783,"ìķĮê³ł":11784,"ë¡ľë´ĩ</w>":11785,"ìĸĢ":11786,"ê³µì¤ĳ":11787,"ìĭ¤ë§Ŀ":11788,"ê¹Įì§Ģë§Į</w>":11789,"ê³¨íĶĦ</w>":11790,"ëª¨ìŀĦ":11791,"ìĭľê°Ħìľ¼ë¡ľ</w>":11792,"ê¸°ëĭ¤ë¦¬ê³ł</w>":11793,"ê¶Ĳ":11794,"ìĦľë²Ħ":11795,"ìĤ¬ëĵ¤ìĿĢ</w>":11796,"ë¬»ëĬĶ</w>":11797,"suit</w>":11798,"íĥĳìĬ¹":11799,"fli":11800,"onal</w>":11801,"íķľêµŃìĿĦ</w>":11802,"ë¨¹ìĿĦ":11803,"ìµľìķħìĿĺ</w>":11804,"save</w>":11805,"budget</w>":11806,"cup</w>":11807,"íķ«":11808,"ìĬ¤íĶĦ":11809,"ë³´ìĹ¬ì£¼ê³ł</w>":11810,"ê¸°ìĹħìľ¼ë¡ľ</w>":11811,"efforts</w>":11812,"ê¹¨ëĭ«":11813,"py":11814,"shu":11815,"ê¸°ë¶ĦìĿ´</w>":11816,"ìĿ´ìĹĪëĬĶëį°</w>":11817,"presidential</w>":11818,"ìĭ¤ìĭľ</w>":11819,"tap":11820,"ì¢Įìļ°":11821,"ì¼Ī":11822,"ë²ķê³¼</w>":11823,"ë²½ìĿĦ</w>":11824,"insur":11825,"ëªħìĭľ":11826,"ea":11827,"ë³Ģíĺ¸ìĤ¬</w>":11828,"íŀĺìŀħìĸ´</w>":11829,"ìĹĨìľ¼ë©°</w>":11830,"mec":11831,"chri":11832,"ëĩ¨":11833,"ê¸°ë°ĺìĿĦ</w>":11834,"passed</w>":11835,"letter</w>":11836,"ìľĻ":11837,"ìĺ¤ë°Ķë§Ī</w>":11838,"çĦ":11839,"ë¬´ìĸ¸":11840,"real":11841,"ëłĽ":11842,"ê±°ëĬĶ</w>":11843,"íĶĮëŀľ":11844,"íļĮìĤ¬ìĹĲ</w>":11845,"âĶĢ":11846,"ìŀĲìĹ°</w>":11847,"ê³łë§Ļ":11848,"ë¯¸ì¹ľ</w>":11849,"íĻ©ê¸Ī":11850,"secretary</w>":11851,"immediately</w>":11852,"ëĤĺëĪł":11853,"english</w>":11854,"ì§ĢìŀĲì²´</w>":11855,"ìĿ´ë¯¸ì§Ģ</w>":11856,"ìĸ´ì¨Į":11857,"ny":11858,"ë°Ķëĭ¥ìĹĲ</w>":11859,"ë¦¬ì¼ĢìĿ´":11860,"íĻķì¶©":11861,"ëĮĢíĸī":11862,"ê²©ëł¤":11863,"ì§ĢìĽĲìĿ´</w>":11864,"ì²¨ëĭ¨":11865,"stuff</w>":11866,"âĺħ":11867,"íĮ©</w>":11868,"ìĿ´ìļ©íķĺìĹ¬</w>":11869,"ê³µëıĻìľ¼ë¡ľ</w>":11870,"ìĭĿê³¼</w>":11871,"colum":11872,"ìķĦìĿ´ìĿĺ</w>":11873,"stren":11874,"eless</w>":11875,"íķĺëĿ½íķľ</w>":11876,"ìľĦëĮĢíķľ</w>":11877,"êµ¬ë©į":11878,"íķľíĻĶ</w>":11879,"oring</w>":11880,"ìĭ¬ìĤ¬ë¥¼</w>":11881,"åĭ":11882,"ìĸĳìĦ±</w>":11883,"ëĭ¤ì§Ĳ":11884,"ëĵ£ëĬĶ</w>":11885,"ë¶ĢëĵľëŁ¬":11886,"blood</w>":11887,"tac":11888,"ê²ĥë§Į</w>":11889,"íĺ¸ìĿĳ":11890,"ì§ĢìĽĲíķĺê³ł</w>":11891,"ëıĦëĭ¬":11892,"ë¬´ëĮĢìĹĲ</w>":11893,"hp</w>":11894,"amm":11895,"ëħ¸ëł¥íķĺê²łëĭ¤</w>":11896,"ì¹ĺìĹ´íķľ</w>":11897,"ìĸ»ìĸ´":11898,"ä¸Ģ":11899,"ìĤ¬ë¡Ģ</w>":11900,"ìĭľìĦ¤ìĿ´</w>":11901,"ìļ°ëŁ¬":11902,"pressure</w>":11903,"ê°ķëĤ¨</w>":11904,"craft</w>":11905,"ë°ľê¸ī":11906,"ahead</w>":11907,"degre":11908,"classi":11909,"ìłķìĥģíļĮëĭ´":11910,"ëľ¯":11911,"ë¦¬ìĹĲìĦľ</w>":11912,"ê¶Įëł¥":11913,"ëĭ¤íķĺê²łëĭ¤</w>":11914,"ë©ĭì§Ħ</w>":11915,"ì±ħìŀĦ</w>":11916,"ì°¸ìĹ¬ë¥¼</w>":11917,"fl</w>":11918,"ìŀ¦":11919,"ìŀ¥ìĹĲê²Į</w>":11920,"ìłĢëłĩ":11921,"ame":11922,"ìª½ìĿ´</w>":11923,"ì²łìłĢíķľ</w>":11924,"ze":11925,"ë³´ìľ¡":11926,"ëħ¸ìĿ¸</w>":11927,"ëıĻëĦ¤":11928,"mass</w>":11929,"íĩ´ê·¼":11930,"refl":11931,"ëĦ¤ëįľ":11932,"ìĿ´ë¯¼":11933,"ê¸°ìĺ¨ìĿĢ</w>":11934,"ë¬¸íĻĶìŀ¬":11935,"ê·¸ëŁ´":11936,"ison</w>":11937,"ëłĪëĵľ":11938,"ë°ĸìĹĲëıĦ</w>":11939,"íķ©ëıĻ":11940,"towards</w>":11941,"ëĨĵìķĺëĭ¤</w>":11942,"ìŀĪëĬĶê°Ģ</w>":11943,"ëĳĲìĤ°</w>":11944,"ìĤ¬ê³łë¡ľ</w>":11945,"íķĻìĿĺ</w>":11946,"å¼":11947,"secon":11948,"brain</w>":11949,"fair</w>":11950,"ëĤĺíĥĢëĤĺëĬĶ</w>":11951,"judge</w>":11952,"claimed</w>":11953,"ê³¼ìłľ</w>":11954,"ì²ľì²ľíŀĪ</w>":11955,"ìĻľëĥĲíķĺë©´</w>":11956,"íĮ¬</w>":11957,"ìłķëıĦëĭ¤</w>":11958,"ëħ¼ìĿĺ</w>":11959,"ox":11960,"hill":11961,"lou":11962,"ìķ¡ìĿĺ</w>":11963,"ëĤłìĿĦ</w>":11964,"êµŃìľ¼ë¡ľ</w>":11965,"íģ´ë¦°":11966,"ë¦¬ë²Ħ":11967,"ìĭ¶ìĹĪëĭ¤</w>":11968,"ë£°":11969,"direct</w>":11970,"???</w>":11971,"ëĤ©ë¶Ģ":11972,"íĹĪê°Ģ":11973,"ìłķìĪĺ":11974,"ëĵľëŀĺê³¤":11975,"ì§Ħëĭ¤ëĬĶ</w>":11976,"ë°ĶëŀĮ</w>":11977,"ì¡°ìĤ¬ìĹĲìĦľ</w>":11978,"ìĽĲìĿ¸":11979,"íķľêµŃê³¼</w>":11980,"ë¹ĦíĥĢ":11981,"ìŀħìŀ¥ìĹĲìĦľ</w>":11982,"ëĭĲ</w>":11983,"ê²°ìĿĺ":11984,"ì¹ĺë©´ìĦľ</w>":11985,"ìĨĮìĭľ":11986,"ìĦłìĥĿëĭĺ":11987,"íķĦìļĶíķĺëĭ¤ëĬĶ</w>":11988,"subject</w>":11989,"ìĪĺì§Ģ</w>":11990,"ë°ķë¬¼ê´Ģ</w>":11991,"rise</w>":11992,"ìĸ¸ìłł":11993,"vill":11994,"ìłķë³´ê°Ģ</w>":11995,"íķ©ë³ĳ":11996,"ë³¸ìĿ¸</w>":11997,"ìĥģíĥľìĹĲ</w>":11998,"íħĢ":11999,"ìĨĲëĭĺ":12000,"ìĿ¼ìĸ´ëĤľ</w>":12001,"device</w>":12002,"ìĤ¬ê¸°":12003,"ìĭ¤ìĿĺ</w>":12004,"ìľĦì£¼ë¡ľ</w>":12005,"íķľë§ĪëĶĶ":12006,"link</w>":12007,"ìłķì§Ģ":12008,"ìķĦìłĢ":12009,"ìķĦëĭĪìķ¼</w>":12010,"ìĿ´ì£ł</w>":12011,"ìĥģìļ©":12012,"appear</w>":12013,"íĬ¸ëıĦ</w>":12014,"challenge</w>":12015,"ìĭľìŀĳíķ´</w>":12016,"ì¶Ķì§ĦíķĺëĬĶ</w>":12017,"pil":12018,"ãħĩãħĩ</w>":12019,"íķ´ìĻĶ":12020,"ë°Ľì¹¨":12021,"eyes</w>":12022,"ëĭµëĭµ":12023,"ë¦ĦìĿĦ</w>":12024,"includes</w>":12025,"ìĹ´ìĸ´":12026,"ì¢ĭê³ł</w>":12027,"ìĭłëıĦìĭľ</w>":12028,"íĴĪì§Ī</w>":12029,"mobile</w>":12030,"íķľê¸Ģ":12031,"couldn</w>":12032,"ì¡°ì¢ħ":12033,"ker":12034,"íĥĢì¹´":12035,"ìłĦëĭ´":12036,"after":12037,"ì²«ì§¸</w>":12038,"ë¶Ģì§Ģ</w>":12039,"ìľĦì¹ĺë¥¼</w>":12040,"ìłĲìĪĺë¥¼</w>":12041,"sell</w>":12042,"ìħ¨ëĭ¤</w>":12043,"ìĸĳëıĦ":12044,"ëıĻë¬¼</w>":12045,"ë§ĪëĿ¼":12046,"ëĵĿìłĲ</w>":12047,"fru":12048,"ê°Ĳì§Ģ":12049,"ê²Ģì°°ìĿ´</w>":12050,"ìĿ¼ìŀĲë¦¬":12051,"democrats</w>":12052,"ê°ľì²Ļ":12053,"ì¸¡ë©´":12054,"ì¡´ìŀ¬íķĺëĬĶ</w>":12055,"toward</w>":12056,"íĺ¸ìĹĲ</w>":12057,"ì°¾ê³ł</w>":12058,"íķ´ìĦľëıĦ</w>":12059,"ëĮĢê¸°</w>":12060,"ë§ĮëĤ¬":12061,"=\"</w>":12062,"ì§ĵ</w>":12063,"ì´Īê¸°":12064,"ëĮĢë¥Ļ":12065,"ë²ķìĥģ</w>":12066,"ìĤ¬ê±´ìĹĲ</w>":12067,"ë³ĳìĽĲìĹĲ</w>":12068,"ëıĦìĽĢ":12069,"ìŀłê¹Ĳ</w>":12070,"ãĤĭ":12071,"ëĤĺìĿ´ê°Ģ</w>":12072,"debate</w>":12073,"íıīì°½":12074,"ëĭ¹ì²¨":12075,"ëħĦê³¼</w>":12076,"ìĦľìļ¸ì¤ĳìķĻ":12077,"ìķĦëıĻ</w>":12078,"remain</w>":12079,"ì°½ì¶ľ</w>":12080,"ìĿ¼ë¶Ģë¥¼</w>":12081,"ìĦ¸íĥģ":12082,"ìĭ±ê¸Ģ</w>":12083,"streng":12084,"ìĪĺì¤ĢìĹĲ</w>":12085,"ê°ķìļĶ":12086,"ts":12087,"ëĶ°ë¥´":12088,"ìĸ´ì°¨íĶ¼</w>":12089,"ë§Īëķħ":12090,"ëĨįë¯¼":12091,"Ð¾":12092,"ph</w>":12093,"ìĸ´ì°Į</w>":12094,"íģ¬ë¡ľ</w>":12095,"ë²ĪëıĦ</w>":12096,"poor</w>":12097,"lin</w>":12098,"integr":12099,"íĺĳì¡°":12100,"associated</w>":12101,"beginning</w>":12102,"ì´Ŀë¦¬":12103,"ëĤ´ëĭ¤ë´¤ëĭ¤</w>":12104,"chic":12105,"íĽĦë³´ë¡ľ</w>":12106,"tour":12107,"ìļ°ë¦¬ìĹĲê²Į</w>":12108,"ìĺģêµŃìĿĺ</w>":12109,"ëĵ¤ì§Ģ</w>":12110,"íĻĶìĦ±":12111,"ìĿ´ìĻ¸ìĹĲëıĦ</w>":12112,"ìŀĲëĿ¼":12113,"confl":12114,"ìĿ´ëģĦëĬĶ</w>":12115,"ìľłëĭĽ</w>":12116,"ìłĦíĨµ</w>":12117,"ìĦľëĭ¤</w>":12118,"íķĺëĬĶê°Ģ</w>":12119,"ìĭłìĦ¤</w>":12120,"ìĹ°ìĨį":12121,"ìĦľìļ¸ìĭľ":12122,"ëĨĴìķĺëĭ¤</w>":12123,"íĮĮëĿ¼":12124,"íķ´ì£¼ìĦ¸ìļĶ</w>":12125,"ìķĮì§Ģ</w>":12126,"ìļ´ëĭ¤</w>":12127,"ê·¸ëĵ¤ìĿĦ</w>":12128,"ìĬ¹ìłĲ</w>":12129,"ëħĦìĥĿ</w>":12130,"íĮ¬ëĵ¤ìĿĺ</w>":12131,"ëıĦìĭ¬</w>":12132,"cher</w>":12133,"íĺĳìĥģìĿĦ</w>":12134,"rou":12135,"ì±Ħë¡ľ</w>":12136,"ê°Ģìļ´ëį°":12137,"schools</w>":12138,"ì§Ģì£¼":12139,"ë§¤ëł¥ìĿĦ</w>":12140,"ìĨįëıĦë¡ľ</w>":12141,"ê³µìĿ´</w>":12142,"ê¸°íļį</w>":12143,"íģ´ë¡ľ":12144,"ìĤ¬ìłķ":12145,"ë³¸ì§Ī":12146,"ìĺ¤íĶ¼ìĬ¤":12147,"íĻľëıĻìĿ´</w>":12148,"antly</w>":12149,"ë¬´ë¦İ":12150,"ìºłíĶĦ</w>":12151,"appears</w>":12152,"ê¸°ìģ¨":12153,"acad":12154,"ê³łìĭ¶":12155,"ìĦ¸ìĽłëĭ¤</w>":12156,"ê°Ģì¤ĳ":12157,"difference</w>":12158,"km":12159,"ì¢ħë¥ĺ":12160,"ë¸Įë¦¬íķĳ":12161,"ëªħëıĦ</w>":12162,"íĶĦë¡ľëª¨":12163,"bc":12164,"ë¹¡":12165,"íķ¨ê»ĺíķĺëĬĶ</w>":12166,"advant":12167,"ìĤ¬ëŀĮê³¼</w>":12168,"apparen":12169,"contact</w>":12170,"ìºĲëĤĺëĭ¤</w>":12171,"ì¦ĺ</w>":12172,"ìĿ¸ìŀ¬</w>":12173,"ìľłìĤ¬íķľ</w>":12174,"ìĿ¼ë³¸ìĿĢ</w>":12175,"âĢĶ":12176,"exi":12177,"íĿ¬ê°Ģ</w>":12178,"ìĿ´íĭĢ":12179,"ë§Īëł¨</w>":12180,"clusi":12181,"ê²½ìĹĲ</w>":12182,"ìĿ´ëħĲ":12183,"ìŀĲëıĻ</w>":12184,"ìļ´ìĿĦ</w>":12185,"ì¤ĳëĭ¨</w>":12186,"ëħ¸íĽĦ":12187,"gb</w>":12188,"ê³Ħê¸ī":12189,"ìĪĺì£¼":12190,"ì´Ľ":12191,"ìłķì±ħìĿĺ</w>":12192,"ì´ĪìłĲìĿĦ</w>":12193,"reach</w>":12194,"ê±°ì¹ľ</w>":12195,"ìķĺì§Ģë§Į</w>":12196,"ëıĦëĮĢì²´</w>":12197,"íıŃëł¥":12198,"swit":12199,"ê°Ģì¡±ìĿ´</w>":12200,"íĻĺìĺģ":12201,"art":12202,"gold</w>":12203,"smith</w>":12204,"famil":12205,"fortun":12206,"ease</w>":12207,"conditions</w>":12208,"gender</w>":12209,"íĬ¹ìĦ±ìĥģ</w>":12210,"stream</w>":12211,"ìĦłê±°ìĹĲìĦľ</w>":12212,"ton":12213,"ëª°ëł¤":12214,"ëħ¼ë¦¬":12215,"íĺĳëıĻ":12216,"ëıĻìĥĿ</w>":12217,"ìķĪíĥĢê¹Į":12218,"ìĭĿëĭ¹</w>":12219,"ë¦¬íĭ°</w>":12220,"ìĿ¼ìŀĲë¦¬ë¥¼</w>":12221,"íĥľëıĦë¥¼</w>":12222,"ì»¤ë®¤ëĭĪì¼ĢìĿ´":12223,"íı°ìĿĦ</w>":12224,"https</w>":12225,"ë³´ëĤ´</w>":12226,"ë§ĿìĿ´</w>":12227,"êµ¬ìĹĲìĦľ</w>":12228,"ì¤ĳê°ľ":12229,"ìĻĦíĻĶ</w>":12230,"ìĭľë¯¼ìĿĺ</w>":12231,"íķ¨ìĿĢ</w>":12232,"ë¡¯</w>":12233,"ìĿ´ì¤ĳ</w>":12234,"ìĿ´ê²ĥìĿĦ</w>":12235,"ë°©ì§Ģ</w>":12236,"ì½ľ</w>":12237,"íĮĢìĹĲ</w>":12238,"ë¬¼ê±´ìĿĦ</w>":12239,"ì²´ìĻĢ</w>":12240,"íĹĽ":12241,"rule</w>":12242,"íĿ¬ë§ĿìĿĦ</w>":12243,"rob":12244,"ê±°ëĵł":12245,"advis":12246,"rich</w>":12247,"tch</w>":12248,"ë§¤ì¶ľìĿĢ</w>":12249,"íķĺëĤĺìĿ¸</w>":12250,"ìĺģê´ĳ":12251,"ê·Ģë¥¼</w>":12252,"ì¢ĭìĿĦ</w>":12253,"ìłģíķľ</w>":12254,"ìłĦì²´ë¥¼</w>":12255,"compared</w>":12256,"êµĲì²´</w>":12257,"ë¬´ìŀ¥":12258,"ìĥģíĻĺ":12259,"kers</w>":12260,"Â£</w>":12261,"ì°¨ìĿ´ë¥¼</w>":12262,"ìĿ´íĽĦìĹĲ</w>":12263,"ìłģë¦½":12264,"íķĺê¸°ê°Ģ</w>":12265,"ê¸°ê´ĢìĹĲ</w>":12266,"ëªħë°±":12267,"ëĶĶìĬ¤íĶĮëłĪìĿ´</w>":12268,"oph":12269,"ê°ĪìķĦ":12270,"ëĦĲëĵľ</w>":12271,"perfect</w>":12272,"status</w>":12273,"rs</w>":12274,"voice</w>":12275,"aches</w>":12276,"íķĦìļĶíķĺëĭ¤ê³ł</w>":12277,"íĴįìĿ´</w>":12278,"convers":12279,"ading</w>":12280,"albu":12281,"ë§ĮìĽĲìĹĲ</w>":12282,"ê·¹ëĭ¨":12283,"ìľĦìĽĲìŀ¥ìĿ´</w>":12284,"ë²Ħëł¸":12285,"ê³ĦìĹ´</w>":12286,"ê°Ģì§ĢëĬĶ</w>":12287,"ë¶ĢìłķìłģìĿ¸</w>":12288,"íĿ°":12289,"ìĿ´ìĥģíķľ</w>":12290,"ëĭ¹íķĺê³ł</w>":12291,"ìĿ´ê±¸</w>":12292,"fit</w>":12293,"íķĺê¸°ë¥¼</w>":12294,"ìĬ¹ìĿ¸":12295,"ëĤĺê°Ģê³ł</w>":12296,"ìķĮëłī":12297,"ë¬ĺíķľ</w>":12298,"ìŀĳê°ĢìĿĺ</w>":12299,"ìĹħê³ĦìĿĺ</w>":12300,"ê¸¸ìĿĢ</w>":12301,"largest</w>":12302,"íĤ¤ìĬ¤":12303,"ìĽĮìļĶ</w>":12304,"wait</w>":12305,"ìłĢíŀĪ</w>":12306,"ëªħì¹Ń</w>":12307,"ìĬ¤ëŁ½ëĭ¤</w>":12308,"yourself</w>":12309,"ë§Īê°ĲíĸĪëĭ¤</w>":12310,"ë³´ìķĦ</w>":12311,"ë¶Īê±°":12312,"tim</w>":12313,"experim":12314,"ç¾İ</w>":12315,"ì½¤</w>":12316,"ë¬´ê´Ģ":12317,"ë²Ħíĭ°":12318,"ë²Ħë¦°ëĭ¤</w>":12319,"ê±¸ë¦°</w>":12320,"êµĲëıĦ":12321,"uk":12322,"ê¸°ëĮĢ</w>":12323,"crisis</w>":12324,"pointed</w>":12325,"ì¹ĺìĻĢ</w>":12326,"george</w>":12327,"ìĹĳìĬ¤":12328,"ìļ°ë¦¬ë¥¼</w>":12329,"fire":12330,"ê³µë¶Ģë¥¼</w>":12331,"ìłĳìĸ´":12332,"ê°ĲìĨĮíķľ</w>":12333,"çĻ":12334,"location</w>":12335,"ëĭ¤ëħ":12336,"gin":12337,"activity</w>":12338,"----------------":12339,"asp":12340,"ê²½ìŁģìĿĦ</w>":12341,"ìŀĲìłĦê±°</w>":12342,"ë°ľìĿ´</w>":12343,"physical</w>":12344,"ë°ľìłĦìĹĲ</w>":12345,"ê³łë°±":12346,"ì°©ìĪĺ":12347,"gue</w>":12348,"ìĭľíĹĺìĿĦ</w>":12349,"ëĵ¤ìĸ´ìĺ¤":12350,"ì¶ľìĦĿ":12351,"íķĺê²łìĬµëĭĪëĭ¤</w>":12352,"ìłĪì°¨</w>":12353,"ë°±ìķħ":12354,"ê³łíĨµìĿĦ</w>":12355,"resources</w>":12356,"raised</w>":12357,"ìļ´ìļ©</w>":12358,"ê·¸ë¦¼ìĿĦ</w>":12359,"posted</w>":12360,"ê°ģê°ģìĿĺ</w>":12361,"agreement</w>":12362,"ë¶ĦìľĦê¸°</w>":12363,"ê¹ĢëıĻ":12364,"íİ¸ìľ¼ë¡ľ</w>":12365,"ê¶Įê³ł":12366,"quo":12367,"ë±ĥ":12368,"ìĮĢ</w>":12369,"canadi":12370,"ìĿ´ìĭľ":12371,"ë©ĶìĿ´ìłĢ":12372,"french</w>":12373,"ì£¼ìĭĿìĿĦ</w>":12374,"íĶĮëłĪ":12375,"ìķĦëĭĪëĥĲ</w>":12376,"vely</w>":12377,"ë¹Ħìĭ¼</w>":12378,"ìĥĿê²¼ëĭ¤</w>":12379,"ìĤ¬ëŀĳíķ´</w>":12380,"íķľêµŃìĿ´</w>":12381,"ë§İìĿ´":12382,"basic</w>":12383,"ê°ĢëĬ¥ìĦ±ìĿĢ</w>":12384,"ìĺ¤ìĺ¤":12385,"íķĺëĬĶê²Į</w>":12386,"ê¿Īê¾¸":12387,"ê°ĲìķĪíķĺë©´</w>":12388,"ìĥģíĻ©ìĿĢ</w>":12389,"íŀĮ":12390,"istan</w>":12391,"frequ":12392,"independent</w>":12393,"êµ¬ë¯¸":12394,"ìłĦì£¼</w>":12395,"ëĤ´ëł¤</w>":12396,"chem":12397,"ì£¼ë©°</w>":12398,"ë¡ľìĻĢ</w>":12399,"ì²łìĪĺ</w>":12400,"ë©´ìĹŃ":12401,"characters</w>":12402,"ì±Ļê²¨":12403,"íģ´ëĿ¼ìļ°ëĵľ</w>":12404,"ëĭ¹ê¸°":12405,"ìķĪìłĦìĿĦ</w>":12406,"ê±´ê°Ģ</w>":12407,"ìķĦë§ĪëıĦ</w>":12408,"ë³Ħëĭ¤ë¥¸</w>":12409,"ëĤĺëĪĶ":12410,"ëĿ¼ëĶĶìĺ¤</w>":12411,"ëĲĺìĹĪëĭ¤ê³ł</w>":12412,"...":12413,"failed</w>":12414,"conservative</w>":12415,"ä¸į":12416,"ëĭ¨ìľĦ</w>":12417,"ë¨¹ìĹĪ":12418,"absol":12419,"myself</w>":12420,"ëª¨ëĵľ</w>":12421,"ìĺ¬ë°Ķë¥¸</w>":12422,"ê·¼ë¡ľìŀĲ</w>":12423,"fs</w>":12424,"ìĭ¤ëĤ´":12425,"ëĨį</w>":12426,"ê°ĢìĪĺ":12427,"íĻķëĮĢë¥¼</w>":12428,"adding</w>":12429,"ëłĪëĵľ</w>":12430,"ê°ķìĿĺ":12431,"reasons</w>":12432,"push":12433,"ìĤ´íİ´ë³´ë©´</w>":12434,"ê·¸ëĤł</w>":12435,"íĺĦìĭ¤ìĿĦ</w>":12436,"ë°´ëĵľ</w>":12437,"íĻĶë¬¼":12438,"whatever</w>":12439,"ìĿ´ëĿ¼ë©´ìĦľ</w>":12440,"ë³´ëĤ´ê³ł</w>":12441,"fighting</w>":12442,"ìĽĥìĿĮ":12443,"ë¬´ìĤ¬":12444,"ìľĦìĥĿ":12445,"cities</w>":12446,"ising</w>":12447,"ëįĶë¸Ķ":12448,"stone</w>":12449,"ëĵľë¦¼":12450,"ëĭĪëĬĶ</w>":12451,"ì½ĺìħī":12452,"ìłķíķľëĭ¤</w>":12453,"ìĵ´":12454,"ëĭ¹íķĺëĬĶ</w>":12455,"ì¡°íļĮ":12456,"íķĺìĺĢìľ¼ë©°</w>":12457,"ê¸°ë¶Ħ":12458,"fox</w>":12459,"ìĬĪíį¼</w>":12460,"clearly</w>":12461,"ì§Ħíĸīíķľ</w>":12462,"entary</w>":12463,"ìĪĺëĬ¥":12464,"ê³łêµĲ</w>":12465,"ìĽłëįĺ</w>":12466,"dies</w>":12467,"ìĿ¸íħĮ":12468,"ê¹ĢìĶ¨ëĬĶ</w>":12469,"receive</w>":12470,"ê°Ģê²©ìĹĲ</w>":12471,"ane</w>":12472,"scale</w>":12473,"íĺģëªħ":12474,"ëģĪ</w>":12475,"ì²ŃìĿĺ</w>":12476,"ê¹Ģìŀ¬":12477,"tel</w>":12478,"ëª¨ìķĺëĭ¤</w>":12479,"rock</w>":12480,"ëĭ¨ê³Ħë¥¼</w>":12481,"íĶĦëŀľì°¨ìĿ´":12482,"íļĮìĽĲ</w>":12483,"itation</w>":12484,"ì¤ĳêµ¬</w>":12485,"ìĺ¹</w>":12486,"positive</w>":12487,"ëĤłìĿĺ</w>":12488,"ê¶Įë¦¬":12489,"ëĵ¤ìĸ´ê°Ī</w>":12490,"destro":12491,"ëĲ¨</w>":12492,"ì£¼íĸī</w>":12493,"kar":12494,"ì§ģìĽĲëĵ¤ìĿ´</w>":12495,"ìĭľìłĲ":12496,"fine</w>":12497,"ëĦĺê²¨":12498,"ëĨĢìĿ´</w>":12499,"ìĹħì²´ìĿ¸</w>":12500,"author</w>":12501,"ìŀĲëĭ¤</w>":12502,"ë°ĶìĿ´ìĺ¤</w>":12503,"ìĿ´íĽĦë¡ľ</w>":12504,"association</w>":12505,"ëª°ëĿ¼</w>":12506,"ìĿ´íĭĢ</w>":12507,"ìľłëĮĢ":12508,"ìĿ´ì¤ĳ":12509,"australia</w>":12510,"ëĭ¬ëł¤</w>":12511,"ì§ģìłĦ</w>":12512,"ìį©":12513,"íĸĦ":12514,"ë¶ķê´´":12515,"ìķĬê²ł":12516,"ìĿ´ë¥¸ëĭ¤</w>":12517,"normal</w>":12518,"ë¬¸íĻĶìĿĺ</w>":12519,"ê°ĢëĬ¥ìĦ±</w>":12520,"enty</w>":12521,"treatment</w>":12522,"ìĺĪëĬ¥":12523,"nas":12524,"ê·ľëª¨ë¥¼</w>":12525,"land":12526,"ë³´ëĥĪ":12527,"ë§¡ìķĺëĭ¤</w>":12528,"ëī´ìĬ¤":12529,"vr</w>":12530,"ê´´ë¡Ń":12531,"ë¯¸ì¹ł</w>":12532,"ceo":12533,"ìľłê¶Į":12534,"spending</w>":12535,"helped</w>":12536,"ì²¼":12537,"ë¬´ë£Į":12538,"ìª½ìĿĺ</w>":12539,"ë¸Ĳ</w>":12540,"ì§ĦíĻĶ":12541,"less":12542,"êµ¬ê°Ħ</w>":12543,"ìĭľë¯¼ëĵ¤ìĿ´</w>":12544,"brown</w>":12545,"ìŀ¡ëĬĶ</w>":12546,"ê¸°ëħĲ</w>":12547,"comfor":12548,"mex":12549,"æĻ":12550,"ë¶Īê³¼íķĺëĭ¤</w>":12551,"places</w>":12552,"encour":12553,"capit":12554,"ì¡´ê²½":12555,"ëħĦì§¸</w>":12556,"íķľíħĮ":12557,"íĻķë¥ł":12558,"powerful</w>":12559,"ì§Ģì§Ģë¥¼</w>":12560,"ìĹŃëĮĢ":12561,"ë¡ľë§¨":12562,"êµŃìŀ¥ìĿĢ</w>":12563,"íıŃìĿĦ</w>":12564,"ë¹Ħì¤ĳìĿĦ</w>":12565,"ìŀĪìĸ´ëıĦ</w>":12566,"ëĮĵê¸Ģ</w>":12567,"ê´Ģê³ĦìŀĲ</w>":12568,"íĮĮê°Ģ</w>":12569,"ìĸ´ëĳł":12570,"ìĤ¬íļĮê³µ":12571,"ì§Ģë°©ìŀĲì¹ĺëĭ¨ì²´":12572,"ìĪĺìĪłìĿĦ</w>":12573,"ê¸°ë³¸ìłģìĿ¸</w>":12574,"ê²½íĸ¥ìĿ´</w>":12575,"ê³µìĭľíĸĪëĭ¤</w>":12576,"ìīĲ":12577,"ë¶Ģë¶Ģ":12578,"êµ¬ê¸Ģ":12579,"ë¶Ļìĸ´</w>":12580,"ì¡°ë§Į":12581,"ì°¨ëĿ¼ë¦¬</w>":12582,
[...]
